#version: 0.2
Ġ Ġ
ĠĠ ĠĠ
i n
e r
Ġ t
Ġ a
e n
o n
r e
Ġ s
a t
o r
e s
ĠĠĠĠ ĠĠĠĠ
a n
ĠĠ Ġ
Ġ d
h e
Ġ c
Ġ p
i s
a r
i t
Ċ Ċ
a l
à ¤
l e
o u
Ġ m
Ġ f
Ġ w
Ġ b
a s
in g
Ġt he
i c
e t
Ġ o
i on
e d
e l
Ġ n
r o
en t
Ġ Ð
n d
s t
á ĥ
Ð °
Ġ l
Ġ in
; Ċ
c t
ĠĠĠĠ ĠĠĠ
o m
i l
Ġ h
a m
Ġ =
i d
Ġt o
Ð ¾
â Ģ
Ġ e
Ø §
i m
Ġ re
Ġ v
a d
Ġt h
Ġa nd
Ð µ
Ġo f
Ġ g
u r
Ð ¸
c h
Ġ à
Ġd e
ĉ ĉ
Ġ S
Ġ u
Ñ Ĥ
u t
o l
Ð ½
Ġ y
i g
s e
Ñ Ģ
o t
e m
a g
i v
Ġ (
q u
ĠĠĠĠĠĠĠĠ ĠĠĠ
Ġ T
Ġ {
Ġ A
a y
Ġ I
à ¥
a c
à ¦
u l
) ;Ċ
Ġ C
. ĊĊ
o s
i f
Ġ à¤
o d
Ñ ģ
č Ċ
t r
Ġ k
u n
Ù Ħ
- -
es t
Ã ©
a b
at e
i r
à ¸
Ġ is
Ð »
o w
u s
à ´
at ion
Ġ }
Ġ Ø
or t
Ġ M
Ġ "
/ /
u m
Ġf or
i e
à ª
Ġ P
t er
c e
ou r
Ġ on
a p
t h
Ġ{ Ċ
Ġc on
a v
ĠĠĠĠĠĠĠĠ ĠĠĠĠĠĠĠĠ
er s
* *
t e
, Ċ
Ġb e
Ù ħ
Ġ D
( )
Ù Ī
Ġ B
en d
Ġs t
is t
a k
l y
p e
Ġ *
Ù Ĩ
an d
Ġ r
à ²
re s
u b
o c
Ø ±
Ġa l
à °
es s
it h
âĢ Ļ
Ð¾ Ð
Ġp ro
Ġ j
Ñ ĥ
Ù Ĭ
am e
v er
) Ċ
p ort
Ġa n
Ã ¡
Ã ¤
Ġ L
Ġc om
Ġn e
Ġ F
2 0
as s
Ġ E
Ġs e
l ic
Ġ R
Ġ '
Ð º
Ġ ×
Ġ <
Ñ ĭ
u e
o p
ou t
Ġ en
h t
Ġw h
Ġa s
à ®
Ġ qu
ct ion
ã Ģ
ag e
Ġ N
o g
Ġ it
Ġy ou
i z
Ġw ith
Ġth at
. .
Ġ W
Ġ H
i p
Ð ´
e x
in t
il l
an t
ur n
Ġth is
Ġ Ø§
ar t
Ġt r
Ġ G
Ð ¼
Ġ he
; ĊĊ
Ġ or
0 0
Ġ le
ĠĠĠĠĠĠĠĠ ĠĠĠĠĠĠĠ
i k
m ent
à §
o re
ro m
er e
Ġe x
in e
à µ
an g
Ø ª
-- --
à¤ ¾
Ð ²
in d
g et
> Ċ
a in
o k
i b
u d
p l
t urn
ĠĠĠĠ Ġ
Ã ³
Ġ O
Ġ -
e ct
i a
it y
Ġu n
Ġ if
Ù ĩ
Ġa t
Û Į
c on
p er
Ñ ı
á »
at a
Ø ¯
Ġ $
Ġc h
Ġp r
or m
ac k
Ġa re
i le
p t
Ã Ń
Ġl a
. Ċ
Ġ âĢ
= =
im port
ab le
i al
o st
c l
i es
Ġc l
( "
o v
u st
Ġà ¦
Ã ¼
Ã ¶
à «
Ġ i
ul t
av e
n t
Ġ z
= "
Ġw e
l d
ig ht
ub lic
iv e
al l
áĥ Ĳ
a ct
ĠØ§ ÙĦ
ï ¼
Ġf rom
Ã ¥
Ġs u
i re
** **
el l
ar d
× Ļ
s er
tr ing
Ġ U
Ġ //
ic e
or d
ã ģ
Ġ} Ċ
Ġà ª
f f
- >
; čĊ
n e
Ä ±
d e
r a
Ñ Į
an s
id e
as e
Õ ¡
Ġne w
Ġd o
Ġre turn
ĠT he
ä ¸
Ġn ot
ĉĉ ĉĉ
u re
à¥ ĩ
as t
o b
Ġ V
à¤ °
Ġp l
Ġy our
Ð ·
Ġ áĥ
I n
p r
c om
. s
Ġs h
im e
Ġ J
a re
on t
Ġa r
à ¯
ĠÐ ¿
y pe
Ġ el
it e
Ø ³
× ķ
p p
å ¤
Ġb y
Ø ¨
Ġ K
Ġ +
à ±
Ġqu e
ie w
a il
Ñ ĩ
Ġc an
Ð ¿
20 1
Ġm e
Ġ Ñģ
à ³
áĥĲ áĥ
" ,
Ġw as
àµ į
ac e
od e
Ġin t
a ch
Ġh ave
l l
i j
à¥ į
Ð ³
g e
el f
Ġp ar
Ġa d
áĥ ĺ
st r
on e
r ou
Ġa b
âĢ Ŀ
Ġre s
S t
en s
Ù ģ
d u
ĠĠĠĠĠĠĠĠ ĠĠĠĠĠĠĠĠĠĠĠ
f orm
Ġ Õ
1 0
ic h
Ã §
on g
( '
Ã °
Ã ł
Õ¡ Õ
c c
x t
Ġ :
Ø ©
ÑĢ Ð°
Ø ¹
p on
Ġg et
b er
Ð ¹
R e
à¤¾ à¤
Ġal l
Ġ [
Ñ ħ
at h
i o
Î ±
j ect
Ġt e
ĠI n
Ġd es
Ñ ĸ
ig n
: Ċ
al ue
or k
v e
Ġw ill
} Ċ
( );Ċ
) .
: :
ĠÐ ²
Ġcl ass
{ Ċ
l o
om e
ĠT h
Ñģ ÑĤ
iz e
Ġp ublic
Ġ Ùħ
a u
ul l
å ½
ion s
Ð ±
Ġ} ĊĊ
Ġ @
×Ļ ×
d er
o ok
---- ----
Ñ Ī
Ġu s
an ce
ou ld
ĠÐ ½
ã ĥ
Ġ im
_ _
p ut
i ent
ä º
. get
Ðµ Ð½
Ġp er
Ġv o
ex t
at ed
Ä į
Ù Ĥ
y st
ou s
à¤ ¿
s o
' ,
ãĢ Ĥ
p le
×ķ ×
Ú ©
er v
Ġ Ċ
áĥ Ķ
à ¹
p ar
à¦ ¾
c r
res s
Ġà ´
c k
âĢĻ s
á º
Ġ ì
er t
e y
ou nt
< /
m a
Ġg o
à¥į à¤
Å ¡
Ġs o
ak e
ar y
ĠÐ ¸
u p
v ent
or y
Ġ /
å½ ©
Î ¿
p ro
Ï Ħ
Ã £
f t
Ġ &
ĠÐ º
Ġd is
e ar
Ġm a
àµį à´
ĉĉ ĉ
Ó Ļ
un ction
Ġcon t
er r
_ t
yst em
à¥ Ģ
Ð° Ð½
Ġ out
ro w
Ġu nd
ã Ĥ
u g
i en
Ġà¤ ķ
a h
u al
th is
oc k
Ġh as
w e
f er
áĥĶ áĥ
á Ģ
1 9
Ġ et
Ġn o
) ;ĊĊ
d iv
Ġe m
N ame
Ġ Y
E R
å¤ ©
it ion
Ġu p
Ù ĥ
Ġ= >
r i
Ġm an
Î ¹
er y
Ġp re
# #
Ġ es
ĠÐ ±
Ġs a
in k
en g
ĠÐ ´
àª ¾
' s
e k
Ġ .
Ġ ÙĪ
Ġb ut
Ġà °
Î µ
n g
Ġ est
c re
ou nd
g r
n ame
Ġn a
1 2
Ġà ²
ĠS t
à¯ į
ap p
== ==
i er
I d
ĠR e
re e
C on
**** ****
à¤¿ à¤
Ö Ģ
ĠÐ ¾
or s
) )
S tring
à§ ĩ
o se
te xt
Ġs et
le ct
Ġm y
il d
Ñ Ĩ
Ã ¸
c he
ĠØ ¨
áĥĺ áĥ
ation s
i el
Ġ ÑĤ
Ġ* /
ic al
an n
t o
) ,
e w
Ð¾Ð ²
Ġa m
ow n
ar k
th er
} ĊĊ
en er
Ġm ore
ĠÐ ¼
p s
å ı
Ø Ń
L ist
Ġ= =
à¥ ĭ
ce pt
Î ½
ì Ŀ
g h
Ã ¨
P ro
od el
ĠÐ °
p h
em ent
ing s
ad d
I N
ĠâĢ ľ
à¦¾ à¦
ĠĠĠĠĠĠĠĠĠĠĠĠĠĠĠĠ ĠĠĠĠĠĠĠ
Ð° ÑĢ
ik e
o ol
Ġv ar
ad e
Ġ ro
O N
T he
s et
iv ate
ï¼ Į
u nd
Å Ł
á ŀ
ĠĠĠĠĠĠĠĠ Ġ
Ġg r
æ ľ
Ã£ o
at ch
un g
Ġs tr
cl ud
Ġo p
E x
Ġin ter
1 1
ç ¥
Ġc ol
Ġp art
à¤ ¨
h er
. l
Ġon e
v el
ic k
à¤ Ĥ
at er
r r
e c
.. .
is s
Ġvo id
Ø ¬
Õ ¸
t on
Ġs p
× ¨
à¤ ķ
Ġa g
Å ¾
Ð° Ð»
Ã ¦
. m
Ġ |
Ġthe y
æ Ĺ
Ðµ ÑĢ
Ġcon st
e p
in al
) ĊĊ
Ø ´
Ð¾ Ð»
l es
Ġd a
re turn
Ð° ÑĤ
ĠC h
t t
en c
Ġ our
Ġ< /
Ðµ ÑĤ
Ã º
Ġthe ir
ay s
Ġp e
àª¾ àª
m e
ov e
å½© ç¥
Ġcom p
Ġs elf
ang e
Ġa pp
an c
1 5
Ġde f
ur r
Ġt ime
C om
Ġà ®
qu est
Ġan y
Ä ĥ
ad o
Ð ¶
v en
Ġo b
et h
Ġ #
f o
a z
Ġo ver
Ġ !
d ata
à´ ¿
Ġd ie
Ġ Ú©
Ġab out
e f
à§ į
. c
en ce
Ġd el
le d
Ġst at
Ñ İ
s s
al se
' ]
à¦ ¿
Ġ Î
" Ċ
av a
ent s
Õ ¥
is e
V iew
) ;čĊ
R E
âĢ ľ
Ġw ork
r y
p os
an k
v al
å ħ
o y
Ð¸ ÑĤ
is h
Õ ¶
Ġ er
Ġ ë
e b
Ġf unction
Ø§ ÙĦ
s h
S T
Ġwh ich
pe c
o int
Ġ ent
à ¨
re at
b le
1 6
qu e
ĠâĢ ĵ
i x
à§į à¦
3 0
âĢ ¦
du ct
t em
a w
Ġ*/ Ċ
. com
l ine
à« ĩ
T h
ä ¹
t ion
Ø ²
ab el
à³ į
C ont
Ð¾ ÑĢ
Ġad d
s p
áĥ Ŀ
" ,Ċ
el y
ir st
i Ã³
p ublic
ĠØ ª
s elf
1 8
× Ĳ
m er
u k
2 5
Ġb l
T ype
Ġv an
i ed
r it
al e
Ï ĥ
ess age
ar g
" );Ċ
Ã ª
if ic
iel d
Ġ _
ol l
à± į
Ã µ
20 0
er m
[ '
u ch
d d
Ï ģ
c ess
D ata
Ä ĩ
Ġb u
ĠS tring
v o
c o
× ľ
Ġf e
ad a
Ø§ ÙĨ
. f
cr ip
× Ķ
Ġu se
i an
. p
Ġ ĊĊ
Ġel se
R es
C h
t y
e g
Ð½ Ñĭ
Ġpar a
Ġà ¸
Ġ id
Ġ Ã©
ĠĠĠĠĠĠĠĠĠĠĠĠĠĠĠĠ ĠĠĠĠĠĠĠĠĠĠĠĠĠĠĠĠ
' ,Ċ
Ġ x
å½©ç¥ ¨
Ġal so
Ġwh o
ĠS ystem
es e
Ġ Ãł
Ġ å
erv ice
ĉ if
ĠI t
Ñ į
Ġd er
A T
as h
.s et
Ð¾Ð ¼
Ġh is
o x
() Ċ
ĠÐ½ Ð°
Ġs ome
um ber
Ġd ata
ut h
I D
C ol
. S
" :
Õ «
Ġv er
at or
n er
pe ct
Ġpr ivate
× ¢
ig h
an y
Ġp os
le ment
a j
Ġn ull
à¯į à®
ĠP ro
Ġa cc
Ðµ Ð»
Ġwh en
E N
Ġà¤ ¸
Ġj e
1 4
ĠÐ¿ ÑĢ
Ð¾Ð ´
Ġ end
f ig
( $
a it
k e
Ġo ther
Ù ī
Ò Ľ
y n
Ġof f
_ s
T ext
ol d
g er
v iew
Ġa f
Ġy ear
_ m
ers on
Ð½ Ð¸
al s
" >
Ä ĳ
re d
. b
re ad
Ġb r
à² ¿
ĠÐ ·
-------- --------
ter n
Ġl ike
à³į à²
O R
00 0
_ c
iÃ³ n
t en
à´¿ à´
l i
Ġn ame
Ġne ed
our ce
1 3
A R
Ġk n
de f
urr ent
rou p
cept ion
Å Ĥ
d ate
Ġd i
Ø µ
Ġ Â
20 2
Ġre g
Ø§ Ø±
áĥĿ áĥ
Ġj ust
ĠTh is
à¤ ¤
Ġa ct
ut e
Ð½ Ð¾
Ġor g
Ġs er
Ġh er
. A
_ f
w o
Ġbe en
Ġm ay
Ġl es
ĠØ ¯
Ġtr ue
qu ire
Ï Ģ
É Ļ
le t
it s
Ġm in
u ct
Ġe en
Ö Ĥ
1 00
Ġth ere
par am
s on
Ø ®
Ġ ÙĦ
_ p
ic t
a i
a x
à ·
í ķ
at ing
Ġ ,
ĠU n
Ø Į
Ġre c
. t
y s
ad er
Ġthe m
Ġre al
Ġa c
å ®
con t
Ġc he
ou n
. d
at es
Ġp or
Ġin d
à¸ ²
T o
ic es
it t
C l
ne w
ĠC om
Ġp h
Ġhe l
ĉ return
Ġcom m
ãĢ ģ
à° ¿
ãĢ Ģ
3 2
ut ton
L E
n ing
: ĊĊ
Ġl os
ä¸ Ń
" )
u es
Ġc o
Ø ·
Ġà¤ ¹
T r
å Ī
Ġwh at
Ġb et
čĊ čĊ
on d
ĠW e
ar ch
Ð» Ð¸
Ġa p
tr ib
Ġm et
1 7
Ġ ?
Ġ >
Î ·
// //
u f
us er
v id
ib le
y le
Ġv alue
Ï Ĥ
5 0
à¸ Ļ
eng th
ver y
Ġ Ùģ
pon se
o f
Ġf r
i et
Ð¾Ð ³
cl ass
Ġl o
a ult
as k
Ġhe t
Ġ Ñĥ
" ;Ċ
O b
Ġa v
à±į à°
() .
à¤ ²
à ¶
à§ĩ à¦
Ġh ad
Ġv al
Ġs c
ag es
Ġd u
am es
b e
v ar
à¦¿ à¦
ä »
I T
Ġ× Ķ
Ñ Ħ
å Ĳ
clud e
Ġcon s
Ġ Ã
Ġm ed
Ġd et
um ent
_ l
Ð½ Ð°
an a
Ġw ould
Ï ħ
A L
ro ll
Ġf alse
Ġ Q
å¤© å¤©
Ù ¾
Ġ Z
Ġt ype
o le
ul ar
m in
2 4
Ġh ow
à¤ ¸
ãĢĤ ĊĊ
Ġd r
A N
f ul
Ġd if
t il
n a
Ġw ere
Û ģ
ĠØ ¹
' t
. h
## ##
op le
Ġint o
Ġs ur
ow s
ĠT r
am p
ĠD e
a ir
Ġ{ čĊ
Ġc re
Ġm ake
ro l
in a
Ð¾ ÑĤ
t a
Ġ× Ĳ
( f
Õ¸ ÖĤ
ë ĭ
S E
à« į
Û Ĵ
ĠC on
à¥ ģ
Ġres ult
_ b
Ġre l
_ id
Ø§ Øª
Ġl oc
" >Ċ
ic s
' )
Ġs ub
err or
eth od
Ġ )
z e
Ġf l
à« Ģ
ĠS e
==== ====
à«į àª
a f
à¤ ¹
h o
å ľ
Ġj ava
od y
Ġà¤ ®
m l
t s
Ġl ist
ç ļ
in s
_ d
w w
× ª
E n
à° ¾
× ŀ
å ¹
Ġth an
âĢĻ t
Ðµ Ð¼
it le
ent e
Ġf irst
ic a
Ġa w
Ä Ļ
Ġb o
B y
Ġà¤ ª
S e
âĢ ĵ
P ar
j e
Ġ import
Ġt em
I tem
àµ ģ
] Ċ
ĠØ ³
v alue
i ous
w ork
au se
pr int
Ðº Ð°
lic k
u le
Ġb ack
en se
Ġst art
Ġe in
Ġon ly
( Ċ
ĠY ou
u res
Ġk e
ow er
** Ċ
******** ********
ar r
æ ĸ
çļ Ħ
Ġit s
ra w
à¸ £
Ġf il
Ġs tring
c es
Ġin form
Ä ħ
Ġfor m
ment s
Ò ¯
ur s
it ies
ay er
Ġl ook
Ġle t
Ġstat ic
em ber
d ay
Ġb est
à¤ ®
V alue
l er
å¤ §
Ġund er
à± ģ
Ġtr ans
end er
Ġm ost
Ġf ind
Ġp erson
Ġ ed
ust om
Ð» Ð°
] .
Ġhel p
ol og
Ðº Ð¸
str ing
ĠW h
Ġn g
ate g
le ction
d en
ot h
Ġre m
Ø§ Ø
Î º
Ġpe ople
Ġ! =
ĠA l
Ø £
Ġc ar
à¥ ¤
con st
à® ¿
á» į
à´ ¾
l a
à²¿ à²
Ðµ Ð´
Ä Ł
ĠH e
Ġas s
ire ct
Ġw ant
ar i
: //
ess ion
ĠĠĠĠĠĠĠĠĠĠĠĠĠĠĠĠ ĠĠĠĠĠĠĠĠĠĠĠ
r en
Õ¡Õ ¶
ĠA n
à¥ Ī
Ð¸ Ñı
b o
= {
à¯ ģ
gr am
. D
b r
ĠĠĠĠĠĠĠĠ ĠĠĠĠĠ
ĠĠĠĠ ĠĠ
Ġd on
Ġl ong
Ð¾ Ð½
! ĊĊ
Ġg u
Ġs k
er n
I m
w a
2 2
Ġin st
lo ad
rou gh
Ġu m
ç ½
? ĊĊ
h a
Ñ ī
ĠØ £
et s
_ C
Ġf inal
Î ¼
4 0
Ġar r
Ġ& &
× ĳ
Î »
æĹ ¶
Ġre ad
Ã «
× ©
à¸ Ń
or ld
u c
] ;Ċ
he d
. F
re ak
f r
at us
Ġg e
Ð¾Ð ¹
Ġv e
t ing
' ;Ċ
Ġt est
Ã§ Ã£o
+ +
å Ľ
n o
b l
Ob ject
Ġe very
ĠA r
Ġs pec
Ã© s
Ġsh ould
pon ent
E S
. j
Ġkn ow
o od
il ity
Ex ception
Ġs m
× ł
Ġm on
[ i
Ġc r
Ġs he
ĠE x
w n
ĉ public
Ġ ê
Ġw ell
us h
Å ¼
u x
Ġ Ú
Ġp res
Ġs ch
m s
Ð´ Ð°
Ġs i
y p
Ġd en
tr a
iv er
à´¾ à´
ag er
Ġ ÙĨ
à² ¾
Ġ il
Ġex per
Ó ©
Ġs om
Ġ æ
c ol
at ive
ĠÐ ³
w ord
re g
Ġh and
ur l
ãĢ Ĳ
tr y
r ap
on s
re am
il y
in ess
Ġm od
ãĢ ĳ
Ġd at
Ġth en
G et
ï¼ ļ
y m
Ġth rough
) );Ċ
u se
cc ess
Ġp ol
us s
Ġu ser
Ġch ar
Ġin v
a ut
ç½ ĳ
f ore
id th
Ġo pt
àª ¨
à°¾ à°
. n
f l
ic ht
at s
Ġ ÑĢ
Ã ½
Ġre quire
Ã ¢
ĠI f
U ser
Ġs im
us ing
end s
Ġ Ñĩ
Ġr ight
ser v
Ġ %
è §
Ġp ass
k a
am b
à®¿ à®
£ áĥ
( s
ĠØ§ÙĦ Ùħ
2 3
Ã ¾
Ġ} ,Ċ
áĥĺáĥ ¡
Ġst ud
Î ¯
u i
ÙĬ Ø©
ser t
Ġv ery
ou gh
Ã ±
if e
a is
re f
_ S
vo id
ĠA s
i or
Ġth ese
Ġwe b
St ate
as ed
) :Ċ
àµģ à´
Ġde c
Ð° Ð¼
Ġs ol
Ġpro duct
Ġ å¤©å¤©
Ġc ase
àª °
à²¾ à²
con d
áĥĶáĥ ĳ
C T
" )Ċ
è µ
k ey
Ġgo od
en e
Ø§ Ùħ
Ġm ak
à« ĭ
ar s
ç Ķ
n i
Ġc or
Ġk a
Ġv is
6 0
Õ¥ Õ
Ġb el
à³ ģ
rr ay
Ġpro f
Ġd ur
Ġd own
Ġb us
Ġwh ere
Ġt wo
Ġse e
un c
D e
Â »
Ġs l
Ġp ost
Ġat t
per ty
T ime
Ġp our
Ġa ut
Ġh igh
Ñģ Ñı
Ġaf ter
re m
Ġex t
ph p
f or
c ent
. g
ou se
r u
ack age
ĠĠĠĠ Ċ
Ð° Ðº
at ure
is ter
Ã¼ r
U L
. add
[ ]
Ġe ven
ation al
Ġn ow
ĠS h
ar a
Ġar t
ĠA nd
Ġe ff
ou ble
à°¿ à°
ot e
ien ce
rou nd
Ģ à¸
Ġm en
ĠÐ½ Ðµ
ÙĪ Ø±
Ġun a
id er
rr or
u ff
iv ers
Ġf ile
and o
a ction
ers ion
ar n
o in
. st
in clude
Ġsu p
Ġm ark
S et
if y
an e
r ite
um n
el s
Ð¸ Ð½
Ġman y
ar get
I nd
Ġo s
äº º
Ġl as
Ġ× ŀ
ht t
ĉĉĉĉ ĉ
Ġg l
le g
at t
pl ay
è ½
Ġc al
Ġw ay
. P
_ P
Ġm uch
. C
- s
h r
R O
× ĺ
. M
ay out
Ġbe c
ĠL e
Ġde m
p ress
Ġh o
I C
Ġc ould
. L
( t
à¤¾ à¤°
ant s
in es
2 8
Ġo m
Ġ ou
le ase
à¤ ª
ÖĢ Õ
K ey
ĠN ew
r ide
S ervice
ì Ĺ
2 1
à¦ °
Õ¸ÖĤ Õ
ut ion
I ON
ĠØ ¬
æ Ī
ro id
ĠÐ ¶
Ġwh ile
c ed
z a
D E
= '
( (
à¹ Ī
ut il
it em
9 9
Ġsa id
er a
Ġus ed
à¥į à¤°
vel op
ĠP l
ĠÙħ ÙĨ
H e
j a
or g
Ġ× ľ
ç º
.. /
em b
W h
op y
Ġtr y
w ard
å ¥
w h
Ġf am
' );Ċ
in o
al k
v is
à¸² à¸
Ġo g
Ġn umber
crip tion
Ð¾Ð ±
× ĵ
y a
E vent
2 7
Ġm o
ç ī
Ġ× ĳ
Ġs erv
Ï Į
Ð¾ Ñģ
Ġ* Ċ
ä ½
Ġyear s
oc ument
Ø³ Øª
Ġe vent
Ġh ere
it ed
Ġpl ay
Ġc as
2 6
iz ed
Ã ´
Ĥ à°
crip t
c i
Ðµ Ñģ
an te
l and
- b
ac iÃ³n
id ad
ł áĥ
à³ Ĩ
Ġpr int
Ġ// /
a ar
- m
Ġ X
Ø ¶
Ġ Ùĩ
ĠE n
Ġf in
Î ¬
l og
In fo
Ġ Ù¾
u it
ãĢĳ ãĢĲ
) {Ċ
Ġà¤ ¬
Ġk ey
ot her
Ġl og
ord er
k en
( m
al ly
() );Ċ
A M
Ġcom ple
à¦ ¨
Æ °
am a
ch o
_ T
] ,
Ã© r
k t
A S
å ¼
ĠO n
.. .ĊĊ
ĠÙģ ÙĬ
Ġd ay
Ġinform ation
# include
å į
W e
Ġ ÑĢÐ°
Ġit em
_ n
Ġdif fer
tt p
Ġp as
Ġl ast
E T
B utton
um m
åľ ¨
S h
d it
æ ĺ
al th
á Ł
U R
Å ĳ
ìĿ ´
Ġs in
Ġt ak
à ©
ĠC l
Ġà ¨
ÑĤ Ð¾
Ġpro gram
oll ow
Ġw ord
ail s
P l
Ò ĵ
ro s
Ġin clud
Ġt ext
un t
Ĥ ¬
str uct
b ack
è ¿
' Ċ
Ġc urrent
Ø °
) )Ċ
m p
Ġg reat
é ĩ
ĠF or
Ġin s
ĠØ ±
Ġg ener
ar m
O n
6 4
Ġ ÙĬ
i que
A n
Ð² Ð°
g a
Ġdo es
roll er
at ur
Ġf a
Ġ --
Q u
Ġs ign
åı ĳ
. w
p re
Ġbec ause
Ġh ome
Ġsu ch
M odel
Ġf ree
8 0
Ġd id
A t
Ġ ÏĦ
) ;
M an
am s
à¸ ¥
Ðµ Ðº
. in
O r
E D
t n
Ġbe fore
E rror
Ġ< <
ind ex
it al
Å Ľ
U T
id a
am ple
è ¯
iv es
U n
w are
_ in
ÙĪ ÙĨ
Ġn um
2 9
Ð¸ Ð¼
[ "
Ġpro cess
] ,Ċ
uth or
ëĭ ¤
st e
) čĊ
F ile
com m
Ġpro vid
ç »
ro p
ĠP r
ac he
ect or
lo at
Ð¸ Ð»
Ġy a
0 1
I S
æĹ ¥
à¸ µ
Ã¡ s
id o
Ġon line
Ġvo or
O ver
o ad
f ace
Ġ Ò
f e
Re quest
Ġt ake
A s
ion al
M ap
o h
m an
Ġs te
ch n
ĠF r
) ,Ċ
ä¸Ń å½©ç¥¨
Ġ× ©
Ġo wn
ĠR es
f ile
g o
Ġch ild
à¤ Ĺ
âĢ Ķ
en u
Col or
Ġv iew
A r
our s
Ġc ap
Ġà¤ķ à¥ĩ
Ġà¤ ¨
Ġd as
im es
è ®
Ġáĥ Ľ
Ġ q
t d
' :
Ġb reak
ver t
it er
Ġar g
. W
are d
Ġto p
b y
ual ly
er g
A l
Ġs ize
as on
at ic
ain s
Ġs it
ail able
oc ation
Ġsh ow
Ġc e
.. ..
Ġm odel
Ġus ing
Ò £
en n
in i
Ġdes ign
ÙĬ ÙĨ
r c
is m
Ind ex
ĠÐ· Ð°
Ġs al
Ġche ck
_ M
Ġ{ ĊĊ
áĥ ķ
Ġw orld
Ġà¤ ľ
et er
- t
ÙĪ ÙĦ
ij n
Ġ \
am ent
à¥įà¤ ¯
Ġwe ek
å ¿
à¯ģ à®
Ġ Ñį
× §
lic ation
ĠÐ »
Ġs on
Ġb ook
Ġd Ã©
E lement
Ġh im
it ch
le te
Ġ| |
ĠØ ´
F orm
Ð¸ Ðµ
( self
Ġm it
ĠÐ µ
g ht
( n
( p
d o
iv ity
( c
Ġth ink
Ð¾Ð³ Ð¾
Ġbus iness
T est
ĠÂ «
A D
Ġto t
Ġag ain
ĠĠĠĠĠĠĠĠĠĠĠĠĠĠĠĠ ĠĠĠĠĠĠĠĠĠĠĠĠĠĠĠ
Ġs ystem
Ġc all
y e
Ġpro te
ic o
u a
ad os
Ġc ent
Ġp a
( this
× Ĺ
i h
ä¸ Ģ
×ķ× ª
Ġz u
ì ŀ
A C
p ackage
Ġp oint
ĠB e
×Ļ× Ŀ
ot t
Ġ Ñħ
Ġpro du
Ø «
ĠC ol
à¸ ±
Ġbe ing
ot o
Ġre p
Ġm at
ide o
Ġm ade
i os
Ġe ach
o ot
Ġpos s
() ;ĊĊ
å Ĭ
Ð» Ñı
r ight
Ġr un
Ġà ¹
Ġun e
er o
âĢ Į
è ´
3 5
g en
- d
ater ial
I nt
Ġh a
Ġà¤ ħ
ex port
Ġpl ace
ĠâĢ ĺ
id ent
Ġqu al
Ð¸ ÑĢ
ap e
à² °
Ġp o
_ name
k s
Ä ģ
L e
Ġà¤¹ à¥Ī
ok en
Ġc le
Ġs oc
Ġf ound
Ú ¯
t ype
Ġop en
à¥ĩ à¤Ĥ
Ġis t
× ¤
Ġsup port
ĊĊ Ċ
Th is
Ġcre ate
ĠG r
á» ¥
h ip
or a
Ġp at
D ate
ath er
× ¡
//// ////
ê ³
com e
å °
ĠT o
' )Ċ
Ġ __
. âĢĿ
_ st
p o
à§ ģ
res ult
Con text
ì ł
âĢ į
Ùĩ Ø§
Ġcom o
Ðµ Ð¹
al a
d a
in ed
ë Ĭ
B ox
Ð¾Ð º
is tr
q l
ole an
cre ate
Ð¾Ð ¶
Ġsu per
ter s
end e
n en
Ġl ine
we en
ĠA ll
3 3
() ,
4 5
ist s
Ġ ...
S ize
Ġch o
so le
v ice
à¤ µ
Ġk u
Ġpart ic
or n
à§ °
. e
un e
é ¢
A pp
ic ense
Ġn i
O f
oc al
Ð° Ð¹
Ġor der
Ġs ervice
ê °
( d
ain er
Î Ń
Ġde velop
lect ed
ĠØ Ń
A dd
Cl ass
it a
im ent
Ø§ Ø¯
ĠA pp
yn c
E m
in put
à¤ ¦
ÃŃ a
× Ł
Ġcont in
. util
Ġ/ **Ċ
lic h
A ll
Ġm ethod
Ġ );Ċ
ind ow
ÙĦ Ùī
it or
. T
" ]
Ġc ustom
àµ Ĩ
ĠO r
å º
Ġqu est
Ġà¦ ķ
Ġst ate
ig e
F ield
. B
p ace
Ġne xt
pl oy
Ġl ife
Ġre quest
Ġth ose
! !
P ath
ction s
Ġe as
Ġf ollow
tr ans
se arch
à® ¾
it ial
ç ľ
ind ows
á» ĭ
Ġà¤ ¦
Ġc are
ĠS o
ir a
Ø º
Ñĭ Ð½
3 6
Ġm u
ĠØ ®
Ġv ol
Ġv i
l ist
tr act
um p
Ġarr ay
ic le
A d
Ġdiffer ent
( new
ain ing
Ġo per
Ġà¤ °
Â Ń
F or
I L
ĠL ist
Ġpro v
æ Ģ
U p
.l og
áĥ £áĥ
à¹ ī
Ġbe g
< ?
Ð° Ñģ
Ġex pect
rap h
Ġm ov
row s
ì Ħ
w er
Ġd ans
ĠS ch
ĠT e
Ġm ar
Ġà¤ µ
Ġà¤ ²
ot s
" ĊĊ
Ð¾ ÑģÑĤ
à´ ¤
Ġorg an
i as
à¹ Ģà¸
Ġs ame
A P
ĠA d
Ã ®
def ine
. app
iv ing
#### ####
Ġc oun
Ġinter n
IN G
l ess
] [
. _
Ġloc al
L O
Ġ `
N ode
Ġs ite
n ect
å Į
ur a
f unction
Ġre ce
st ance
Ġ} );Ċ
à´ ¨
Ġpro ble
m en
Ġst yle
Ġre f
Ġreal ly
ir d
el a
× Ľ
L og
if ied
__ __
om b
} ,Ċ
å Ĩ
A rray
u il
iss ion
Î ³
_ F
Ġ ik
sp an
ÑĢ Ñĥ
ĠâĢ Ķ
ÑĤ Ð°
Ġp op
ĉ c
---------------- ----------------
Ġw rit
M essage
r ic
trib ut
( int
Ġs em
9 0
Ú º
Com ponent
Ġ- >
G roup
à±ģ à°
Ġ ide
il i
é Ģ
is hed
at o
æ ³
áĥ ¡
Ġ+ =
Ġm ain
s ite
O M
ĠI nd
à¤ ¯
ĠI s
e ver
m it
Ġs w
Ö ģ
in c
Res ult
ëĬ Ķ
w ays
ur ch
Ġà¤ Ĩ
Man ager
ĉ Ċ
Ġn et
Ġp ay
Ġ Äĳ
Ð¸ Ð¸
Ġqu i
à¸ ´
àª ¤
Ġå¤©å¤© ä¸Ńå½©ç¥¨
àª ¿
Ġ/ *
s c
Ġdef ault
à² ¦
7 0
Im age
Ġa u
à® °
Û Ĳ
Ġex p
à¸ ĩ
à¥ Ĥ
Ġcomm un
Ġ( !
enc y
Over ride
Ġe qu
l ock
Ġ í
Ġm ust
Ġd an
Ï ī
el se
pt y
ä ¼
å¹ ´
Con fig
Ġv on
Ġg ame
ĠÐ¾ ÑĤ
Ġcon f
n ess
Ġob ject
A ct
Ã Ł
ÑģÑĤ Ð²
àª µ
t es
Ġd irect
O T
() ;čĊ
Ġ× ķ
Ġf un
ï ¿
EN T
à¸ ¡
er c
t i
I M
Ġde p
ir m
C ode
he ck
ro ss
Ġav ailable
Ġf act
à¦ ķ
Ġ ÙĤ
8 8
Ġh ab
f rom
Ġar ound
ÑĤ Ð¸
à¦ ¤
Ã¤ r
D es
u ck
ij k
. print
ht ml
çº ¿
ĠS p
a ff
. id
. re
iz ation
st and
Ġc u
V al
o ff
å¤§ åıĳ
ĠB r
Ġre st
Ġt a
Ġ( )
Ġbet ween
Ġc our
àª ®
v a
N ot
ä¹ Ĳ
> čĊ
Ã¶ r
n ot
Ġ áĥĲáĥ
Ġáĥ ĵ
Ġre t
e e
i um
u ro
c ul
W ith
- l
ì §
Ġw er
Ġo ld
Ġs ay
il es
Ġn on
Ã© e
H E
ĠM e
pl ate
o ver
Ġma is
======== ========
p or
ĠĠĠĠĠĠĠĠĠĠĠĠĠĠĠĠ Ġ
htt p
pos it
ical ly
àª ķ
os s
× Ĵ
ort h
Ġmark et
3 1
A B
om en
Ġt erm
Ġ error
ag s
od ule
Ġc ert
Ġt i
v ir
å Ń
0 5
Ġp u
Ø§ Ø¨
Ġand roid
U N
Ġm us
Ġst ill
Ġan g
( String
p en
Ġpl us
Ġa uf
Î ®
Ġwith out
Ð° Ð²
áĥ ł
P r
cr ib
ob al
H and
ĠG et
l n
Ġmon th
Ð¸ Ð¹
Ġa k
Cont roller
Ġm as
ub l
Ð°ÑĤ ÑĮ
. r
ĠU S
Ġ Ùĥ
a an
it o
. /
åĪ Ĩ
_ D
il ter
Ġdis c
Ġof fer
Ġ err
r on
æ ī
/ *
Ġgo ing
à¤¾à¤ ¨
× Ŀ
Ġ â
iv en
A G
ent ial
Ġb oth
Ġb en
qu ery
if t
Ġà¦ ¬
v ol
Ðµ Ð³
ç İ
ne ction
Ġ ÑĪ
Ġà¦ ¸
ad ing
UL L
S c
pon s
Ð¸ Ñģ
an el
b ar
3 7
ol der
Ġpro ject
à´ °
en a
re ate
trib ute
te ger
Ġma x
0 4
m et
- f
> </
ĠN o
ateg ory
Ġp ut
Ö Ħ
n y
at i
al i
Ġp age
ip p
à¤° à¥įà¤
Ġ} čĊ
à¸ ģ
} čĊ
äº ¬
ft ware
Ġre port
3 4
one y
ãĥ ¼
n 't
Ġbu ild
av ing
Î¿ Ïħ
ing le
F r
umm ary
Ġu ma
I s
Ġin cre
g round
Ġh app
olog y
Ð¾Ð ·
> ĊĊ
ĠL a
à¦¾à¦ °
ad i
Ġan n
U S
Ð ¡
å¼ Ģ
v ed
itt le
Ġl ove
an i
Õ¸ Õ
Ġle g
Ò ³
åĽ ½
ou d
Ġcl ient
Ġse g
c ode
ĠO b
Ġàª ķ
à§ Ł
Ġáĥ ¡
à¦ ²
0 8
Ġcom e
ww w
áº ¿
ç Ľ
_ re
yp es
Ġt er
th ing
# define
ĠB ut
ust r
Ð Ĳ
Ġal s
Ñĥ ÑĢ
ĠÐ¾ Ð±
Ñ Ĭ
Ġb a
_ N
Ġst d
in ter
ĉĉĉĉ ĉĉ
à« ģ
s g
t he
l ar
Ã ²
Ġcol or
áº ¡
à¸ Ķ
b ook
Ġf ri
ap i
um e
pr ivate
Ġc ost
ard s
Ġse cond
Ġcont ent
Ġto o
r ist
b a
Ġp ath
Ġà¤ Ĺ
ĠQ u
ìĹ Ĳ
og le
. is
Ð¸ Ð·
P E
Ð° ÑĢÐ°
ik a
0 9
Ġen g
.l ength
ĠC ont
Ð Ł
ÙĬ Ø±
Ġf ew
z i
Ġà¦ ª
Ġw a
Ġh ist
Ġf Ã¼r
cre en
) :
b en
k i
ĠB l
íķ ĺ
fer ence
ĠI m
å ĵ
Ġp ort
Ġa an
an o
Ø§Ø ¦
res ent
pr ing
Ð¾Ð» ÑĮ
{ čĊ
L ayout
] ĊĊ
ĠM ar
Ġr Ã©
Ġl im
in n
Ġf ull
3 8
å ¸
5 5
Ġapp ro
con fig
Ġp od
ie f
Ø ¦
Ġacc ess
Ġeff ect
N o
- p
O L
Ġk an
ĠThe y
Ġj a
ific ation
Par am
ĠP h
áĥĲáĥ ľ
c le
el d
" ).
0 7
ë ¡
Ġcomp any
Ġm essage
Ġà¤ ¤
è½ ¦
le x
on a
æľ Ī
Ġst and
à§ ĭ
ch en
ass word
Res ponse
Ġs pe
à¤ ¬
Ġhe ad
t est
Ê »
ve c
G r
Ġk o
Ġfe el
ĠD es
val id
l abel
l t
ip s
_ B
Ġk om
ĠI N
19 9
I G
I t
p x
Ġp ot
àª Ĥ
Ġz ijn
Ġle vel
oc i
Ġd ocument
Ġte am
Ġm ill
Ġ" "
m ed
0 6
Ġen c
per t
æĺ ¯
Ġb as
O pt
Ġ Ûģ
Ġm em
im a
O ut
ma x
( b
Ġhe alth
. pro
ab les
St atus
5 00
æ Ŀ
ä¸ ī
ion es
B e
Ġsu re
Ġexper ience
ĠE l
ĠÑģ ÑĤ
pl ace
z en
Ġinv est
È Ľ
ac es
Tr ans
g g
é ľ
ï¿ ½
cont ent
ĠH ow
F F
3 9
ĠØ ¥
ch ar
end ing
Ġf ield
id get
Ġl ot
ì ĭ
E nt
c ur
ĠM an
Ï ĩ
f ect
Ġc a
ĠØ§ÙĦ Øª
Ġ )Ċ
al t
eth ing
in ation
ĠTh ere
In put
iv ed
Ġ Ñı
Ġ ÒĽ
or ies
pec ial
ìĿ Ħ
Ġim p
Ġth ings
Ġm ag
ê ¸
0 2
in it
Ġ ir
Ã© n
à®¾ à®
Ġsm all
el t
Ġt able
m b
is k
à° ¨
Õ¡Õ ¯
Ġis s
uff er
Ġà ¶
il le
Ĺ äº¬
l en
à¤ ľ
t ings
ur ation
ĠÐ¿ Ð¾
c er
tr ue
âĢ ĭ
ì ļ
ĠL icense
Ġw on
Ġk i
à´ ķ
Ġse x
Ġm om
Ġ Ã¼
Ġprote ct
S ystem
l ing
Ġres ponse
ang u
Ġal ways
P age
ç «
ĠA mer
à¸ ķ
O D
à¤ Ł
Ġcons ider
ro om
Ġpres ent
Ġt u
I f
4 4
Õ¥ ÖĢ
. out
U til
æ Ĭ
ĠÐ² Ñĭ
Ġà¤® à¥ĩà¤Ĥ
Ġch ange
act er
Ġan s
ĠĠĠĠĠĠĠĠ ĠĠĠĠ
Ġper form
Ġ é
Ġj ob
v es
at ures
Ġr ange
ĠÐ Ĳ
Ġdur ing
è§ Ĩ
Î ´
Ġke ep
Ġre view
à¸ ļ
O S
arr ay
Ġpro m
ig en
å ·
im age
ÐµÐ» ÑĮ
ĉ this
**************** ****************
ob ject
;čĊ čĊ
ĠP ar
à° Ĥà°
Ñ ŀ
op t
id s
Ġd ays
å¿ «
Ġimport ant
ĠÐ Ł
ĠS c
ou ght
ĠØ ¢
à° °
7 5
ãģ ®
Ġa ff
E qu
Ñĥ Ð´
Ġl ittle
áº £
Ġàª ª
\ n
ï¼ ģ
æ ¸
. R
In ter
Ġte chn
r l
ir t
Ð° Ð·
ÙĨ Ø¯
Ġh um
i y
Ð¸ Ð´
Ġ: =
Ġd os
Ġth ree
ìĿ ĺ
str u
Ø§ ÛĮ
Ġw ater
o i
ĠI '
ãĢĤ Ċ
Ö ·
che ck
C ount
ial og
ul a
Õ¡Õ µ
Ġex pl
Ġin put
Ġv a
Ñĭ Ð»
Ġinter est
' ).
Ġ è
ä¸ į
T able
ear ch
re t
Ġbet ter
u ild
_ h
Ġro om
A nd
ĠÕ °
Ġweb site
ç ł
L abel
à¦ ¬
_ r
N ew
am ente
Ġà¤ Ń
Ðµ Ð·
åľ¨ çº¿
ames pace
å ¨
Ġ ess
Re g
- c
Ġt il
( e
p i
ĠÐ ¡
ĠÙĪ Ø§ÙĦ
a o
al es
and s
Ġl ink
âĢĻ re
Ġinclud ing
Ġb ig
Ġo l
List ener
, čĊ
à± ĭ
Ġm ult
Ġp ower
our ces
Ġind ex
ĠA N
Ġsch ool
ĠÐ Ĵ
Ġl i
D ef
Ġ ÏĢ
Ġh ard
à¦ ®
áĥ ļ
. ex
ĠA b
à´ Ĥ
res h
el le
ch t
c ord
ar ly
Ġc ode
um b
at iv
ile d
Ġc atch
ï¼ ī
Ġpl an
is a
m on
w ay
Ġv ous
P os
Ġfam ily
Ġd ouble
S tr
Ġsu ccess
ap s
ä¹ ħ
Ġg ot
ou te
Cl ient
èµ Ľ
ä ¿
Ġf ac
im g
å ¾
() )
á» ĩ
Ġwith in
4 8
ĉ s
Ġd ate
ed er
ĠĠĠĠĠĠĠĠĠĠĠĠĠĠĠĠ ĠĠĠĠĠĠĠĠĠĠĠĠĠĠĠĠĠĠĠ
C lick
ud e
raw ing
Ġacc ount
anc es
Ġex c
Ġ= ==
qu es
, "
áº ¹
uil der
Ġs am
Ġ( (
_ data
D is
Ġstr uct
Ð Ĵ
A ction
Ġ ÑĦ
Ġsom ething
ar io
a a
Ġb it
ent er
Ġ× ¢
ed e
ĠĠĠĠĠĠĠĠ ĠĠ
u id
. to
ab ase
Ø ¥
àµįà´ ¤
ot al
Ġbe h
Õ µ
Ġn icht
ib r
Ġle ft
ag ement
ab ility
ĠĠĠĠĠĠĠĠ Ċ
c ia
Ġg roup
_ w
orm al
æĹ¶ æĹ¶
à¯ Ī
Ġ Ã¡
Ġm ight
i i
Ñĥ ÑĤ
Y ou
Ø± ÙĬ
Ġe lement
ak a
é Ļ
Ġcont rol
Ġserv ices
Ġspec ial
C H
ame work
å¹ ³
m t
Ġprov ide
as ter
et a
å İ
È Ļ
Ġre d
k o
Ð´ Ñĭ
id ade
à® ¤
à¤¨ à¥ĩ
Ġm ot
o res
ig inal
Ġd ist
Ú ¾
ï¼ Ī
ĠA t
Ġc ount
Ġ å¤§åıĳ
g l
Ġb ar
Ġtot al
ĠÎ º
Ġb ase
Ġch ang
Ġan other
äº ī
Cont ent
ition al
on es
6 6
id d
ì ķ
Ġim age
ĠÙħ ÛĮ
vir on
Ġare a
is ion
ign ed
ĠS he
rit er
à² Ĥ
Ġsin ce
and om
ĠF l
av or
æĹ¶æĹ¶ å½©
ight s
he ad
Ġ ç
S ub
D et
Ġv ers
Ġb ody
S S
y l
Ġg ive
Ġg en
E M
à¯įà® ķ
Ġh ot
( i
à± ĩ
E L
Ġtr av
Ġ( $
à² ²
at is
Ġw ar
f ter
Ġext ends
0 3
Ġs ich
Ġáĥ Ĵ
read y
Ġp Ã¥
Ġh ar
L ine
æľ ī
Ġu til
ar ge
Ġ Ïĥ
å ĩ
Ġn Ã£o
Ð ŀ
ĠM y
v ers
Ġk ind
ÙĦ Ø§
ÛĮ ÙĨ
ill s
ic on
* /
Ä± n
Ð ļ
éľ ¸
Ġse arch
Ġàª ¸
h i
d b
Ð¼ Ð¸
ĠØ§ÙĦ Ø£
m o
Õ¸ÖĤÕ ´
. "
Ġa ir
Õ ¿
N umber
Ġas sert
com p
Ġsoc ial
o ogle
. x
Ġcont act
Ã ¹
ie ve
Ġrec ord
z y
che d
Ð¸ÑĤ ÑĮ
Ä Ľ
.app end
ë¡ ľ
æĸ °
Ã¡ n
Ġe cho
Ġb ro
é¢ ĳ
Ġt urn
ac c
à¸ ¢
Ġem ail
Ð¾Ð ¿
at ely
ĉ b
ad or
oc us
ĉ private
m ap
Ġg re
Ġf ore
å¨ ±
Ġh ref
u y
7 7
ÙĪ Ø¯
ire d
åı °
Ġa ction
Ġb ed
äºī éľ¸
Ãµ es
× ¦
Ġab le
Ġb ir
c a
Ġn iet
Ï į
ÐµÐ½ Ð¸Ñı
im er
íķ ľ
ì Ĭ
.print ln
or age
èµĽ è½¦
j or
Ð¸ Ñĩ
Ġd est
ĠD o
ic i
Ġan al
Ġrequire d
Ġl ess
it Ã©
ĠâĢ ¦
Ġall ow
S er
g ress
ÙĦ ÙĬ
act ory
Ø ¸
et te
Col umn
ä¸ ĭ
Ġadd ress
. G
à¤ ļ
å½©ç¥ ŀ
Ġjava x
Ñĥ Ð»
Ġlook ing
Ġne ver
P h
Õ¡ ÖĢ
o o
Ġt arget
> <
Ġm aterial
p ost
ul es
à¸ §
Ġs us
Ã ¬
Ø§Ø ¡
Ġb ool
Ġ Î±
ut o
áĥĶáĥ ļ
4 9
áĥ ĵ
è ¡
I P
à¤¿à¤ ¯
Ġm il
Ġpar am
æ ´
_t ype
ac y
j oy
Ġd ig
ĠD r
Ġt itle
Ġas k
ë ¥
çľ ĭ
ĠW ith
Ġcon text
ap t
Ùħ Ø§
s k
Ð Ŀ
end o
Ð¸ Ð²
od es
con text
Ġv ideo
à¥ĭ à¤Ĥ
m y
ãģ Ħ
U E
ë ¦
ãģ Ĺ
ivers ity
ap er
Ġperson al
Ġcon fig
s ub
à² ¨
ch a
ap h
In stance
Ġg row
Ġc ou
v ious
m and
op en
àµįà´ ķ
å¨± ä¹Ĳ
f ic
å½©ç¥ŀ äºīéľ¸
Ġà¤ ī
Ġm al
re quest
enc es
ĠV er
Ġent re
á» ĳ
posit ory
Ġà´ ª
ist a
áĥĲáĥ Ľ
y d
Ġs ent
s ummary
Ġin div
à¤¾à¤ ²
è ī
Ent ity
y r
ic an
able d
ic y
Ġbo olean
à¤ ¡
Ġprof ession
áĥ Ľ
ent ly
i od
ç Ĳ
Ġbu y
Ġd om
F rom
Ġopt ions
, âĢĿ
im al
ain ed
ap ter
. data
Ġm es
Ġcon sole
Ñģ Ðº
it i
a Ã§Ã£o
Ġproduct s
U I
ĠS u
Î± Î¹
Pro perty
P O
Cont rol
6 5
p a
m i
? Ċ
ens ion
ĉ for
ç ¾
Ġm oney
. de
Ð½ Ðµ
ì§ Ģ
àª¾àª Ĥ
Ġad v
Ġpr ice
àª ²
Ã© t
Ċ //
it es
. create
Ãª n
è Ģ
pert ies
> >
ad as
E X
å® ĺ
Ð°Ð» ÑĮ
ÙĨ Ø§
Ġv ersion
ä¹ Ī
Ġindiv id
emb ers
ann el
Ġin clude
Ġm Ã¡s
end ed
Ġ× ¤
bo ard
er ing
Ġa vec
m essage
è§Ĩ é¢ĳ
ass ert
op tion
l ink
ĠN ULL
le v
æ ķ
ĠD is
Ġde v
à¯įà® ¤
àµįà´ ¨
ĠE ng
Ġid ent
b ox
Ġchild ren
Ġla w
ĠRe g
ê³ ł
ĠS et
Ġh ttp
Ð½Ñĭ Ñħ
. Get
( {Ċ
Qu ery
Ġf re
w ing
à§ĩà¦ °
ak t
Ġs n
st er
Ã¶ n
Õ« Õ¶
ĠÐ ļ
( {
l s
Ġn ov
Ġun s
Ġa us
St yle
m d
àª¾àª °
f ort
Ġm atch
I O
ĠM ed
Ġz a
å¥ ĸ
um er
Ġàª ®
Ġb es
ÙĪ Ø§
ith er
) .ĊĊ
Ġfollow ing
áº ¥
ag en
ĠÐ¸ Ð·
Ġgo ver
Ġm i
à¸ Ĺ
å Ŀ
Ġà¦ Ĩ
Ġn os
× ĸ
à¤ ¶
ĠC ar
ent ion
ĠS ie
se lect
à§ Ģ
à° ²
Ġpos ition
ĉĉĉĉ ĉĉĉĉ
Ġ ing
op p
Ġm ap
é Ĺ
ĠØ¹ ÙĦÙī
\ "
Ġå Į
.D rawing
Ð° ÑĪ
Ġaw ait
Ġsh ort
en ame
un a
ãĥ ³
Ġà¤ķ à¤°
Ġup date
Ġ× ĵ
Ġl at
Ġvis it
ic ro
Õ¥Õ ¬
à² µ
×Ļ ×Ļ×
ĠIn tern
Ġu it
ĠN ot
Ġn il
Ġh al
.F orm
Ã§ a
Ġà¤ķ à¥Ģ
b utton
Ġto day
Ġà¤ķ à¥ĭ
Ĺäº¬ èµĽè½¦
Ġe ine
Ġs ob
ob ile
" .
.A dd
à´ ¯
à¤¿à¤ ķ
. cl
ra ft
Ġm ach
Ġc reat
ou ch
pl it
un k
( x
ê ²
ĠA dd
am os
( st
ĠĠ Ċ
ĠÕ §
Ġì ŀ
Ġs ou
ĠØ§ÙĦ Ø¹
Ġd ire
å ±
Ġf ut
', '
ÑĢ Ð¸
up date
à§įà¦ ¯
form at
çł ģ
Ġb ij
ê° Ģ
ma z
u z
ĉ int
cl us
t re
æľ ¬
angu age
Ñİ ÑĤ
ic tion
d i
( R
æ Ń
$ {
3 00
ank s
ì ľ
up port
Ġob j
et urn
ĠC an
and e
ð Ł
re ct
id es
Ï Ĩ
Ġì Ŀ
j son
Ġbl og
ëĭ Ī
Ġà¦ ı
Ġ( Ċ
Ġwork ing
Î ¸
ar ing
we b
d es
' re
Ã¨ s
Ġn u
Ġdo or
Ġb ased
M L
Ġle ad
opy right
à² ¤
Ġap pe
Ġdon 't
9 5
Ġl ik
et ers
y les
j i
Ġcom b
Ã© m
Ð½Ð¾ ÑģÑĤ
Ġmak ing
Ġo cc
Hand ler
ĠG ener
Ġz e
ore d
b ol
con om
H T
4 7
ÙĪ Ùħ
ĠÐ ľ
Ġposs ible
Ġf ar
z o
ĠØ¯ Ø±
ĠÕ ´
æ Ķ
Ġact iv
ãĥ »
Ġk un
Ġme et
k u
Col lection
he l
_l ist
Ġse ver
O P
Ġcour se
Ġc am
Ġd one
ab il
Ġqual ity
ĠI D
it ive
htt ps
áĥ ľ
Ġa uch
! Ċ
Ġre search
() ;
a ur
( l
} ,
ab or
Ġ/ >Ċ
à´ Ł
"> </
ĠI nt
ment e
co pe
. Text
p ath
E dit
Ġ ur
Ġy ang
St ream
Ġaw ay
ÑĨ Ð¸
ri x
AT E
Ġal le
Ġa y
- in
ut es
t able
j s
Ã¤ n
Ġmom ent
Ġc ell
Ġl ight
Ġl abel
ĉĉ Ċ
Ġim ple
def ault
ë ı
. ,
S ON
Ġs um
ab a
4 6
Ġunder stand
P oint
d is
p ly
ĉ f
Ġd iv
Ġeas y
ĠE r
Ar g
m as
Ġv ot
er en
Ġ å½©ç¥ŀäºīéľ¸
.f ind
Ġf ood
Ġvar i
Ġw el
ab ly
Ñĸ Ð½
ud io
Ġt imes
U rl
Ġ[ Ċ
Ġp ast
Ġf our
viron ment
Â «
F l
Ġm ind
l ation
ur y
.âĢĿ ĊĊ
ad es
Ġal ong
Ġbeg in
Ġà´ ķ
Ġà¤ ¯
Ðµ ÑģÑĤ
Ġs ource
og raph
_ L
Å Ī
Ð° Ð´
em ail
Ġo d
á» ģ
ob j
Ġse em
Ġen s
st atic
Ġth row
âĢ ¢
res ponse
Ġen joy
th ers
ĠM ay
ë ĵ
Ġit 's
Ġh ouse
.s h
Ġ Îµ
Ġal ready
Ø± Ø§
ĠØ Į
V is
ê¸ °
a at
arg s
ä¸ Ĭ
Ñ ĳ
ient s
Ġàª Ľ
un s
Ġà¤¸ à¥ĩ
A b
ĠU ser
", "
ib ility
ĠWh en
Ġ iz
å ¯
el o
áĥĲáĥ ĵ
n et
è´ ¹
ĠÕ ¸
ic ial
Ġso ftware
ĠÐ ĳ
Ġs ide
/ c
ĠL og
Ġex ist
å¹³ åı°
ĠP ol
âĢĻ ve
T R
Ġde b
av ig
à§įà¦ °
.W indows
P re
} ;ĊĊ
Ġco ver
Ġpro perty
g roup
as es
Ġt en
à² Ĺ
Ġw he
åĵ ģ
Å £
iv o
pon ents
Ð½Ñĭ Ðµ
Ðµ Ð²
ĠÂ »
Ġg iven
r al
M enu
Ġim pro
ĠE m
Ġdown load
s ide
Se lect
iet y
ãģ §
Ġw idth
Ã¨ re
æ ĭ
Ġprotect ed
ĠÐ Ŀ
Ġem ploy
. class
++ )
Õ¡ ÖĢÕ
Ð½ Ð¾Ð³Ð¾
Ġbl ock
le y
Ġpr act
Ġcal led
á» Ļ
Ġt re
Ġm er
×¢ ×¨
at form
Ġk w
Ð Ķ
( &
ure d
I R
âĢ¦ ĊĊ
u h
Ġ× Ľ
Ġagain st
åħ į
Ðº Ñĥ
_ RE
Ġresult s
åĲ Ī
àµ ĩ
j o
ĠCh rist
ĠB o
n es
C heck
àµ ĭ
à¥įà¤ ¤
ĠD E
Ġper fect
7 8
port s
Ġre du
_ H
Ġáĥ ł
Ð½ Ð¾Ð¹
×ķ× ¨
á» Ľ
Ġc ur
p ose
æ °
s ol
ÑĤ Ñĭ
ë §
as i
ĠÎ ¼
Ġpr im
ĠD ate
à¸ ª
P er
oh n
Ġr a
Ġl arge
' ;ĊĊ
Ġà¦ ®
port un
Ġneed s
à¨ ¾
_ IN
ı à¤ķ
à® Ł
Ġ× Ļ
Ġben ef
T oken
E l
Ġn y
Ġb i
ë Ĥ
Ð ¢
Ġàª Ĩ
Ġf loat
ne y
s el
g es
Ġp ag
C C
ĠØ¨ Ùĩ
Ġth ing
Ġwh y
Õ« Õ
ĠM in
. N
Ġd in
a im
ĠĠĠĠĠĠĠĠ ĠĠĠĠĠĠ
if f
æ İ
Ġindivid ual
un ch
åĲ Ĺ
ott om
Ġw in
- w
ĠĠĠĠĠĠĠĠĠĠĠĠĠĠĠĠ ĠĠĠĠĠ
à¦¾à¦ ¨
ĠC al
Ġcert ain
Re ad
à® ©
Ġest e
à± Ģ
St art
ĉ m
s ize
æ ł
.s ize
, ĊĊ
Ġl ow
Ġc amp
Ġà¹ Ģà¸
Ġcon c
à· Ĭ
é Ŀ
Ġe lect
èī ²
à«įàª ¯
Ð ľ
ĠN e
Ġres pons
Ġin te
I V
ĠV iew
Ð½ Ñı
ell ing
k an
Ġf und
Ġle arn
Ġal g
. y
Ġd ies
à² ķ
Ġàª ¤
on y
inc ip
iz er
Ġv ia
à¹ Į
Ġstat us
is i
Ñĥ Ñĩ
×ķ× Ł
Ġen erg
s l
Ġstud ents
ub e
m ission
pos ition
Õ ¨
Ġs ort
ement s
o on
i ro
ÐµÐ½ Ð¸Ðµ
á» ķ
g ing
> (
Ð¼ Ð°
Ã¼ n
} ;Ċ
U s
Ġu t
. org
el ijk
press ion
wh ere
c y
pl es
Ġth ought
Ġtr ad
Ġam ount
Ġne g
Ġval id
le ft
äº Ĩ
Pro duct
Ġàª ľ
ĠB y
® à¯į
im o
Ġs rc
m m
et e
U M
d r
B uilder
tern al
g y
Ġh at
art ment
ĠØ§ ÙĨ
co ver
æ ŀ
if ier
.Form s
iv al
_ V
Ð¾ Ñĩ
ĠE st
im um
ĠS er
ct or
- h
u is
Ġl ive
Ġ} čĊčĊ
ÓĻ ÑĢ
ĠT ext
Ï İ
Ġh aving
um ents
Ġ čĊ
ĠTh at
Ġin c
n um
âĢĻ m
Ġo ok
() )Ċ
Ġes c
t itle
ãĢĢ ãĢĢ
s a
L a
t ime
Ġsit u
l ish
Ġl and
Ġto ol
C E
k l
ĠÐ´ Ð°
. html
Ġdis play
Ġs ingle
ĠS te
ĠÚ ¯
ĠÚ© ÛĮ
ÙĬ Ø¯
Ġt alk
Ġn ode
ĠD ie
ic ation
Ä °
ĠÐ´ Ð»Ñı
Ð³ Ð°
ell a
em a
Ñ ĺ
Ġ ;
P ost
Ġà¤ª à¥įà¤°
ĠÕ ¥
Ġun til
c el
ag a
at ter
m es
ĠWh at
u er
u ccess
_ pro
_ e
u el
Ð¸ Ðº
5 9
B ar
ĉ var
Ġan t
6 8
ament o
v i
ç §
Ġ ich
Ñĥ Ñģ
Ġl en
Ġà¦ ¨
ĠM ore
Re f
5 8
] )
re act
Ġk on
ut s
] );Ċ
ĠàªĽ à«ĩ
ĠC o
Ð ĺ
ung en
op s
//////// ////////
Ð ł
I F
a int
à¥ģ à¤
ĠP er
ar ning
d own
ÑĢÐ° Ð²
ion e
ou th
àµįà´ °
Ġm or
ĠP re
Ġf unc
Ġgover n
ĠN one
ĠÐ ŀ
Ġcon d
Ġt reat
Ġ url
Ġà´ ¸
Com p
Ġed uc
ĠÚ Ĩ
Ġà¦ ¹
ul ation
Ġp ubl
ĠT est
Ġg ro
âĢ ĺ
ĠOb ject
ĠJ e
Ġhe ight
Ã¡ r
b ody
H ttp
. value
âĢ ŀ
Ġc ult
ĠU p
Ġcle an
le ge
4 2
form ation
} čĊčĊ
in ce
Ã§ Ãµes
Ġm is
à¦ ¸
æľ º
ì ĸ
Ġo ch
Ø¹ Ø¯
Ġlo ad
C all
ĠÑĢÐ° Ð·
Ġp urch
áĥĲáĥ ķ
Ġsim ple
ĠÑģ Ð²
ĊĊ ĊĊ
Ġto get
L ink
Tr ue
and a
" );čĊ
ock et
Å Ļ
= >
á» £
Ġtoget her
ok e
à´ ®
âĢĻ ll
M od
at al
M ethod
l in
Ġn ie
i pe
our n
ĠØ µ
( r
Ġon ce
ë °
Ġitem s
Ġout put
j u
f ield
Ġse lect
Ġw at
it ter
Ðµ Ñĩ
ìĿ Ģ
.s pring
et ch
ag ed
ĠA ss
19 8
áĥĲáĥ łáĥ
Act ivity
Ġme ans
åħį è´¹
d f
A Y
à° ķ
Ġ} ;Ċ
ĠĠĠĠĠĠĠĠĠĠĠĠĠĠĠĠ ĠĠĠĠĠĠĠĠĠĠĠĠĠĠĠĠĠĠĠĠĠĠĠ
ul y
Ġor iginal
ĠåĮ Ĺäº¬èµĽè½¦
Ġd it
Ġ} )Ċ
ar l
or r
o om
Ġo k
E nd
ĥ ½
Ġc ard
il t
Ġàª ħ
AN T
Ġc ir
Ġact ually
Ñĥ Ñİ
Ð½Ñĭ Ð¹
Ġme an
áĥ ¢
k er
ĠØ£ ÙĨ
s i
r ij
Ġbe aut
à¤¾à¤ ¤
ç Ī
Ġof ten
Ġe ither
åı ·
Õ¸ÖĤÕ ©
Ġmak es
ur ing
Ġ Ãº
Ġb ad
Ġto d
Ġproble m
Ġcom put
I Z
ound s
ig a
n amespace
m un
N ull
ĠÐ¸ Ð½
Ġh om
ï¼ Ł
Ù ĭ
Ø± ÙĪ
Ġsu pp
ell er
vid er
áĥĶáĥ ľ
ĠG od
çī ĩ
Ġget ting
4 00
ĠÐ ¢
ann ot
àª¨ à«ĩ
Ī ĺ
er d
Ġd am
( data
ĠA m
ÑĢ Ñĭ
s cript
S ource
Ġval ues
ĠA rray
fr amework
Wh at
Ġde al
r am
ÓĻ Ð°
ë¥ ¼
Ġcommun ity
ĠD ata
. name
Ð¸ Ñħ
Ch ange
Ġcon nect
Ġc red
æ µ
at ors
par se
Ġm ass
Ġp lease
Ġsob re
Ġam b
Ġb on
m od
Ðµ Ð±
Ġl ater
ĠM on
à´ ¸
Ġg eb
Ġqu ick
Ġa o
æ³ ¨
Ġn ight
Ġspec ific
Ġt al
p oint
ĠÕ ¯
Or der
Ġe ver
ĠÑĩ ÑĤÐ¾
../ ../
ìĦ ľ
param s
T H
ãģ Ļ
Ġst ory
F actory
Ġin itial
is te
Ġáĥĵ áĥĲ
cre t
Ðº Ð¾
áĥĲáĥ ¡
Ġfe atures
Ġdet ails
Ġn atur
ĠÐ¿ Ð¾Ð´
Ġà¤ ĩ
B ase
æĸ ĩ
Ġpartic ip
.p ush
ĠY our
Ñģ Ð¿
Ġe le
Ġì ł
« ĺ
ĠÚ© ÛĴ
Ġa uthor
äº ļ
ag n
Ġbel ow
ĠâĢ ŀ
Ġst ore
) (
ĠW eb
ur al
Ġcontin ue
ÐµÐ½ ÑĤ
par ent
Ñĥ Ð¿
ab e
ĠP art
Æ ¡
.. .Ċ
ant o
Ġà¤ Ķ
Ø§ Ø³
serv ice
Õ¡Õ ´
àª ¸
. php
S p
ĠO R
Ġsp ace
Ġsever al
< String
Ġpro b
Ġre comm
ĠUn iversity
Ġà´ µ
y o
Ġáĥ ĺ
Ġem p
Ġquest ion
Ġà² ®
Ġon t
Ġcoun try
at abase
B ack
Ġinst ance
s ource
ĠÙĦ ÙĦ
im ate
am i
ch ange
pon d
äº §
rem ove
us ed
áĥĿáĥ Ľ
A cc
st d
Ġc ook
éĩ į
å¿« ä¸ī
Ġf ace
Ġen ough
Ġs end
an ch
Ġ) ,Ċ
Up date
ĠG l
æ ¬
Ġà° ª
ov ed
ë¦ ¬
Ġph ot
Ġp ur
( _
ĠÐ¿ÑĢ Ð¾
ag ing
Ġarg s
.s wing
f a
Îµ Î¹
Re pository
à¤¿à¤ ¤
ÓĻ Ð½
áŁ Ĵ
å®ĺ ç½ĳ
_ ST
ĠÃ© t
il a
é ģ
Ġu int
ļ áĥĺ
crib e
ord ing
æĸ ¹
à¤ £
Ġ Ô
Ġcl os
4 1
×Ĳ Ö·
Ġp ress
op er
col or
Ġà² ¸
ĠG u
Ġex ample
Ðµ Ð¿
è ĩ
( j
ur i
Ġà ¥
Ġm embers
Ġal t
id ay
Ġs ays
u int
. J
ĠTh ese
5 6
Ġb al
Ġb er
Ġà¦ ¦
ĠO ff
Ġstud y
Ġg ar
Ġh ost
d ated
ak ing
Ġ< =
Ġex tra
ÐµÑĤ ÑģÑı
Ġ áĢ
Ġhe b
Ġfin anc
Ġa ch
Ġpartic ular
Ġbe come
ç Ļ
id den
st it
Ġs ind
Ġc ity
/ s
à® ³
Ġpl ayer
Ġà¤Ķ à¤°
Ġma jor
Ġo thers
m ark
! --
act ive
.spring framework
app ing
ãģ ¾
Ġà® ª
_s ize
O ne
Ð¸ ÑģÑĤ
_ de
Ġg ames
Ġmed ia
Ġs ens
il ar
b all
ĠG e
Ġ ÛĮ
æľ Ł
Ġes pecial
Ġbut ton
Ð¸ Ð»Ð¸
Ġàª µ
Ġh old
ĠE uro
Ø± ÛĮ
" ))
Ġ> =
Ġ× ł
is ing
Ġw rite
k n
Ġne cess
ĠM ark
Ġà¤ ļ
is on
Ġy et
Ġpre c
T E
M ode
ient o
Ġk l
m odel
9 8
ir i
U P
g ed
ç¾ İ
5 7
Ġpol it
â Ĥ¬
ust ry
_t o
Ġl ib
ĠØ ·
Ġst ay
Ġs ave
ay a
ent al
Ġ' ./
he ight
UR L
Ġaut om
Ġloc ation
Ġf avor
Ġnew s
Ġp ers
C reate
AM E
Õ¸ÖĤÕ© Õµ
ĉ else
ĠO ne
Ġf ont
à¹ ĩ
Ġng a
p u
Ġte ach
Ġth rows
g t
ed d
ĠÐ Ķ
Ġs che
est er
Î¹ Îº
N S
à· Ĵ
Ġh ours
Ġcom es
an u
Ġo der
Ġcomple t
ind ing
z er
g u
à¸ Ħ
Ġê °
. put
Ġà¤ª à¤°
ĠT HE
at u
min istr
à´¿à´ ²
Ġs av
Ġ[ '
Ġm iss
Ġw omen
Ġsh are
O ff
åħ ¨
áĥ ®
ĠÃ ¾
Ġp ie
os p
Ġc opy
Ġab ove
######## ########
Ġle ast
Î½ Î±
à² ³
W idth
Ġl arg
. on
à«įàª °
OR T
Ã© es
. con
ec ut
ĠV al
Ġn am
if ul
à¸ ¸
Ġfri end
] )Ċ
9 7
ĠÐ± Ð¾Ð»
h and
P L
enc ia
O K
quire d
à°¾à° °
Ġet c
ë ³
in ate
Ġprovid ed
ä¿ ¡
à´¤ àµįà´¤
Ġf ocus
å ¦
æ ĥ
ĠA ct
Ġrep resent
T em
_ R
z t
Ġd ue
ant es
( [
à¤¾à¤ ®
Y PE
ĠÐ¿ ÐµÑĢ
áŁĴ áŀ
ĠÐ ł
Ġapp lication
ES S
A X
ful ly
ol a
ãģ ¯
ens ive
Ġre ason
el en
end if
ip o
ĠCom p
.m odel
ig r
Ò Ń
15 0
ĉĉĉĉ ĉĉĉ
Ġse ason
Ġb re
- n
D B
à¤¿à¤ ²
og n
c ast
Ð ĳ
Ġ row
á» Ŀ
pl oad
ic les
Ġw alk
Ġp ick
Ġ ...ĊĊ
. text
Ã¤ t
Ġà´ ¨
å½ ±
st art
ing en
Ġw ait
ĠN ov
y t
Ġp ou
Ġs ont
åĮ º
ĠD ec
arg in
ì Ľ
ç« Ļ
á ¹
ang er
ĠØ§ÙĦ Ø³
Ġac ross
ãĢ į
Ã³ n
ĠØ§ÙĦ ØŃ
i res
Ġáĥ ¨
ï ½
Val id
Ġcomp an
pro duct
Ñı ÑĤ
ĠF ile
Ġcl ose
in ary
Ġper iod
Com mand
____ ____
ĠU s
Ġdevelop ment
Ñĥ Ð½
Ġaut o
/ **Ċ
Û ķ
Ġh u
Ġm ove
e ft
Ġfut ure
à´ µ
Ġt amb
ãģ «
Ġwrit ing
ser ver
j ust
àµįà´ Ł
Ġwer den
à¸ °
ĠF orm
Ġag o
ĠÙħ Ø¹
Ġtr ack
Ùħ ÙĦ
Ġc lick
p end
st ate
ist ance
Ġt ask
Ġoff ers
ĠØ§ Ø³Øª
H ow
M odule
Ġs ie
à«ĭ àª
å Ĵ
Ġd ating
âĢĿ ,
Ġdo ing
ĠO F
H el
m ost
Â ł
Ġop portun
åħ ¬
Con st
éĩ ĳ
Ġin n
stru ction
Ġopt ion
Ġhand le
é «ĺ
4 3
idd le
Ġpr incip
ward s
struct or
Ġg ir
Ġ×Ĳ ×Ļ×
ad io
Û Ķ
ĠI l
ãģ ¨
re q
Ġe v
le ar
Ġ á»į
ip le
re a
Ġp al
Õ ¾
ĠO ur
Ġb ien
an z
p age
à± Ĩ
Į Ģ
A V
C ell
à±įà° °
ÃŃ t
à® ²
Ú Ĩ
Gr id
Add ress
å ĳ
< <
Ġcomm on
Ġp ack
Ġs ym
ĠF ree
Ġquest ions
Opt ions
Def ault
Ġ} );ĊĊ
Ġ Ñĸ
Ġcle ar
ix ed
Â ·
ij d
ik i
Ġa h
Ð° Ð±
Ġcre ated
Ġz o
i ate
Ġn p
Ġcom ment
Ù İ
Ġin fo
Ġt yp
ur ther
n h
Ġdisc uss
ĠÑģ Ð¿
Ġmus ic
áº Ń
Ġus ers
Ġm ga
ĠÐ² Ñģ
ĠSt ate
Ġ ÑĨ
_ v
.j s
ER R
le ep
Ġp ict
it en
Ġhum an
ĠB ar
n ull
add ing
un it
Ġsub ject
Ġnet work
Ġà´ ®
Ġsign ific
ĠRe ad
l im
ÑĢ Ð¾
At tribute
re et
å ģ
l u
ah a
ec ute
Ð° ÑģÑĤ
T itle
ï »
O V
Ġdet erm
ag ment
c ount
ĠØ¨ Ø§
Ch ild
b ase
Ġstart ed
Ġma int
ê µ
Ġr en
" );ĊĊ
h as
Ġro le
ĠAr t
Ġt w
Ġà¦ ¤
he ader
ed ia
ĠI S
In teger
Ġmin utes
_ g
à¹ Ħ
æ ı
AR T
Ġte le
M y
Ñĥ Ð¼
val u
h en
Ġb il
e le
as ure
_ set
Ġcomp et
Ġpre d
au x
cur ity
Ðµ ÑĪ
áĥĲáĥ ł
Ã¥ r
_ G
- se
à§įà¦ ¤
6 7
cent er
B lock
à® ķ
Ġgl obal
Ġn h
im ple
ĠÃ¼ ber
Ġe conom
Ġ ÃŃ
àµįà´ ±
ĠP ublic
Ġà¤ ¶
ÙĬ ÙĦ
è ¦
ĠI' m
itt ed
P I
Ä Ĳ
Ñħ Ð¾Ð´
P anel
à´ ³
Ġtem p
Ġt ell
ĠÐ¿ Ð¾Ð»
om an
ro ot
} );Ċ
Ġ× Ĵ
áŀ ¶
Ġà¤¹ à¥ĭ
_ W
lo or
Ġth ough
at ie
I con
Ġho pe
ign ment
it ions
Ġt out
Ġapp lic
Ġmonth s
Ġc y
et r
Ġb ox
M e
ind er
it ar
å ķ
ĠP ost
h al
R ow
L oad
ĠTr ans
Ġass oci
Ġl ength
am m
Ġevery thing
. v
pl i
idad es
Ġrel ations
a uthor
ãĤ ¹
sh ow
ĠE s
(f unction
Ġà° ķ
qu als
ĉ ĠĠĠ
Ġstr ong
Ġcomple te
om a
ĠD et
Ġbe i
ì Ĥ¬
ic as
ol o
ĉc ase
Ġest Ã¡
Ġkn own
æĪ Ĳ
ìĿ ¸
Ġg es
é Ľ
Ġn ach
Q L
à´ ²
æ´ ²
ĠHow ever
Ð´ Ð¸
ĠUn ited
Ġ×© ×ľ
is es
l ig
åľ °
_p ath
( C
h ing
ill a
à¤ §
F e
Ġob t
I B
Ġà² ķ
Ġfr ont
Ġ} ,
ĠÏĦ Î·
is ch
Ġpoint s
en i
ch ild
ï» ¿
ed s
Ø± Ø¯
Ġt ax
o e
Ö ¸
ĠC or
v ing
ĠA g
Ġ× ĸ
çĲ Ĩ
Ġas ync
Ġfil m
( name
Ġwhe ther
Ð°Ð» Ð°
Ġp le
is che
Ø± Ø¨
O W
Ġser ies
ur g
.S ize
Ġde g
ãģ Ł
F A
Ġma ar
ĠSe e
() {Ċ
Ġin f
Ġhe art
ĠIn ter
print f
ĠR E
et t
Ġd ir
Ã¡ t
s y
Ġyou ng
à¸ «
as y
çĶ ¨
ff ect
Ġf all
Ġres pect
ty p
ast ic
Ġw atch
St ack
ibr ary
Ġbr ing
æ³ ķ
Cont ainer
cont rol
à¯įà® ª
us iness
Ġàª ¹
×ķ× ľ
Th ere
æĢ İ
Ġ*/ ĊĊ
s m
Ġd b
ìĭ ľ
iv a
Ñ Ĺ
Ùĩ Ùħ
ĠS tr
ur t
as a
à´ £
Õ¡Õ ¿
ĠCl ass
Pos ition
ìĬ ¤
pl ied
íķ ´
ent es
f unc
Ġd ar
ì ĥ
Ġcho ose
C L
Ġinst all
Ġe u
Ġhapp en
Õ¸ÖĤ Õ¶
Ġf ast
ãĥ Ī
. čĊ
Ġfri ends
áº ¯
Ġst op
Ġinv ol
æ ¯
um a
ë ł
e vent
Ġà¥ ¤
àª ª
ur ance
Ã© c
Equ al
á» §
Ġhist ory
á» ±
S erv
P art
y ear
Ġh or
T O
Ġ Ó©
ĠC ity
Util s
à³ ĩ
é ¡
Î¹ Î±
à¦ ª
Em pty
Ġsome one
ĠGener al
19 7
à² ¡
á» ĥ
yn am
: čĊ
Ġw ie
Ġj son
N um
Ġqu ery
æĹ ł
Ð¾Ð² Ð°Ð½
ug in
ient e
ĠD ep
è Ĥ
AT ION
ãģ ¦
/ m
% %
Ġph one
O DE
Ġp et
ang ed
ace book
çĶ µ
as ing
led ge
B uffer
a uth
_ ex
uf act
ĠØ ²
Ġan im
å ī
è ¾
à¦ ¼
: "
Ġin fl
Ġpop ular
Ġw indow
Ġind ustry
Ġb tn
He ader
" ;ĊĊ
æ ²
Ch ar
à³įà² °
àµįà´ ¯
at rix
Ġa ge
ç ²
Ġun ique
Ġent er
ustom er
Ġmill ion
ĠÑĤ Ð°Ðº
oc ol
Ġk h
à¤ķ à¥ĭ
// Ċ//
à±ĩ à°
omb re
() ,Ċ
so ft
6 9
à¤¿à¤ ¨
is ed
Ä §
à¦ Ł
ad min
ĠAmer ican
Ø ¢
ant a
Ġadd ed
Ġf it
un n
ver age
Ðµ ÑĢÐ°
ut ions
Ġv or
ĠA ng
Ġstr ateg
Ġ Ö
ÙĬ Ø§
è§ Ĥ
25 6
k y
. annot
D ialog
ãģ ª
he t
Ġs il
Ġart icle
as se
in fo
ĠC r
Ð³ Ð¾
ipp ing
und le
Ġw ir
ĠÐ¼ Ð¾Ð¶
eg in
Ġà° µ
ĠÐ ĺ
à¤² à¥ĩ
ĠG oogle
Ġcol lection
ĠC ON
åĽ ¾
c urrent
opt ions
Ġo t
Ġë °
S o
Ġu k
Ã³ r
Ġ Ã§
ent ity
u per
à¶ ±
p art
tt ps
He ight
l ocal
at en
å° ı
Ġà® ķ
D r
p y
Ġv irt
em e
ĠÑģ Ð»
ëı Ħ
ys is
u ed
' '
Ġc ame
åĿ Ģ
< T
Ä «
ì ĺ
Ġà¦ ħ
Ġi h
ou ter
Ġy n
Ġf ig
à²¿à² ¦
c al
Ġexper ien
Ġ× §
i ert
Ġex am
Ġph ys
u j
Ø§ Ùģ
Ġa ux
á»į n
ot a
est e
ĠF e
Ġchar acter
Ġadd ition
Ġì ķ
O UT
Ã ī
ĠÐ¿ÑĢ Ð¸
iv ely
Ġne ar
Ġj oin
str act
Õ ´
i am
and id
Ġt im
ĠO f
Ġen vironment
p atch
Ġ Ã¶
ig er
() ĊĊ
Form at
rou ps
. se
< div
il s
Ġpre vious
Ñĭ Ð¼
Ġwork s
çĶ Ł
åĴ Į
Ġh on
Ġtr ab
Ġcon se
Ġover ride
æľ Ģ
Ġvar ious
à¤¾à¤ Ĥ
Ġpro p
áĥĺáĥ Ĺ
iv ery
P S
Pl ayer
Ġde vice
Ġr ender
Ġw r
g n
ail y
Con nection
çİ °
B l
C K
ac iones
dit ions
ac hed
Õ ½
v as
Ġh i
id en
et work
Ġn d
áº §
Ġà¦ķ à¦°
Ø¨ Ø±
Ġh ttps
ro du
ä¸ ª
ÉĻ r
ĠW orld
Ġac cept
ä» ¥
à´¿à´ ķ
G ener
T ask
ĠJ ohn
Ġreg ister
Ġexpect ed
à´¿à´ ¯
o or
_f ile
ĠS ub
Res ource
ph one
Ġprofession al
ak o
ĠÕ ¶
ë ©
Ġterm s
ess ages
à«ĩ àª
F ilter
Ġà° ¸
Ġà® µ
ìŀ Ĳ
lo od
. user
IZ E
ĠØ¨ Ø§ÙĦ
ĠR ed
ul o
Ġenerg y
áĥ Ĺ
al d
Ġà¤ķ à¤¾
Wh en
ìĸ ´
Ġbl ack
Ġper m
it ude
à´ ±
pt ion
id os
Ġe p
Ġlim it
end a
ĠS m
. V
ĉ d
ro y
{ {
Ġna ar
S earch
g an
us es
Ð´ Ðµ
Øª Ø±
Ġpar ent
Ġw ent
à²¾à² °
Ġste p
ĠNew s
Ġgener al
w ner
à¦ ¦
à¤¤ à¤¾
Ġcustom er
àµģà´ Ĥ
// /
à¤ ¼
Ġa Ã°
\ \
Ġch all
E ng
l ib
L ocation
Pro vider
Ġcol umn
ĠC ent
æ ±
K E
re l
Ġcompan ies
ç ¬
);čĊ čĊ
Ġprovid es
Ġt ypes
in er
Ġform at
j et
I I
Ġsu gg
w idth
ä¼ ļ
Ġser ver
Ġeng ine
s v
×Ļ× ¨
Ġd ass
Ġp en
Ġs el
g le
ĠA ug
Õ¡Õ ½
Ġm ember
Ġcustom ers
ĠW est
Ġcon tr
ac ity
áĥĿáĥ ĳ
Ġe k
æī ĭ
at tr
Ġàª ¨
cl ient
l ight
el i
Ġdif fic
ĠP a
ĠO ut
ud i
ç ®
Ġ ]
T op
Ġe arly
ĠP lease
Ġwe ight
tribut ed
Ġd im
Ġans wer
ell o
Ġà´ ħ
ãĢ Į
Ġide a
Ġt err
Ġh ier
Ġgovern ment
ĠA pr
ĉ p
Ġwho le
st atus
D own
und o
Ġto ok
il er
# if
ĠÐº Ð¾ÑĤ
ĠD on
ab s
å Ģ
en v
Òĵ Ð°Ð½
ĠC opyright
à¨¾ à¨
x y
Ġn ormal
Ġind ic
à¥įà¤ Ł
pl ac
# endif
ĠS ome
Ġ* )
Ġread ing
Ġiss ues
à¤ ĸ
Ġpass word
ri ed
' ll
Ġà² ¨
Ġc ut
Ò Ļ
àª ¹
ä» ¶
Ġapp ly
n s
( const
æĢİ ä¹Ī
Ġrece ived
Ġex press
¨ áĥĺ
( M
add ress
àª¾àª ¨
1 20
Ġbeaut iful
Ġsugg est
in en
Ġcol l
ort e
or ia
Ð° Ñħ
ak er
view s
Ġm el
ĠE d
Ġneed ed
Ġ+ Ċ
' .
tribut es
à¤¨ à¤¾
ĠØ¨ Ø±
Ġevent s
T ypes
Ġ[ ]
Ñĭ ÑĢ
Ġ ],Ċ
qu al
out put
Ùħ ÙĨ
() ->
om ain
Ġf i
Des cription
ĠH ome
Ġany thing
×ķ× ł
áĢ ¹
Ġáĥ¡ áĥĲáĥ
è½ ½
.... ....
25 5
ic ip
Ġcor rect
ĠÐ £
T ER
à¤ Ń
Ġon der
å® ¶
Ġtr aining
Ġà¸ ª
T ag
àµ Ģ
Ġ[ âĢ¦
Ġà® ®
Ġs y
á ģ
ĠC re
Ġsw itch
IT Y
um s
Ġreg ard
le vel
tt y
ff er
Ġtak ing
Ġde lete
é ¦
Ġcent er
Ġg i
Ñĭ Ñħ
ĠP e
Ġd raw
ĠY ork
Ġn ous
Ġse en
ĠAN D
Ġintern et
ë ¶
( S
_ str
å¤ ļ
ĠRe act
àª ¯
ĠT V
C ase
Ġs creen
- M
å¸ Ĥ
Ð¶ Ðµ
em os
Õ¶ Õ¥ÖĢ
ach t
row ser
Fr ame
r t
Ġperform ance
äºļ æ´²
Ġam ong
n ow
ier en
ĠØ§ Ø³
Ô ¥
anc ed
D ec
ist ic
ĠC heck
ä¸ º
Ġà° ®
Ġs ing
Ġl ang
Ġwon der
ĠJ ust
à® µ
(f alse
Ġpr ior
é ĺ
ip ment
ĠÐº Ð°Ðº
Ġt ag
ri end
Ġs ession
åĲ į
Ġinter face
I LE
Ġ*/ čĊ
ib il
b s
bl ock
5 1
Ġimp act
Ġw ww
Ġrem ove
ig o
_ url
ann er
Ä ĵ
ä½ ľ
Ġ **
unt ime
Item s
ms g
ÛĮ Ø¯
Ð¸ Ð½Ð¸
Ġa uth
Ġnatur al
g i
. io
Ġk ann
Ġr ate
å Ł
D A
Ġpr iv
. H
Ù ¹
Ġr ap
I ST
áĥ łáĥ
av en
áĥĶáĥ ¡
æ Ļ
à´ ª
ĉ t
oun ter
Ġlos s
ĠEuro pe
á» Ł
O per
b or
( a
Ġ Ã¨
th en
à³įà² ²
A m
o j
×Ļ× ª
ĠA cc
Ġvot re
áĢ º
Ġáĥ Ĺ
Ġbuild ing
5 2
Ġcan not
r as
Ġfe ature
Ġinte gr
================ ================
ĠÐ± Ñĭ
Ġact ual
Ġfil es
åº Ĩ
ë ¬
) .Ċ
à° Ĥ
iss ions
ad u
Ġà¤ ıà¤ķ
.l abel
h l
Ġrelations hip
ic os
à® ¯
à«ģ àªĤ
ä¹ħ ä¹ħ
è ĥ½
ast a
à¸ ¹
à¤¿à¤ ı
Out put
ĠA fter
Ġse c
che ma
iment o
UL T
Å Ħ
ad em
ĠR eturn
ÏĦ Î±
áĥĲáĥ ļ
- st
ĠĠĠĠĠĠĠĠĠĠĠĠĠĠĠĠĠĠĠĠĠĠĠĠĠĠĠĠĠĠĠĠ ĠĠĠĠĠĠĠĠĠĠĠ
Ġo pp
à¤¹ à¥Ģ
ë Ŀ
Ġàª °
Ġin it
h ost
à¸ Ľ
Ġà¤¨ à¥ĩ
Î ²
w ith
( value
ag o
- r
Ġt ro
à¥¤ ĊĊ
( true
ãĤ ¤
Ġtechn ology
Ġbr and
k in
âĢĿ ĊĊ
p c
Ġê ²
Ð £
àª £
Ġcomm and
U G
id ed
ÙĦ Ùħ
T e
Ġv oc
Ġex act
Ġcom fort
Õ ¯
Ġback ground
ob er
M S
ed it
Ġpl atform
R el
Ġgr and
ell en
Ġimple ment
he et
Ġword en
Ġper cent
al le
iz es
" "
Ġhot el
Õ¡Õ ¾
Ġà¤¹à¥Ī à¤Ĥ
Ġhal f
C ard
Ġs ig
" /
àµįà´ ļ
ÃŃ s
ĠÎº Î±Î¹
k om
Ã© d
Ġex cept
Ġs en
Ġse lected
ĠH ot
A uth
Ġp an
åĩ º
Ġword s
Ġcom ponent
Ġright s
Ġres ol
ĠP res
iz ing
od o
Ð» Ð°ÑĢ
Ð¸ ÑĪ
ĠE vent
ĠÑģ Ð¾
V er
ĠØ§ Ø²
Ġp i
Ġl iving
à¸£ à¸µ
Ġà° ħ
ac ion
Ġcon ditions
Ġtrav el
Ġman agement
ĠP ark
ä ¾
çĪ ±
Ġà¤ ¥
Ð» Ðµ
ÑĢ ÐµÐ´
PO ST
Ġse u
çī Ī
vis ion
B r
Ġbel ieve
ĠÐº Ð¾Ð¼
_t ime
è§Ĥ çľĭ
Ġsit es
Ġf oot
. assert
Ðº ÑĤ
ĠÙħÛĮ Úº
ĠTr ue
ĠS T
ĠÐ¿ÑĢ ÐµÐ´
r s
ç² ¾
ĠE nd
ĠØ§ÙĦ Ø¬
Ġl anguage
ä» £
ers hip
Ġrece ive
RO M
Ser ver
Ġcl aim
Ġd og
O pen
W indow
D o
pl ayer
Ġpot ential
Ġf ire
ĠĠĠĠĠĠĠĠĠĠĠĠĠĠĠĠ ĠĠĠĠĠĠĠĠĠ
ĠG re
Ñĭ Ðµ
Ġst aff
d ir
Ġn og
ÙĤ Ø¯
th ough
Ġwh ite
Ġsim ply
Ġà¤ ĸ
× ļ
Ġ$ {
St at
Ġve h
Ġf ive
f s
Ñĥ Ð±
se ction
à¸² à¸£
tr ies
á¹ £
Ã± o
Ġest a
ar ia
} }
ëĭĪ ëĭ¤
×ķ× Ĳ
ism o
Th read
ent a
in ner
ef ore
Ġ ill
- to
g est
ig in
Ġk ar
Ġáĥ Ļ
trans lation
ĠS ervice
et y
ER T
Ġdes cription
Ġàªķ àª°
air s
M ax
un i
ĠO ct
op h
te x
ĠP ort
Ġm ut
Ð° Ð³
est a
Ġent ire
Ġh ol
or i
à¯įà® Ł
Ġ" \
Le vel
19 6
à¤¾à¤ ¯
b it
Ġd ro
Ġ .ĊĊ
urs or
Ġto do
Ġcas ino
Ġj u
Ġà® ¤
Ġevery one
à¸ ·
ĠH er
al o
Ġà¦ ľ
ĠS w
ÛĮ Úº
pt ember
is o
_ get
Ø¨ ÙĬ
Ġcon v
ĠD ef
ĠA p
Ġb ud
all s
Ġn ou
Ġdiffic ult
ĠS E
Ñĥ Ð¶
Ġf urther
om et
Ġst ock
Ð ķ
ĠìĿ ´
ĠN ow
è¡ Į
ĠÎ ´
iz ar
Ġ Ò¯
éĩį åºĨ
f ind
Ġg er
Ġw ird
icro soft
- g
à¸± à¸Ļ
ĠSt ud
à² ¸
L ength
Ġde ze
Ġ' @
ìľ ¼
Ġde cl
Ã¡ l
is try
áĢ ¸
åı ¯
ĠÑĤ Ð°
æĪ ·
Ġ ~
Ġn as
C urrent
Ġro ot
¯ à¦¼
Ġg am
c lick
B o
AG E
Ð ĵ
_ E
ĠC reate
ĠSch ool
com ing
Ġem b
( id
Ġsa f
ig t
Ġv ir
ÐµÐ½ ÑĮ
ell ent
h am
le m
ĠH igh
Par ams
ĠZ e
u w
Ġt s
Ġto ken
itt ing
as te
Õ¡Õ¯ Õ¡Õ¶
AB LE
Õ¥ ÖĢÕ
Ġor d
ist ory
ĠS an
ĠIn teger
×Ļ× ł
à ¬
ĠÒ »
ĠS ol
' est
(' /
à®¿à® ²
ĠM us
, '
ĠM a
Em ail
Ġadd itional
D F
ĠA ir
Ġiss ue
G ame
ien e
Ġchang es
Ú ĵ
.annot ation
ãģ Į
W eb
Ã© g
. "ĊĊ
ij e
Ä± r
") );Ċ
;ĊĊ /
Ad apter
_ ID
od er
· ¸
_ DE
ar en
> ();Ċ
à´¨ àµįà´¨
Ġh an
im m
Ð½Ð° Ñı
Ġp aper
à¤¿à¤ ¸
Ġce le
ÑĨ Ð¸Ð¸
à§ĩà¦ ¨
æ Ħ
S P
* Ċ
Ð» ÐµÐ½
ãĥ ĥ
ÓĻ ÑĤ
/ d
ëĿ ¼
Ġinclud es
ch er
Ġg a
se e
se m
ÙĦ Ùĥ
æı Ĳ
we et
. ap
ER S
ann ing
Ġyour self
ãĤ ĵ
Ġsu a
Ñĥ ÑĪ
ĠP at
off set
L o
è® ¡
ÙĪ ÙĤ
l ast
8 00
Ġmarket ing
Ġfor ward
ĠT ime
.n ext
Ġfil ter
p g
Ġm ir
Ġ× ¨
ens es
æ Į
.st ate
Ġtak en
Ġcon tract
Ġ" /
Ġtry ing
id ge
J son
Ġcon nection
ÑĢÐ° ÑĤ
Ġte ch
Ġb ab
Ġs es
ig her
Ġc rit
à´¿à´ ¨
action s
M in
Ġb ill
os ed
Ġàª ¬
Ġre fer
Ġa z
6 00
lo se
l ik
Re cord
st en
Ġare as
_ key
Ġact ive
Ġhow ever
æĿ ¥
Un it
Ã¸ r
Ã¤ nd
Ġf Ã¶r
ØŃ Ø¯
5 4
_ value
Ġ Å¡
Ġà¤ Ľ
ĠSt ates
b i
Equ als
oin ter
Ġin de
. Name
ĠN ational
_in fo
Ñī Ðµ
P assword
ĠØ¹ ÙĨ
é Ĵ
å¥ ³
à¤¾à¤ ¸
de v
Ġqu ite
åħ ĥ
Ġre serv
Ġ} ;ĊĊ
Ġ Äį
Ġens ure
AN D
ĠS erv
Ġstud ent
Ġb order
â ĸ
y es
Ġ× Ĺ
.w rite
Ġm ode
æ¸ ¸
9 6
ç½ĳ ç«Ļ
Ñĭ Ð¹
Ġsim ilar
Ġins ide
Ãª tre
Ð½ Ñĸ
Ġein en
c ing
"> <
Ã© l
×ķ× ĵ
Ġso on
C A
Ġd al
(" #
Ġt om
Ġw or
Ġå¤§åıĳ å¿«ä¸ī
Ġal most
Ġrun ning
ĠC ount
Ġfinanc ial
Ġse par
áĥĺáĥ ľ
Â °
ĠT H
} )Ċ
Ġbo ard
l am
5 3
ĠØ§ ÙĪ
ĠS outh
(' #
g ar
pect ed
Ġpl ant
Ðµ Ð¶
Ġd oc
Ġa x
av es
Ġmod ern
ç ¨
áĥĶáĥ ł
ud o
Ġ" ,
Ġ\ Ċ
ĠE nt
En try
App lication
8 7
Ġáĥ Ķ
.p ng
Ġcurrent ly
ĠCol or
ĠW ork
ul i
ĠÛģ ÛĴ
ĠÐºÐ¾ÑĤ Ð¾ÑĢ
end ar
ç ¤
_ A
c ar
Ġf an
Ġ> >
Ġw aar
o z
ĠW ill
Ġs v
Ġer a
âĢĻ est
æ Ĵ
Ġproble ms
CT ION
Ġt ab
opp ing
Ø° Ø§
ang a
ë ŀ
£ ¼
ä¸ ĩ
áŀ¶ áŀ
Ġà² ª
ĠEx ception
Ġf lex
áĢ ¬
Ġ< !--
Ġst ream
Ġf ul
em pty
í Ļ
ç ±
. Data
ak es
Ġë §
he m
Ø§ Ùĩ
b on
Ġn ur
(" /
à¤¿à¤¯ à¤¾
v est
Ġpre m
Ġcred it
Ġ Å¾
Ġm uit
t x
} >Ċ
åİ ¿
Ġj ed
ER E
Ġd ed
. view
Ã¡ c
R em
Ð°Ð½ Ð´
Ġdesign ed
Ġoff ice
h ib
ÏĦ Î¿
ĠN a
ud a
ĠR em
æ Ľ
F unction
b an
Ġtem plate
ig ger
cont ainer
if i
Ġlat est
ĠB est
p are
adi us
à¸Ń à¸ĩ
af e
B ook
ĠU I
it ing
ah r
W ork
t ml
ĠOn line
25 0
èĩ ª
áĥĲáĥ ª
Ġth ird
ç Ĥ
h u
à¥įà¤ µ
item s
pe ed
Ġfam il
Ġin sp
Ġb ank
e v
ìĿ ¼
Ġtod os
Ġa qu
Ġf em
Ġs ab
c an
ä¸ĭ è½½
Ġl ower
( v
Ġsignific ant
sel ves
os a
In it
ot ype
è ģ
Ġnot hing
Ù ĳ
S ession
Ġeff ort
à¦ Ĺ
à¯ ĩ
Õ¥ Õ¶
åĪ °
ĠH et
Ġtak es
L ast
ĠN S
ĠB ook
à© Ģ
Ġreg ular
Ġf ill
rap per
Ġhe eft
Ġcom pr
Ġb in
Ġm id
Ġlik ely
? ?
k ing
àª® àª¾àªĤ
Ġf ra
Ãªn cia
Param eter
Ġto ld
- S
is se
Ġt our
Ġus ually
å¼Ģ å¥ĸ
Ð· Ñĭ
Ġì Ĺ
qu ence
++ ;Ċ
Ġread y
c ore
Ġh ac
Ġespecial ly
Ġm sg
Ġg ew
ç Ħ
Ġw ays
cr y
ĠA c
Ġ áŀ
o ch
Ð¸ÑĤ Ðµ
Ð° ÒĽ
p m
u v
is ation
f in
ic ient
ãĤ ĭ
Ġorgan iz
el er
Arg s
Ġdel iver
.n et
Ġ ib
ĠT ype
ç Ń
n ode
ĠF acebook
Ġà° ļ
b ers
f il
ut a
AL L
Ġrest aur
Ġrecomm end
( T
Ġmodel s
A v
Ġìŀ Ī
Ø¹ Ø©
ĠA nt
Collection s
Ïģ Î¿
ĠG ame
×ķ× ĳ
Ġstand ard
ad ata
ĠØ§ÙĦ Ø´
C R
Ġre qu
ĠL es
reg ister
Ġr isk
wh ile
Ġ×Ķ ×ŀ
ith ub
à³įà² ¤
aw a
Ġ"" "Ċ
Ġprob ably
Ġpar ams
ph a
Ġ' /
Ġreview s
í Ĭ
Ò »
im ages
ÐµÐº ÑĤ
Ġk Ã¶n
ĠĠĠĠĠĠĠĠ ĠĠĠĠĊ
Ġman ufact
is chen
( !
ãĥ «
Ġag re
_ x
Ð± Ð¾ÑĤ
Ð½Ñĭ Ð¼
Ġt ar
Ġdig ital
ĠØ§ÙĦ Ùģ
Ġcond ition
ef ined
ĠS oc
ap a
Ġincre ase
Ġacc ording
ĉ String
n ÃŃ
I A
id ing
*/ Ċ
ĠÒ ³
Ġent r
ãĢ Ĭ
ä½ ĵ
Ġc ause
àª¾àª ®
ĠT w
Inter face
ĠIn c
ÙĦ Ùĩ
Ph one
à¤¾à¤ ¹
ĠÐ° Ð»
×ķ× ¢
at as
Ġ Ã¥
ar th
M on
åĪĨ å½©
trib ution
am ily
( pro
ver se
Ġve z
Ġt ut
V ersion
Ġpl ac
avig ation
ĠD el
ĠD ay
Ġà® ħ
Ġse ction
Ġh it
Ð¸ÑĤ ÐµÐ»ÑĮ
ct x
Ġl ov
m os
à³įà² ¯
Ġ( "
ĠH and
Ġf ail
A pi
Ġì ĭ
F T
ä¸ »
ĠN OT
Ġs ong
Ġtrans form
( get
mb ly
Ob j
à· ı
_ se
Ġknow ledge
in y
ĉb reak
F irst
ãģ ĭ
al ar
our se
en ge
ak i
Ã± os
re st
æķ °
ĠÐ´ Ð¾
åĨ Į
ĠÐº Ð¾Ð½
Ġappro ach
ang le
Ġm obile
Ġprodu ction
ĠØ º
Ġb ag
" ;čĊ
_ user
éĩįåºĨ æĹ¶æĹ¶å½©
od ing
Ġl ie
Ġhapp y
ado res
Det ails
. To
IN T
Ġsal es
à° ¤
he id
Ġcho ice
mer c
Ġf ab
ĠÑį ÑĤ
Å ±
Ġyou 're
Ġcons um
Ġmat ter
h older
Ġcou ple
Ġrel ated
ĠR ob
du le
Re ader
Ġ ÅŁ
Hel per
Ġà¤ «
em p
Ġf o
à¨ °
Ġrec ent
ĠØ¥ ÙĦÙī
ĠN orth
Ġdef init
Ð° Ð¶
av i
Ð° Ñı
âĢĭ áŀ
.t xt
Ġbook s
ĠP M
8 6
Ðº Ñĸ
ĠM od
ik k
Ð³ Ð°Ð½
à¦¿à¦ ķ
( user
em o
tr as
ap an
T ool
Ġà® ļ
Ġwant ed
b tn
Ġse curity
Ġb is
s rc
ĠW indows
è ¶
àµ ¼
Øª Ùĩ
Ġà² ħ
. read
Pro cess
à¸Ń à¸¥
ik o
im i
by te
ĠF rom
Ġest ab
ĠA M
à¤¤ à¥ĩ
ĠÕ «
val ues
ÙĬ Ùħ
Ġsub s
Ġr u
ĠS l
ĠM et
Ġdis e
Ġf oi
à© ĩ
Ġdr ug
U B
ĠÚ© ÙĪ
set s
ch es
ĠÐ¾ Ñģ
B ody
Ġplay ers
') ,Ċ
Ġim m
Ġ< ?
at ar
Ġy o
Ð Ĺ
Ġcom ing
S l
Ġa maz
Ġ×Ĳ ×ª
ĠC enter
el ine
Ġent ry
×Ĳ Ö¸
s ch
aut o
_c ol
à¯ Ĩ
Ġre q
áĥĶáĥĳ áĥĺáĥ¡
. parse
Ðµ Ñħ
Ġa j
×Ļ× ľ
( err
Ġpre tty
Ġdes c
Ġh igher
Ġme er
ĠM ath
Ġpubl ished
ir it
Ġb ol
ì ²
osp ital
ĠF eb
ÑĢÐ° Ð½
in ing
ãĤ Ĵ
æĥ ħ
S te
à¤¨ à¥įà¤
ish ing
ust er
ĠF ound
Ġper o
ra int
Eng ine
ãĢ ĭ
- up
b um
e cho
n b
àµįà´ ª
à°¿à° Ĥà°
à® ª
at ory
P T
ãĤ Ĭ
Ġfr ame
en ing
ch an
ë ª
Ø± Ùģ
Acc ount
à² ¯
Ġà¤ĩ à¤¸
ĠH ere
Ð¾ Ð¸
ĠÐ¾ Ð´
' );ĊĊ
Ġal tern
n ext
Ðº Ð¾Ð²
Ġoff icial
Ġpurch ase
à²² à³įà²²
k r
ĠN ame
àª Ĺ
St ore
.c ol
lic e
Ġg as
ek t
A ccess
ĠØ§ÙĦ Ø¥
Ġv el
ÃŃ n
Ġ ig
ìł ķ
al ing
e ad
Ġpre vent
em pl
Ġs un
ĠPro gram
ĠÏĦ Î¿
à³ Ĥ
ĠÙħ Ø§
Ġr is
tem p
' ve
Ġmach ine
ĠM ap
à° ®
à¤° à¥Ģ
Ġvirt ual
_S IZE
or ge
P C
ļ àµįà´ļ
Ġs ound
row n
Ġr ound
ĠW H
Øª Ùħ
W idget
Ġs ale
ĠÐ ¹
et ime
Ġinclud ed
.st atus
Ġpart y
Ġpre fer
Ġno ch
ĠØ§ÙĦ Ø¯
IT H
ack s
() čĊ
Ġt ur
à´¾à´ ¯
ad s
Ġconc ern
à¦¿à¦ ¨
Ġab sol
id as
AC K
Ġreturn s
AS S
Ġein er
ĠIntern et
Ġt ouch
ens or
) );ĊĊ
E xt
d om
Ġar ch
Ä Ĺ
ĠÐ¸ Ð»Ð¸
à¨ ¿
ar ter
} </
Ġinvest ig
on ly
t ag
àª ľ
Ġo il
ide os
Ġsh ows
in ition
as c
ens ions
Ġp el
Ġn ice
Ġz um
Ġc i
Ò ¡
åŃ Ĳ
Ġpro gress
Ġtem per
_ tr
Ġlong er
Ġma i
- Ċ
qu are
on i
Ġres ources
Pr ice
end en
Ġà² ¹
( w
ì Ĩ
ad h
= $
àµ ½
ge b
ÐµÐ½ Ð¸
Ġ/ **
ĠE X
Ġs ix
Ġk r
B A
Ġp ain
p tr
Ġà¤¸ à¤®
ok o
åĪ ©
Ġs ell
st yles
é »
ourn al
Ġpar te
ĠÃ ®
or ing
Ð½Ð¾ Ðµ
Ġf ol
Ġà¦ ¯
ag ue
Ġtreat ment
Ġweek s
` Ċ
ĠPro duct
du c
à¹ ģ
L L
Ø± Ø©
áĥĶáĥĳ áĥĲ
Ġà® ĩ
a res
ë ²
C ategory
Ġes p
Ġs Ã©
pr ise
al ia
Ġgr aph
is er
iction ary
à®¿à® ¯
ot ion
Ġein em
Le ft
Ġáĥ ŀ
Ġf ait
Ġ-- >Ċ
à¸ Ī
a iled
Ġnot e
AR R
8 9
w ise
f ol
ac ional
au f
es c
Ġclient s
.c ore
ĠÕ ¿
áĥ Ĵ
ÛĮ Ø±
Å ł
w i
Ġmen u
Ġim ages
ĠØ§ÙĦ ÙĤ
ÑĢ ÐµÐ¼
y y
' ĊĊ
Se lected
Ñ Ķ
ãģ ķ
à¯ģà® ®à¯į
are a
ĠÐ¸ Ð¼
Ġhe ld
Ġann oun
b ug
Ġhab en
Ġå¤©å¤© å½©ç¥¨
ic he
ÑĨ ÑĮ
Ġsystem s
ÏĦ Î·
Ð¾Ð¼ Ñĥ
ÙĦ ÛĮ
Ġdr ive
Ġt or
ĠÙ¾ Ùĩ
ang o
à¥ Į
Ġ );ĊĊ
18 0
æĪ ĳ
Ġh un
Ġle arning
æ³¨ åĨĮ
Ġr andom
ĠØ± Ø§
ĠU R
Ġg est
ÑĤ Ðµ
_ con
Ġcontin u
il o
": "
-------------------------------- --------------------------------
_c ount
Ġh y
Ġvi ol
Ġout side
ĠÏĦ Î¿Ïħ
ĠA v
Ġr ather
Ð» Ñĸ
Ġintern ational
Ġany one
ess o
in st
Ġfor ma
Ġw orth
Ġ Õ¡Õ
B C
é ĥ
en z
ak s
et o
f alse
Ġu pon
est s
Ġcal cul
ĠÐ¾ Ð¿
ĠM arch
Ġpol icy
à¦ ¹
ĠSo ftware
ĠØ§ÙĦ ÙĨ
äº Ķ
Ġloc ated
anu ary
Ġint rodu
\ u
fl ow
P ress
àµģà´ ¨
Ġ ãĥ
Ġa ud
Ð°ÑĢ Ñĭ
Òĵ Ð°
Ġsol ution
Ġf az
V ector
Ġdis tributed
Ġwrit ten
Ġv ert
Ġ? >
l ang
Ġfac il
ograph y
on der
ì ¹
j es
ĠH ar
ist ics
d y
b ed
Ġcomput er
ĠØ§ÙĦ Ùĥ
àª¨ àª¾
Ġmult iple
à® ®
Ġ+ +
am an
Ġ ^
v ector
am era
x x
al y
IN E
. query
ad y
à¸ ŀ
/ b
p assword
ĠBl ack
im ary
éģ ĵ
Ò ±
ynam ic
h ol
.s ub
Ġconf irm
.Ċ //
++ )Ċ
ÐµÐ³ Ð¾
ç¬ ¬
ĠF OR
n av
Ġre ach
ÏĦ Îµ
pr ice
Ġh ij
ÙĪ Ø¨
ag ram
12 3
Ġm ens
Î ¾
í ĺ
Å «
Ã§ o
atis f
n ie
Ġn em
it u
ĠIn st
á» ©
" ),
Ġn t
à° ¸
Ïģ Î±
ĠU se
Config uration
P ol
ĠØ§ ÙĪØ±
ìķ Ħ
I E
ĠApr il
R oute
ĠâĢ ¢
ĠÐ¼ ÐµÐ½
00 1
åī į
ung s
ĠE N
ëĤ ĺ
à¶ º
Ġinst ead
ra f
à±įà° ¨
Ġle ave
' :Ċ
Ġun it
EN D
10 2
.S et
Q ue
Ġe i
? .
.j son
e es
à¤¾à¤ ¦
Ġappe ar
ìŀ ¥
à¤ Ī
T P
Ã¤ l
Ġfe ed
riter ia
c ard
Ġpro pos
O ST
Ġs an
oun try
ĠĠĠĠĠĠĠĠĠĠĠĠĠĠĠĠ ĠĠĠĠ
l ocation
Ġc Ã³
N ext
Ġc ette
ç» ı
Ġre le
Ġword t
L ocal
Ġd ia
en o
Ġsa fe
Ġtrans port
Ġ× ¦
Ġ Ã¤r
.ap ache
Õ¡ Öģ
ĉ čĊ
ay ment
Ã ģ
C al
ĠØ§ÙĦ Ø¨
e h
Ġà² ¬
à±įà° ¯
Ã¢ n
in ar
c u
Ġà° ¨
N U
ÏĢ Î¿
ÑĨ Ð°
è¦ ģ
ĠEng lish
F O
æŀ ľ
ĠÐ ĵ
itch en
X X
m ain
Ġ= Ċ
Ġspe ed
å §
à¸²à¸ ¢
ru pt
Ġ$ _
Ø± Ùĥ
~ ~
Ġg round
à¥įà¤ ·
à¹ Ĥ
f irst
ĠIt 's
Ġk ids
ire ction
Ġask ed
_ index
Ġleg al
Ġb ul
ERR OR
. Collections
ad r
Ġu l
Ġad ministr
Ġass ist
Ġv ac
ĉ Ġ
ak an
ĠA fr
Ãº n
log in
Ú ª
à³ Ģ
Ġàª ı
O p
7 9
à´ķ àµįà´ķ
Ġn ational
Ġcele br
ĠÃ ½
ĠF in
ell ow
Ġmed ical
eder al
à³įà² ¨
merc ial
à¶ »
äº Į
ard en
Ġ Ä
Ġà´ İ
ĠDes ign
Ð´ Ñĥ
ĠA ustr
p ack
ãĤ ¯
ĠO pen
urr ency
ĠL ong
( g
ĠH is
Ñģ Ñĭ
t ocol
Ġa pr
ou b
Set tings
Ä± nd
Å ³
G ET
ĠTh en
es ch
ĠØª ÙĪ
æ į
R ed
à¦ ĩ
Ġbeh ind
[ :
Ġ rom
âĢĿ .
â Ļ
ho od
nd er
à¦¾à¦ ²
ĉ System
. *
ple te
F ound
Ġrec ogn
ì Īĺ
ich a
áĢ ¯
Ġà ·
C P
ĠM al
ĠH ouse
= True
ĠÐ¿ Ð¾Ñģ
f loat
ĠÑĤ Ð¾
Ġt it
ĠS i
G L
St orage
Ġeas ily
ĠF re
å® ī
ĠÐ¾ Ð½
è ¨
ip l
Ġpro ced
h old
ĠJ une
Ġl ate
Ġfl ow
z u
aj o
Ġa verage
ĠG roup
Ġeduc ation
ĠS al
LE CT
ÑĤ ÐµÑĢ
Õ ¤
à¤® à¤¾
è °
ĠG o
ĠD irect
ed i
Ã ŀ
)ĊĊ Ċ
Ġdat abase
- e
ĠB ro
Ġide as
19 5
Ġn ature
Ġopportun ity
if est
Ġsk ills
c m
R ect
ĠM ag
Ġs pr
Ġmaterial s
Ġthrough out
Ã¼ ck
ind a
ec ur
Ġb all
Ġpart s
Ġn orm
Ġim ag
Ġch a
iz a
gr id
Ġcom ments
Ġvoc Ãª
T arget
Ġseem s
on o
Ġt ill
am in
ĠAN Y
[ j
R A
ĠÙħ ØŃ
S ign
×Ļ× ©
ĠÐ± ÑĥÐ´
èµ Ħ
Ġaff ect
il der
à° Ł
il led
Ġ icon
Ġpa int
Ł ¥
ĠS k
çľ Ł
Ġcas es
b lic
à² ®
l ength
od ay
Ġcol lect
Ġ× ª
ĠT O
E ach
1 10
ĠH ol
im ation
ĠHe alth
Th at
(' .
ĠK ey
Ġall ows
Ġst orage
àµ Ĥ
L ong
ĠO ver
Ø® Øª
Ġmethod s
Ġà¤¦ à¥ĩ
ĠM c
Ġch arg
Ġpro per
Ġc andid
æ º
ĠAug ust
ick et
O ur
B ut
ick er
ce ed
( str
7 6
Ù Ĳ
it ation
Ġâ Ĥ¬
av y
ìļ Ķ
ve y
Ġà® ¨
áĥĺáĥ ļ
ĠM ain
aj e
ĠÕ º
10 1
Pro ject
Ãª me
ent ry
any a
Ġz ur
U D
Ġse in
Ġreg ion
Ġvar iety
ing er
ĠÚ© Ùĩ
Ġcom me
ĠSt art
ĠS im
' ))
.m ap
s ql
åį ļ
gr aph
ĠIm age
Ġ ;Ċ
áĥĶáĥ Ľ
b and
ĠF alse
íĬ ¸
Ð» Ñİ
. remove
Ġsk in
àª¨ à«Ģ
Ġp un
: (
Ch anged
à¤¾à¤ µ
Ġ ip
Ġexc ellent
ë ħ
ê² Į
ac ing
ĠÚ ª
Ġch at
D ep
Ġà´ ¤
em ory
( string
OR D
v an
àª ¦
í ĸ
àµģà´¨ àµįà´¨
Ġì Ħ
âĢ¦ âĢ¦
Select or
Ġcomple x
z z
ĠÚ© Ø±
at ives
Ġáĥ ¬
8 5
à® ±
à¸ Ł
Ġex ception
ìł ľ
ĠT op
_ of
Ġf ort
B O
oc r
Ġde ath
ç ´
×Ļ× §
Ð½Ð¾ÑģÑĤ Ð¸
Ġ[âĢ¦ ]ĊĊ
Ġ! ==
ĠA S
19 4
Ġheb ben
ÑĢÐ° Ð·
C o
Ðº Ðµ
Ġc op
anc el
ener ic
è į
_ SE
ter m
ÑĨ Ð¸Ñı
OD O
Ġ× ¡
à¦¿à¦ ¤
Õ¸ÖĤÕ©Õµ Õ¸ÖĤÕ¶
Õ¸Õ ²
ĠSe ptember
Ġl Ãł
ë Ĳ
qu er
a ign
m odule
Ò¯ ÑĢ
Ġch ance
Ġà¤ķ à¤¿
ug u
å¥ ½
T ree
Ġg el
. Group
Ġquick ly
ĠC as
ex p
l an
Õ¸Õ ¾
à¸µ à¹Ī
ĠÐ± Ð°
ve z
reg ion
- F
ÙĪ Úº
12 8
¡ Õ
Ð Ľ
Ð¸ Ð³
Ġn om
ĠÕ ¤
im it
ij ke
ĠB usiness
ç²¾ åĵģ
Ġáĥł áĥĿáĥĽ
( -
Ġc ross
å¤©å¤© ä¸Ńå½©ç¥¨
j en
ic ate
ë ĮĢ
Opt ion
Ġprogram s
ÛĮ Ú©
n umber
ÙĤ Ø©
Ġáĥ £áĥ
EX T
l at
Ġs ist
c s
Ġde ep
Ġon es
Ïĥ Î·
V ar
Ġh air
ĠAmer ica
Ġl ock
Ġact ivity
( result
Ġins urance
Ġbu ilt
ĠCh ina
Ġw ish
ay ers
Ġle ading
Ñģ ÐºÐ¸
Ġfa ire
( h
Ø§ Ø²
ë³ ´
}ĊĊ //
à®° à¯į
/ or
eng an
q q
Ø ¡
Ġà¤° à¤¹
åħ ¥
M A
") ,Ċ
Log in
åŃ Ĺ
ĠD av
ë į
èĢ ħ
/ p
et ing
Im pl
U RE
Ġse ek
ìĽ Ĳ
Ġ' <
19 2
M apping
im b
Ġpat ients
Ġc art
ro t
é Ł
Ľ à§ĩ
.p ath
att le
Ġnecess ary
ĠD an
Ġc ool
Ġ}ĊĊ Ċ
w itch
ĠCon s
ç ¦
* )
à« Ĥ
æĴ Ń
Ġt ree
} );ĊĊ
à° µ
F alse
t op
ĠJ uly
ah l
wo od
Ġactiv ities
Ġw ide
tem pt
çī ¹
Ġb and
( re
N e
AP I
f ont
. aw
.cl ose
Ġà¤¸ à¤Ĥ
m ar
ĠM odel
ÑĢ Ð¾Ð²
A fter
a ire
Ġn an
R eturn
. List
ipp ed
à°¾à° ²
Ġres id
à´° àµį
Ġmem ory
Ġinst it
Ġcons ult
in os
Ġwr ong
, -
Ġrem ember
- year
ĠJ SON
us ers
st yle
ï½ ŀ
Ð½Ð¾ÑģÑĤ ÑĮ
ĠI d
Ġhe ader
[ $
Ġem pty
_b y
Ġsl ot
Ð¸Ñĩ ÐµÑģ
à¤ ı
acc ount
ĠÑģ Ð°Ð¼
ĠSu per
ÑģÑĤ Ð°Ð½
Ġun t
De lete
Ġlook s
Õ¸ ÖĢ
P ort
Ġimple ments
Ġà¤µ à¤¿à¤
m ore
te ct
à¤ķ à¥ĩ
Ġre lease
Ġcir c
Ġto wn
-b ased
ĠB er
Ġqu ant
sh ip
Ð¾ ÑĪ
Act ive
__ (
} /
z ie
s en
Ġf ant
Ġfil ename
à¸ Ĭ
Ġpract ice
Ġmov ie
we ight
ik t
Ġplay ing
Ġst ar
_ at
Ð°Ð» Ð¸
P lease
C D
u pp
J SON
j er
¨ à¯įà®¤
Î¼ Î±
ĠP erson
ĠM ac
Ġg an
Ġgrow th
Ġab er
ord in
ĠCount y
T otal
à¦ ľ
Ġc ada
ang es
Ġsa w
Ġdis cover
Ð°Ð½ Ñĭ
Ġk as
Val ues
. res
ĠK e
ĠAn y
à¯įà® ±
Ġm eng
Ġim med
Ġab ility
ok er
- B
ĠÙ¾ Ø±
Ò Ł
âĢĶ âĢĶ
Ð° Ð¿
E ST
b ut
at an
D ir
ĠD er
Ġp ap
g al
ĠØ³ ÛĴ
çĤ ¹
c d
Ġpat tern
ing ton
( @
Ġres ource
Ġ Ù
è ĭ
ĠÕ £
Ġphot os
C O
l Ä±
Ġh ay
Sh ow
tem plate
ym bol
Ġuse ful
Control s
ou w
ĠáĥĲáĥ ł
à²¾à² Ĺ
ĠM icrosoft
AT A
Ġt an
c z
Ġì §
ĠØ§ÙĦ Øµ
è¿ Ļ
Å ¯
×ĳ ×¨
_c ode
( res
ï¼ ¿
Ġexper t
ãģ £
Ø§ Ø¹
åĪ Ĵ
ateg ories
ĠF irst
olog ical
Ġfavor ite
ë Ł
Ġcom par
ÙĦ Ø©
Ġ Ñŀ
av el
Õ¥Õ ¿
Ð¾ ÑĢÐ°
ĠL ink
Ġt on
Ġf loor
ĠH ttp
Ð» Ñĭ
à¤¾à¤ ľ
Ġl ives
ÑĤ ÓĻ
áĥ §
.c urrent
Ġm argin
Ġpro perties
æĢ §
Ó £
@ Override
Ġchar ge
. In
ĠJ es
à¤ķ à¤¾
Ġt end
ari os
ĠP RO
ĠU K
ak en
Ar t
Ð¾Ð´ Ð°
Ġlevel s
it able
Ġàª ¦
åĬ ¨
ong o
Ġj our
A RE
Ġw ur
es h
st a
. cont
act ers
am ed
Õ¡Õ ®
ĠÕ ¢
Ġp ool
_ add
ul u
ĠP al
ĠØ§ÙĦ Ø®
G l
com ponents
Tem plate
Ġa void
Ø ¤
maz on
Ġimpro ve
V ari
Ġà¦ ¶
Ġe valu
D el
ĠInd ia
ĠWh ile
En abled
y g
( B
l ag
x im
Ġà° ¤
ecur ity
ir ing
Ġg od
Ġfre qu
Ġv ida
s cope
ol f
Ġpar se
ar o
Ġrec ently
ìļ ©
Ġd aily
Ġme hr
ond ay
Î ĳ
act or
Ġsc ore
Ġemp res
l ong
Ġcom pl
ÙĬ ÙĪ
â ĺ
Ġequ ipment
export s
Ġtool s
I l
Ġf irm
Ġa i
Ġse lection
Pro perties
Ġab s
Ġcap t
tr uct
ãĤ Ĥ
M ain
= \"
Ġl iter
Ġanal ysis
Ġpr ices
Ġcon vert
ÙĬ Ø³
.d is
ĠS a
F ont
à¯ģà® ķ
ov a
enc ies
ed en
Ġcare er
ĠB en
Ã į
ĠÂ ·
Ġro ll
. string
Ġamaz ing
ãģ ĵ
om s
U se
âĢĻ d
à²Ĥ à²¦
Ġb oy
Ġà¦ Ĺ
C an
. )
å¿ ĥ
(n ull
Ġ Î¿
ack et
ÑģÑĤÐ² ÐµÐ½
.c ss
Ġj o
ç ķ
Ġver d
Ġfinal ly
f it
Ġeffect ive
Ġup dated
Î¯ Î±
Ġinfl u
Ġdem and
Ð¸ Ð½Ð°
Ó© ÑĢ
à¶ Ń
Ġcon cept
è ·
ĠdÃ© c
i Ã©n
ell es
Ġtr ust
n u
Ġb ath
ut t
N one
ers ist
ai res
Ġpro s
de lete
Ġf er
Ġk le
Ġs ense
Ġtr ain
und ay
Ġs z
Ġdirect ly
ĠA ut
. $
ĠF ROM
kn own
Ġ×ľ ×Ķ
Ġcl ub
Ġd h
Ġal ert
.ĊĊ Ċ
ar ies
or o
? :
ĠTe chn
åķ Ĩ
Ġl iv
Ġfield s
à®¿à®² à¯į
ot es
Ġcan 't
Ġdid n
Ġp ages
Ð´ Ñĸ
Ã¡r io
7 2
A g
Det ail
Ab out
àª §
ĠW ar
ä¸ ļ
ãĥ ©
Ġ ..
éĹ ´
ĠCom mun
ag em
ond on
N E
Ġproject s
ĠP rom
y th
Ġs Ã¥
ĠÎ ³
d s
é Ķ
ind e
ê³ ¼
ur er
. new
ĠÐ° ÑĢ
Ġas pect
Ġë ĭ
Ġg old
Ġ Û
Ġå į
Ġk m
éĥ ¨
Ġbu ffer
ãģ Ĩ
- a
Pro ps
ĠÑį ÑĤÐ¾
( ()
H ash
f irm
Ã´ ng
. </
Ġgo al
ĠP C
Ġv ie
Ġt Ã«
. ch
Ġàªħ àª¨à«ĩ
Ñģ Ð°
åŃ ¦
Ġth read
Ã¤ h
çº §
M sg
() :Ċ
Ã »
d at
st ream
******************************** ********************************
à· Ģ
Ġstart ing
ed a
Ã¶ g
p at
is c
ar ante
ĠB el
cc iÃ³n
_ string
ĠB rit
Ġnot ice
ìĥ ģ
à°¿à° ¨
R ange
Ġmo et
ĠĠĠĠĠĠĠĠĠĠĠĠĠĠĠĠ ĠĠĠĠĠĠĠĠĠĠĠĠĠ
Ġex erc
- re
ug ar
Ġl u
P R
n ers
ĠIn formation
uss i
Ġget s
+ "
R ight
. error
Ġtech ni
ĠØ§ ÛĮÙĨ
Ð´ Ð°Ð½
Ġelement s
Ġm ention
Ġà¤Ń à¥Ģ
ëĵ ¤
ÑĪ Ðµ
Ġk am
ÐºÐ° Ð·
l ay
IG HT
Ø§ ØŃ
Ġb lood
M ark
$ this
r ame
. web
ian a
Ġ: :
.m in
as ons
Ñĭ Ð·
ij a
à§įà¦ ¬
ĠE rror
Ġview s
Ġ éĩįåºĨæĹ¶æĹ¶å½©
à³ ĭ
Ùĥ ÙĨ
e z
Ġdec ision
art s
ìĬ µ
Ġnum bers
Ġob serv
h ar
ĠNov ember
Ġo wner
Ġassoci ated
äº ĭ
à® £
e ur
à²° à³ģ
le an
a us
ĠS en
Ġdel ivery
con tr
iv il
Ñģ Ð»Ð¸
Ġad ult
Ġhist or
ĠkÃ¶n nen
Õ¸ ÖĢÕ
Ġatt ention
ĠJ anuary
Ġ' '
Ġro b
ĠIntern ational
. update
Ġr ais
Dis play
Ġt id
áĢ Ń
å ł
O C
cha ft
m ethod
Ġl ines
\ x
Ïī Î½
k k
ĠRe al
c il
Ġat tempt
Ã¤ Ã¤
on om
Ġro ck
ot er
Ġmor ning
og gle
Ġc ategory
Ġsh all
Ġà² µ
ĠE in
_b ack
ro le
áĥĿáĥ ¡
Ġo h
r an
ĠW ITH
Ġê ³
cl ose
Ġpict ure
Ġd ag
Ġb ottom
ĠS am
Ġver b
Ġk wa
ĠB ase
Ġcol lege
Ġess ential
ÑĤ ÑĮ
Ġro ad
ĠI T
áĥĶáĥĳ áĥĺ
ick s
Ġcomm it
Ser ial
àª° à«įàª
Ġdoes n't
uns igned
'] ;Ċ
Ġset tings
Ġinn ov
å® ļ
Ġs leep
Ġn ames
Ġe arn
Ð¾ Ðµ
ĠOct ober
}ĊĊ Ċ
à° ¦
sy ch
Ġs old
ĠD own
éĩ Į
re ci
Ñģ Ð»
im s
Ġc in
ĠPro ject
à´ Ļ
×ķ ×Ļ×
ĠV ector
ĠØ¬ ÙĬ
_ array
Ġph oto
ĠK ing
Ġ ign
Ġ×Ķ ×Ĳ
Ġext rem
. a
Ġw oman
Ġuns igned
sp ace
Ġaw á»įn
Ð°ÑĢ ÑĤ
Ġp ul
B UG
11 1
ill er
à³ Ĭ
Ġpar ents
) ).
Ġsol id
ĠL o
Ġdur ch
ĠÐ¾ ÑĢ
Ġsitu ation
atur day
ç ³
R ender
ĠĠĠĠĠĠĠĠĠĠĠĠĠĠĠĠĠĠĠĠĠĠĠĠĠĠĠĠĠĠĠĠ ĠĠĠĠĠĠĠĠĠĠĠĠĠĠĠ
Tr ace
ol es
D ie
- de
_T YPE
Ġm Ã¡
ib ly
é ķ
ang ular
Ġl ost
D S
Ġgo es
Ġad vert
Ġit self
Ġbenef its
à· Ķ
O G
w s
Ġintern al
pro perty
à® ®à¯į
ĠÕ¸ ÖĢ
ä¹ °
Ġ" <
Ġen h
Ġe vid
ĠAl so
istr ation
à¦¾à¦ ķ
_ sh
Ġs atisf
Ġh our
ĉĉĉ Ċ
Ġmod ule
Ñģ ÑĮ
Ġmu y
anc y
Ġtr ip
Ã³ s
ĠG NU
_ date
ĠÐ Ĺ
f g
c at
ÙĦ Ø§Ùħ
. key
Ġreg ul
Ġpos itive
à¸ Ĥ
Ù ı
Ġus es
Ġro t
or iz
Ġsm art
Ġà¤² à¤¿à¤ı
.w idget
Ġc ab
Ġgre en
à¤¾à¤ Ī
áĢ Ģ
ĠĠĠĠĠĠĠĠĠĠĠĠĠĠĠĠ ĠĠ
Ġprof ile
. '
A A
Ã ľ
Ġdes de
ÙĪ Ø³
Ġchall eng
st ore
P tr
aj a
C ache
Ġstruct ure
é Ĥ
Ġdif f
. X
ãĤ ī
.sh ow
m at
.b ody
Ġà¸ ļ
c raft
6 3
_C ON
ru ary
Ġdr ink
lich en
Ġgir l
áĥĺáĥ ĵ
Ġd ark
H ome
Ġc ov
Ð¾ Ñı
ĠM ost
ĠB ig
ĠØ °
Ġtrans fer
.P oint
.in fo
as ic
Ġdoes n
Ġcont ains
Ġg roups
Ġcons ist
à¸Ń à¸Ļ
i u
.g oogle
Ġop in
ref ix
åĲ İ
el es
D atabase
à° ª
Ġp es
Ġr at
De vice
Ġk ut
Ġ[ ]Ċ
ĠCre ated
åº ¦
_ ch
åħ ³
Ġhigh ly
.s end
Ġê ¸
Ġt mp
Ġle d
Ġ? >Ċ
Ġr az
h ow
v ersion
A SE
Ġà¦ª à§įà¦°
im iento
] ]
à¥ģ à¤°
ãģ Ĭ
Ġdr iver
( key
Ġà¹ ģ
ud ent
Ġpl ans
æ° ´
al led
Off set
çĲ ĥ
Ġà¦ ļ
leg ate
ot os
å· ¥
à¤ «
à¤¸ à¥ĩ
Ġàª ²
6 2
ĠÐ» Ñİ
{ ĊĊ
Ġhand s
Call back
( P
Ð¾ÑĢ Ð¼
6 1
us her
9 1
Ġm m
ov ie
Ġcost s
/* Ċ
Ġn ue
Ð°ÑĤ Ð°
Ġì Īĺ
ĠL os
Ġs cr
i qu
Ġg ives
var i
à±įà° ¤
Ġì ĺ
ug a
Ġinde pend
áĥĶáĥ ķ
Ġc os
Ġf ine
ĠH el
A rr
Vis ible
Ġn j
Â ®
Ġcoun tries
Ġf resh
out es
ĠÐ ķ
Ġoff set
.L og
ent y
à¶ ¸
ĠÂ £
æ ģ
vo ir
. tr
' =>
ç½ĳ åĿĢ
ĠO pt
I X
à² Ł
ry pt
Ġc it
( *
lo ok
im est
Ò¯ Ð½
ÙĪ ÙĬ
à¸² à¸Ļ
Ġà´ ļ
ãĥ ª
á» ĵ
Ð¸ Ð¿
. Is
eb ug
Ġmy self
gr ade
ĠU N
Ġk at
è®¡ åĪĴ
Ð¸ Ð±
ë© ´
ak k
u ario
D irect
.e vent
Ġì Ĥ¬
ĠL et
Ġl ic
çİ ©
OR M
á» ¯
Ġcap ital
Ġn ut
og a
. E
Re port
éĢ ļ
app ed
au gh
b ool
æ¸ ħ
ĠÚ© Ûģ
. k
Ġs yn
t otype
à±įà° ²
Ġin j
Ùħ Ø±
Ġë Ĥ
Ġpie ce
æĹ¥ æľ¬
Ġ Î½Î±
R un
S pec
×Ļ× Ķ
ĠCol lege
Ġj ud
Ġv en
Ġs Ã£o
AN G
Ĩ Ĵ
Ġc at
cry pt
Ex p
Trans action
or ation
Ġide al
.W rite
Ġ×ľ ×Ĳ
ic io
G B
ĠV ol
æĹł çłģ
áĥĿáĥ ľ
Ġprovid ing
âĢĻ un
æĬ ķ
ĠI h
Ġnum er
Ġmed ic
ib er
) ->
u en
av ior
co very
ÛĮ Ùħ
u u
ĠPro f
Ġin i
áĥ£áĥ ł
à¤¨ à¥Ģ
Ġf at
Ġm og
Ø³ Ø¨
I ES
< int
)) ;čĊ
A ss
Ġind ustr
} `
ĠÐ² Ð¾Ð·
Ø§ ÙĤ
Ġsh op
Ġv Ãł
ar on
ĠPl ay
Ġ Ãªtre
ĠØ§ÙĦ Ø±
Ġunt uk
Ġprim ary
( request
Ġne igh
ific ations
n ik
ĠRes ult
Ġdef ined
Ġ ÓĻ
Ġfin ish
åĬ ł
ed ef
_ text
and le
Pro file
ĠFound ation
O B
ĠâĢ¦ ĊĊ
Ġp elo
M P
w ar
_N AME
é¦ Ļ
Ġ[ "
99 9
Ø§ Øµ
app end
Cont act
. I
ĠP or
.e quals
Ġë ³
Ġsize of
pro cess
Ġrequire ments
Ġcomplet ely
ord s
Ð¾Ð»ÑĮ ÐºÐ¾
Ġw arm
d el
Ã ĸ
Ġ×¢ ×ľ
ON E
KE Y
Ġda ar
'] ,
ĠUp date
Î ¶
à¦¾à¦ ®
Ġo c
Ġb ak
LO G
é ĵ
ĠT R
Ġp are
. z
rou ter
Ġag us
×ķ× ŀ
Ġgu ide
.t ype
IN D
. content
S D
ĠF il
Ġb an
() );ĊĊ
ĠÎ¼ Îµ
g re
id i
Ġmeet ing
ĠÕ¸ ÖĤ
ĠM essage
áĢ ±
Ġchang ed
à²¨ à³įà²¨
", čĊ
Ġwork ed
ĠN umber
è§ Ħ
des cription
ĠP age
m ing
ĠPres ident
return s
B D
Ġm ol
Ġ' ../
ang an
Ġindividual s
ĠD i
Ġpr ime
Ġser ious
. trans
ĠØ§ÙĦ Ø°
f ord
ÛĮ Ø§
Ġ ãĤ
Ġed it
Ã³ w
ĠUR L
ĠDec ember
uk a
ĠIn itial
pl ot
ĠÙĦ Ø§
V ER
" :Ċ
æº Ĳ
d ates
Ġpe ut
Ġo o
à¶ ļ
ie k
Ġcon structor
ĠR uss
at z
ut ter
Ġde ad
Ġy e
éĴ ±
åĨ ħ
M et
ĠH T
im p
Par ser
ĠA R
g s
×ķ× Ŀ
Ġpe u
edd ing
Ġ[ [
ĠC all
Ġby te
Ġvers ch
M ore
b uild
C ore
19 3
rom e
Ġsaf ety
Ġthem selves
Ð² ÐµÑĢ
Ġm ount
Ġà¤ħ à¤ª
ï»¿ using
® ä¿¡
Be an
Ġfor mer
( :
Ġc m
ub a
Ġset ting
Ġex ecut
Ġst ress
ĠØ§ÙĦØª ÙĬ
Ġdire ction
} )
Ġp ub
- control
ĠI tem
As ync
æĸ Ļ
à° ¡
à¯įà®ķ à®³
est ion
ad ow
ì £¼
ied er
Ġl ig
um an
Ġpay ment
Ġcreat ing
Ġallow ed
Ġ"" "
Ġv it
Ġcont ainer
app lication
Ġ*/Ċ /
re c
ĠD as
ÑĭÐ½ Ð´Ð°
ĠÐ² Ð°
Ġdid n't
r d
con nect
( ex
ĠÃ® n
ì Ļ
Ġf ix
emb re
Ġw ood
àµįà´ Ļ
à° ¯
1 30
Ġdes crib
oc o
ÉĻ n
com es
erm an
Ãº blic
Ġ-- >
à´¿à´ķ àµįà´ķ
m ail
C S
: '
ĠE very
. service
è¡ ¨
ĠD u
í ĥ
ĠA us
Ġsc ale
ĠN O
g b
ic ated
Ò µ
.F ont
Ġdist ance
Ġm b
åĽ½ äº§
Ġeffect s
ÙĪ Ø¬
in ue
and er
ĠCh ar
ann a
Ġsum mer
Ġch annel
Ġhel ps
(" %
ARR ANT
Ġra ise
A uthor
. api
ĠÑĢÐ° Ð±Ð¾ÑĤ
Ġc ash
con sole
ĠĠĠĠĠĠĠĠĠĠĠĠĠĠĠĠĠĠĠĠĠĠĠĠĠĠĠĠĠĠĠĠ ĠĠĠĠĠĠĠĠĠĠĠĠĠĠĠĠĠĠĠĠĠĠĠĠĠĠĠĠĠĠĠĠ
D ocument
ĠI ll
ĠÐ´ Ð°ÑĢ
Ġpre par
Ġp ush
Ġst uff
Ġkun nen
ĠN et
å¯ ¹
n ap
Ġp ed
Ġb ur
Ð¸Ð» ÑĮ
ĠQ ue
Ġsuccess ful
ìĦ ±
it os
Ġlink s
Ġfa iled
-m d
Ġand ere
AT H
Ġopt im
Ġsol utions
M atch
à²¿à² ¸
Ġhe m
; i
Ġs port
ĠC he
RE E
if orn
ĠFr iday
ĠO p
ÙĪ Ø²
col umn
áĥĲáĥ ®
ĠW ARRANT
. load
à¤¾à¤ ķ
ak u
Ġstr ength
ĠAss oci
à³įà² ¦
ëĵ ľ
it ect
Ġapplic ations
Ġ Õ¡Õµ
ĠM ake
al ian
( context
se mbly
à´¿à´ ļàµįà´ļ
Ġex clus
ill ing
à¦¿à¦ ²
and roid
Ġst age
.aw t
Ð» ÑĮ
Ġv ict
- A
Ġstat es
En ter
que ue
_ y
.s c
Ġtr Ã¨s
à®¤ à¯ģ
.j pg
Ġáĥ ķ
. as
¹ Ħ
S creen
Ġcon duct
Ġpu ede
Ġprint f
ĠB it
Ð°Ð» Ñĭ
Ġpr Ã©
Û ĩ
Ġacc ur
Ġcam era
it ure
Re c
ç³ »
nb sp
æĬ ¥
i ately
Ġm un
ist as
Ġcon vers
à¦ £
ĠAnd roid
Ġbas ic
Ġd rop
ĠC ode
() :
al ity
16 0
Ġinterest ed
Ġcoun ter
ass en
à¦¾ à§°
Ä Į
/ j
Ð½ Ð¾Ð²
az i
l oc
err y
çĽ ´
p et
g el
ĠD em
l ate
à¦¾à¦ ĩ
Ġd engan
Ġr ent
ex tern
Ġlog in
ib t
or ial
h s
IC E
ĠV is
ÑĢÑĥ Ð³
U ID
ãĤ Į
Ġàª ¶
Ġconsider ed
($ _
çĻ »
vol ution
u an
_st ate
w ers
Ġent ity
Ø¯ Ø§
ĠÃ© s
à¤¤ à¥Ģ
'] ,Ċ
è½ ¯
Ġ{ @
am er
d ouble
Ġsu ff
ĠÐ° Ð²
Serv let
ĠRes ponse
ÑģÑĤÐ² Ð¾
Ġmuit o
- group
Ġel if
à¦¾à¦ ¤
åľ¨çº¿ è§Ĥçľĭ
k w
Ð¿ ÑĢ
Ġcall back
() ).
Ġdefinit ely
§ ç¾İ
Ġoper ation
em y
à¸ ³
.G eneric
Ġf air
å® ŀ
HT ML
à²²à³įà²² à²¿
áĢ Ĳ
Ġim g
ìł Ħ
Ð¼ ÐµÐ½
Ġpart ner
ad en
Ġenc our
ÑĨ Ñĸ
(f ile
ask s
ra z
on n
_d ir
v ille
av o
ĠA mazon
áĥĶáĥ Ĺ
ĠÕ ½
Ġàª¤ à«ĩ
æĪ ı
7 00
áĥ ĳ
al ed
Ġå Ľ
Ġal ign
] =
Ġveh icle
Ġfore ach
ly ing
ĉ const
ç» ¼
_l og
Ġe z
l or
Ö ¼
oth ing
ĠÐ¿ Ð»
Ã¡ ri
Ġ ðŁ
åĲ Į
Ġem erg
N A
Ġ âĢĻ
Ð°Ð¼ Ð¸
ĠÑĥ Ñĩ
Ġinterest ing
Ġhu ge
W riter
à¤¾à¤ ĩ
;ĊĊ Ċ
.pro ps
A tt
w rite
Ġcertain ly
ĠS ur
ĠUS A
Ġres pond
Ġbas is
ÑĤ Ñĥ
( in
end re
-s m
T ab
t otal
Ġfor ce
Ġobt ain
FA ULT
ploy ee
é ĸ
Ġp adding
vent ion
×Ļ× ĺ
av er
ÙĨ ÙĬ
" +
on str
ant i
Ġsh ape
ç ĭ
Ð°Ð½ Ð¸Ñı
Ġconst ant
Ġexist ing
Ġbir th
A ut
Ġhe ar
Ġsh ared
E ffect
à´¾à´ ¨
Ġf est
h ome
Ïģ Î¹
ac a
ven ue
Ġr ules
f i
ĠReturn s
Ġpl aces
à¥ĭ à¤Ĺ
Ġve el
"> čĊ
n ost
ĠÚ© Ø§
m al
lic he
à¦ Ĥ
He ad
'] ['
Ġparam eters
ĠD en
Ġe yes
Ġse a
ik an
ÃŃ as
ut en
E d
Ġm Ã¼
Ġdep end
è¯ ´
ÙĨ Øª
Ġ" ./
ĠHot el
Ġess ay
Ġrel ig
Ġful ly
Ùħ Ø©
áĢ Ħ
M ENT
Ġfl ag
Ġstr a
"/ >Ċ
áĥ ¥
er ve
Ġ×ĵ ×Ļ
Ġgeb ru
Ġa kt
( `
Ùĩ ÙĬ
ost en
ĠØª Ø¹
à² ª
Hand le
ĠM r
Ġr oute
Ġappro pr
ĠR el
19 0
Ġthe me
D D
Ġcom mercial
ĉ g
à¤¹à¥Ģ à¤Ĥ
- L
- pro
ber g
h aps
ĠT em
Ð°Ð½ Ð°
Ä± ÅŁ
Ñį ÑĢ
con s
Ġcult ure
Ġà¦¬ à¦¿à¦
Ġpur pose
à²¤ à³įà²¤
iv os
Ġm Ãªme
C ar
ĠÐ± Ñĥ
Ġre ference
und a
Ġp ode
é £
Ð½ Ð¾Ð¼
ac cess
Ġw all
à¤° à¥ĩ
Ġtamb Ã©m
ĠT ODO
ÙĪ ÛĮ
Ġpor que
ĠÐ± Ð°ÑĢ
à¦¿ à§Ł
Ġp ens
è ª
Ò ©
Ġ >Ċ
ĠG ood
ĠC ap
. open
ell s
ĠÐ° Ð´
ĠServ ices
ĉ void
Ġexact ly
ĠM er
ĠComp any
Ġstat ement
iforn ia
in u
);Ċ //
Ġme asure
ĠDep artment
Ġorgan ization
Ġà¤Ĩ à¤ª
Ġdif er
Y our
Ġun ter
Ġsi ÄĻ
é ©
à¤¾à¤ Ĺ
Ġgr an
v ement
Ġp ackage
Ġv ector
ob s
.b ind
(" \
//////////////// ////////////////
. config
Ġn ombre
ur u
' )ĊĊ
. index
h an
à¥įà¤ ¥
od a
ĠL aw
ĠL ondon
Ġdevelop ed
ç ĥ
Ġen v
Ġl icense
)) ĊĊ
Ġtr a
urs day
arr ant
( object
Ġadv ant
9 00
Ġsur face
à´¾à´ £
res pond
'] Ċ
av ed
cent r
Ġpod er
E C
ç» ĵ
Ġm ix
ãĥ¼ ãĥ
ĠF ind
Ġs oll
ass ets
Ã¨ me
Ġe g
áĥ ª
Ġcon struction
Ġmot or
b et
pl ies
r is
à¸´ à¸Ļ
ĠÙĩ Ùħ
à¥ ī
Ġclass es
Ġp ow
h es
P A
a Ã±
éĢ ģ
Ġf n
æľ į
ont al
ĠF ire
' un
Ġà´ ĩ
ĠI' ve
Ġthink ing
ĠPh il
ĠB ack
Reg ister
Ġ× ĺ
Ð´ ÐµÐ»
Ġl ag
Ġl Ã¤
ĠÃ©t Ã©
Ġsl ow
Que ue
Ġme as
h or
c ut
Ġdec ided
ÑĨ Ñĭ
Ġd ream
Ġinvol ved
Ġdiffer ence
Ġà´ Ĩ
Ġphys ical
am o
Ġre lev
ë¶ Ģ
ues day
.A pp
th read
Ġi o
Ġn amespace
F loat
Ġj aar
Ġreport ed
Ð¾ Ð½Ð°
Ġv ill
it z
ou l
- v
Ġs ans
Ð°ÑĤ ÐµÐ»ÑĮ
Ġp ela
Ġc ast
ĠÎ Ń
ĠG old
_n um
") ;
Ġed itor
Ġr ates
ä½ į
ĠI I
Ð½Ð¸ Ò£
Ġint ent
Ġsom et
D C
w as
ed nes
=" #
Fr agment
Ġf ight
à± Ī
Ġcook ies
str ong
Ġcar ry
Ġle ur
à±įà° Ł
\ /
Ġdi agn
ash ion
Ġt ips
.t est
ĠÕ¥ Õ¶
Ġbl ue
Ġchar acters
ag on
Ø§Ø ¶
ic ed
Q U
qu is
E st
Ġv ent
3 60
ìł ģ
ï¼ Ľ
au ght
Ġg iving
f ilter
7 4
Ö ī
æİ ¥
Ġf elt
b el
_ .
Ġdeg ree
Ð² ÐµÑĤ
åŁ İ
ÑĤ Ð¾ÑĢ
Ġ$ (
Ġl ab
igr ation
áĥĺ áĥĲ
Ġpress ure
Ġcon ven
tect ed
= (
Ġa ussi
P ORT
Ø§ Ø¬
àª ¡
ç»¼ åĲĪ
à´¾à´ °
Stat ement
ĠÐ½ Ð¾
Ġ{ }
ĠSt reet
.b tn
ĠA ction
Ġ( '
al let
( D
S uccess
Ġse cret
ìľ¼ ë¡ľ
7 3
Ġlim ited
Ġt un
ä» Ģ
à¤¡ à¤¼
Ġrele ased
Ġl an
Ġê° Ģ
Ġr ad
=" <?
G raph
Ġs Ã³
Ġreserv ed
c all
ĠM at
Ġpa id
8 4
à¤¾à¤° à¥Ģ
all a
ri er
Re ce
Ġk al
i ar
RE D
b u
)) );Ċ
æĶ ¾
ĠSh ow
ĠÐ¿ ÑĢÐ°
è½¯ ä»¶
Ġmas ter
Ad min
N et
b re
Ġbud get
Ġsol o
p ass
ĠO N
ĠB ank
×© ×¨
Ġd ry
N on
Ã ¯
us i
à¥įà¤¯ à¤¾
p ared
ĠC ard
çĪ± å½©ç¥¨
E s
éĿ ¢
à¯ ĭ
ĠV alue
Ġfunction s
Ð¾Ð»ÑĮ Ð·
l ie
ol i
iver se
_t est
Ġst ories
ĠP oint
_ error
ix el
SE LECT
Ġm ul
N ames
Õ¥Õ ½
vent ory
Ġto wards
ĠØ£ ÙĪ
ĠV i
Ġv iel
h ouse
es ome
áĥ£áĥ ļáĥĺ
Ġg em
Ġs ust
wh ite
8 1
ach ine
S cript
dis play
org an
c ase
l ike
or ith
å ĭ
ĠIn stit
ou p
à¹ ĥ
Mod al
RE S
×¢ ×ł
ĠV ersion
Ġm other
Ġm iddle
ĠE t
.p re
ĠØª ØŃ
es se
.T ab
àµĩ à´
äº İ
re quire
àµģà´ Ł
( item
.s ave
7 1
. Controls
word s
Ġsp ot
Ġun ivers
Ġc um
f Ã¼
Ġà® İ
l os
am il
Ġv ideos
b b
ednes day
Ġà¤ Ł
Ġw enn
y on
æĬ Ģ
ĠH o
àª Ł
19 1
Ġsym bol
Ġ: Ċ
åľ º
Ø§Ø± Ø©
d oc
Ġpost s
j ar
Ò ·
ess a
' ),
ec ause
ĠC H
- C
az a
ç® ¡
_ on
( input
ĠÃ ī
è Ī
ĠM o
iz z
ĠÖ ĩ
RE F
Re ference
v r
à¦¾ à§Ł
Ġd oll
ĠU m
rou ght
Ġmov ing
à°¿à° ķ
Ġsomet imes
Ġs ender
os ition
ĠL eg
ï¼ģ ĊĊ
Ġp m
Ġsp end
Õ £
Ġk ur
Ð½Ð° Ñĩ
ĠP ower
Ñĭ ÑĪ
str ap
Ġre plac
L oc
Ġk itchen
n el
Ġet t
ĠDe velop
9 2
Ġc ore
ĠIn put
w an
æĭ į
ĠM ax
Ġgr ande
ÑģÑĤ Ð²Ð°
Ġk ont
ĠC lick
ĠL and
ĠÐ° Ðº
ÙĬ Ùģ
/ **
Ġgo ed
Ġà¦ Ń
â Ħ
l ines
al ert
Ø± Øª
ĠI P
áĥĶáĥ łáĥ
Ġm ail
ul ate
Ġmay be
ip es
Ġd ump
") ]Ċ
8 2
_p tr
Ġund efined
ĠC our
Ġbab y
å¼Ģ æĪ·
à§įà¦ Ł
ï¿½ ï¿½
ĠApp le
¥ à«Ģ
co in
8 3
ĠFr ance
å »
äº ¤
fer ences
åı ¸
Ġdec is
y an
Ch annel
d et
×Ļ× ĵ
Ġc ours
Ġs at
ĠM art
A ST
all oc
Ġso ft
Ġgr atis
ell ig
Ġm ort
Ġsh own
ĠT ask
n Ã©
æ¸¸ æĪı
é ª
ro te
P at
åĽ ŀ
Ġon s
à°¾à° ¨
L ike
-t ime
atal og
ç ©
est roy
Å ŀ
Ġp esso
×Ļ ×ķ×ª
14 0
.j unit
Param eters
Ġ{Ċ //
Õ ¬
æŃ £
e ch
L S
In itial
Ġh und
Ġg ave
Ġs ample
å½ ķ
à´Ļ àµįà´Ļ
am iento
all ow
.st art
à± Ĥà°
ĠE dit
Ġgu arante
Ġspec ified
land s
es is
áĥĶáĥ ĵ
Ġge en
ĠĠĠ Ċ
t u
Ġatt ack
ĠRe quest
Ã©r ie
() );čĊ
t ed
x is
ĠJ apan
Ġre ve
ĠÑģ Ð¼
w y
a e
à±ģà° ²
æĢ »
çĦ ¡
ĠFeb ruary
Ġpro d
Ð° Ñĩ
ab et
. __
ĠT able
ie ved
Ġ ]Ċ
er ap
sh ot
Ù Ģ
Ġv s
( void
ë ¯
Ġdev ices
" čĊ
Ġë ª
áĥĿáĥ ĵ
Ġass ess
Ġm undo
Ã ĩ
T A
Ġà° °
\ t
Ġstra ight
S C
Ġcont ain
Ġàª Ĺ
ĠÕ ¾
à¥įà¤ ®
àª ¶
ĠE u
Con s
à´¿à´ °
room s
Ġbe z
ĠH ash
ĠÐ° Ð·
Id ent
Pl ay
y i
Ġà¸ Ħ
Ġà¦ ī
Ġpl anning
Ġh tml
Ġp in
ĸ áĥĶ
Ġre str
e quals
P P
à¹Ī à¸Ļ
ÑĢÐ° Ð¼
Ġpre v
Ġt ijd
ĠMed ia
Ġl ayer
Ġt we
Ġlet ter
E E
à®¿à® ķ
Ġad just
å¤ ľ
ļ Į
comm on
å¦ Ĥ
ĠC O
oc a
áĥĿáĥ ķ
Ġr i
Ġother wise
Ġ" ";Ċ
ativ a
Ġt ou
áĢ ķ
A rea
ĠÙħ Ø³
ĠM il
ict ure
Ġh op
ar Ã¡
àª¾àª µ
ay o
Ġbec ame
. end
el n
Ġd ent
Ġpass ed
ĠAr ch
ãģ Ĥ
ĠTh ank
Ġpol ice
Ġhelp ful
ou ver
à¤¿ à¤°
Ġex pos
Ġde ux
Ġr ank
Î ķ
Q UE
Ð°ÑĤ Ð¸
do or
uk e
Ġcamp aign
IM E
om ic
áĥĲáĥ Ĺ
g ithub
fr ont
Ġcour t
/ v
- P
Ġg ift
ì ¶
us a
.L ocation
ÙĦ Ùģ
at os
Ġpat ient
è® º
Ġs ports
Ġsay ing
Ġb rowser
ĠA PI
Ġan ti
ob e
Ġste ps
Ġs ud
Ġmod ify
Ð ¤
Ġunderstand ing
id ence
in as
Ġad min
ĠÐ± ÐµÑĢ
Ġ ia
Ġuser name
is p
ĠY ear
ĠS il
it ary
t oken
.s plit
å¼ ı
ÑĥÐ» ÑĮ
ĠPro du
ĠCan ada
D ao
h n
Ġcon tra
Ġà¦ °
-- -
ĠI O
Ġr ich
D ay
áĥ ¨áĥĺ
D R
aw n
Ġl abor
Ġdam age
à´ ¦
Ġs au
Ã¦ r
Ġì ĥ
_st atus
Ġa ctions
IL ITY
ãĥ» ãĥ»
l as
Ġqu er
Ġc ual
36 5
Ġbeg an
Com ment
áº ·
st ant
Ðµ Ðµ
ĠSt and
Ġarg ument
olog ies
Ġe er
or row
×¢ ×Ł
Ġsm o
Ġredu ce
×Ļ× ¢
m itted
å £
Ġ( *
è¯ ·
cript or
ÙĪ Ø¹
à°Ĥà° ¦
ãĤ ¢
ĠÑģÐ² Ð¾
Ġt x
Ġco ach
Ġbusiness es
Ġj Ã¡
im os
ĠG reat
ĠĠĠĠĠĠĠĠĠĠĠĠĠĠĠĠ ĠĠĠĠĠĠĠĠ
/ w
Ġp anel
Ġtamb iÃ©n
è £
E O
Ġs ed
ens ed
Ġf urn
typ es
M atrix
à®¤ à¯įà®¤
( response
Ġgener ate
Ġjob s
ĠS O
Ġn ation
Ñĸ Ð´
={ {
Ġ} }
er al
ob il
k ar
âĢĻ h
S QL
ĠChrist mas
H older
à¥ ĥ
ĠC OM
P ane
az ione
Ġinc or
ĠÐ¼ Ñĥ
ult i
ron ic
çĽ ®
Ġn ag
' a
ĠCal ifornia
Ġpict ures
p ite
W S
Õ¡Õ £
Ġm icro
c p
Ùħ ÙĬ
ë§ Į
Ð¾Ð± Ñĭ
Ġar m
(j ava
i Ã°
over n
Ġv os
ãģ ı
Tr ack
æ £
ĠTw itter
] ;ĊĊ
Ġpres ident
leg al
rou te
ĠO s
re w
Ġwonder ful
Ġman ager
Ġtr ied
f ast
ĠO ther
Ġd ivers
Ġàª¹ àª¤
ĠÙħ Øª
') ;
og en
Ġ íķ
Ġpolit ical
AC E
Ġcor por
Ġb le
.L abel
æīĭ æľº
àµģà´ ķ
éĢ ī
Ġcom un
comm and
R ole
Ġpr Ã³
áĥĲáĥ ¢
à¥įà¤ ²
Ġ{ "
Ġc urr
Ġp ÅĻ
ĠS earch
Ġsupp ly
Ġth ous
ac le
D raw
Òĵ Ñĭ
ĠW ord
Ġc out
Ġser ve
ÙĪ Øª
(" .
Ġreturn ed
Ġhealth y
Par ent
Ġt ip
Ġh us
q ar
us ion
Ð½ ÑĥÑİ
Ġn av
gr ad
Ġplay ed
Ġad vice
à¤¾à¤ ¥
Am ount
m ut
ĠCon fig
ĠÙħ Ø´
Ġb ere
Ġbegin ning
Ð° ÐµÑĤ
im in
ĠW ash
Ġd ol
it an
Ġc es
ian o
Ð¸ Ð»Ð°
. Component
ĠÙĪ Øª
ĠJes us
à¦ ¯à¦¼
Ġregard ing
Ġb em
Ġc ards
Ġhe ard
Õ ¹
å® ¢
9 4
B tn
ĠA re
¡ °
Ġd ress
est o
I AL
Ġtr ade
ĠDav id
Us ers
ä»Ģ ä¹Ī
G u
Ġl ayout
ĠWh ite
ĠB et
ĠS unday
Ġe igen
Ġmax imum
Ġv ec
( N
Ġp and
L C
è§ £
Ð¾ÑĤ ÑĢ
Ä±n Ä±
k g
à¯ Ĭ
à¦¾à¦ ¬
9 3
Ġlarg est
à²Ĺ à²³
Ġsav ed
ĠRe p
×Ļ× ĳ
Ġà¤² à¥ĩ
as ion
ar ily
IT E
Ø¨ ÙĦ
é¡ µ
Ġne ces
Ġgr id
Î½ Î¿
Õ¸ÖĤÕ©Õµ Õ¡Õ¶
Ġprincip al
.f or
Ġspe ak
ang ing
Ġv end
F ull
sh op
A ng
ĠÐ¿ Ð¾Ð¼
éĻ ¢
Ġê ·¸
ĠÐ Ń
ist en
_ class
æ¸ ¯
Ġart icles
por ary
Ġgrow ing
_ image
ĠIn s
Ġhe at
Ġp air
Ġáĥ ĳ
' h
Ġqu el
ĠT ex
ok a
D TO
G e
sh ould
Õ¡Õ ¬
N ow
Ġit er
all ery
Ġl ui
×Ļ× Ĳ
Ġ} )
_ res
à´¿à´² àµį
ĉĉ čĊ
By tes
Â» ,
os en
Ġd ann
ĠÑĤ ÑĢ
Ġtrad itional
Ġprodu ce
Ġbal ance
C ON
Îµ Î¯
Ġb at
P op
Ġche m
Ġdec or
Ste p
D to
Ġwrit er
Ñİ Ñī
Ġt iene
Ġwant s
ĠÏĦÎ· ÏĤ
à¦¾à¦ ¦
On ly
Ġr ule
Ġapp reci
Ġex it
ĠO per
Ġfeel ing
c io
Ñį Ð½
user name
Ġmon itor
id h
Ġa le
Ġt am
Ġerr ors
pro ject
ĉĉĉĉ ĉĉĉĉĉ
ä¸Ń æĸĩ
Ġweek end
ĠE ven
à¤ķ à¥įà¤·
Oper ation
Ġs ac
________ ________
Ġcom ponents
er ial
12 5
. View
s ites
èĢ ģ
Ġì ľ
ÓĻ Ð¼
ĠĠĠĠĠĠĠĠĠĠĠĠĠĠĠĠ ĠĠĠĠĠĠ
S A
Ġf ue
v in
ĠÐ¿ Ð¾Ðº
Ġm erc
Ġt ous
ĠÐ± Ð¾Ð»ÑĮ
ient es
Ġhas h
p ol
Ġà´ª àµįà´°
ĠH a
C ustom
ĠAs sert
Ġv iv
ont o
Ġme chan
à¨¿ à¨
ous ly
Ġf u
am ount
By te
Ġover all
( A
in ha
ä¹ ĭ
Ä± m
ool s
ĠCl ub
ah an
Ð°ÑĤ Ñĭ
ield s
ĠM onday
Ġt el
se g
in line
v or
Î £
Ġcomfort able
ĠS aturday
å ©
à² ¬
und en
d ag
å¤ ĸ
Ġn Ã¤
h os
? >
Ġimmed iately
c os
b d
Ġà¤¨ à¤¹à¥Ģà¤Ĥ
ĠOr der
ĠâĢ Ŀ
à¸Ł à¸£à¸µ
ĠFl or
Ñĸ ÑĢ
Ġgre ater
il ing
Ġtest s
.b e
Ð¾ Ð½Ð¸
ne h
ĠS ign
ann els
Ġå Ī
Ġs and
R T
à´¿ àµ½
.h as
Ġm iles
Å ¥
Ġs ql
Ġa Ã±os
áĢ Ļ
Ġag ree
éĹ ¨
typ edef
ĠÐ²Ñģ Ðµ
Ã¼ t
em on
ĠA uthor
Ġfab ric
im pl
Ġsp irit
S upport
le e
à¸ļ à¸Ńà¸¥
ÙĤ ÙĬ
Ġstrateg y
Ġc el
ĠTe am
Ġl ÃŃ
áĥ£áĥ ļ
Ġik ke
ì °
è¿ ĩ
ern el
er i
P M
Ġin str
ĠÐ Ľ
Sc roll
Õ¡Õ °
è Ĭ
Ġf ir
Ġemploy ees
ĠØª Ùĩ
Ġexp and
Ġdem onstr
-------- ----
pli ance
Ñĸ Ð·
ĠE duc
Ġà¤ ĺ
ĠÎ± ÏĢ
;Ċ //
í Ħ
ĠÐºÐ¾Ð¼ Ð¿
Ġlook ed
Ġcol ors
Ġ$ ('#
Ġturn ed
Ġk ap
Str ip
Ġre v
ĠE ast
ĠÐ´ Ð¾Ð»
Map per
c n
al u
Ġb atter
Ñı Ð²
Ġc er
S ave
al ance
os ing
bo ot
ê ±
" )ĊĊ
Õ¶Õ¥ÖĢ Õ«
Ġh ospital
Ġst ack
ĠB a
ļ áŀ
_ com
Ó© Ð½
à¥įà¤ ķ
D b
Ø§ Ø´
s cribe
R oot
ĉ try
Ġl ots
ĠBo ard
pl an
ĠØ ¦
Ùĩ ÙĨ
ĠM en
Ġàª® àª¾àª
We ight
he ll
æ ¶
Ġcl in
ind i
{ "
Ð¸ ÐºÐ°
Ġcon n
Ġdet ail
_ a
_ i
Ġm essages
Ġ' \
Ġre li
t arget
arl ier
Ġcas a
Ġrequ ires
ĠÐ ¥
â Ķ
P erson
y ond
Ġj ou
Õ º
ĠPl an
om as
Ġl oved
av as
í Ķ
}ĊĊ /
ĠM as
ĠJ ack
áĥĲáĥłáĥ Ĺ
Ġser ial
Ġoffer ed
ÙĪ Ø§ÙĨ
Ġc tx
!! !
Ġsh ipping
ĠN ode
ĉ while
Ä±nd a
ĠB uild
çī Į
ic ing
ï¼ ĳ
eg en
Ġt y
j oin
Ġáĥ ®
à¥ĩ à¤¶
< string
ĠT ur
r um
- k
Ġin sert
Ġp sych
Ġsc en
Ġtop ic
ĠS H
áĥĺáĥ ª
ar an
Æ° á»£
Ġs or
à¤ ·
Ġrespons ible
util s
Ġm ask
Ġu w
ec ution
Ġlog ger
.c o
Ġmean ing
Ġtrab al
ĠB utton
ĠS ex
Ġge z
ĠN E
âĢĿ .ĊĊ
à§ģ à¦
ert ain
" ;
´ Ģ
Ð ¥
el come
_m odel
Î ł
W rite
) {čĊ
Ġhac er
à§ĩà¦ ķ
cl es
.f rom
c ell
ÑİÑĤ ÑģÑı
_ per
um i
×ł ×Ļ
ä» Ĭ
Ġp s
à®¿à® °
Ã¤ hr
Ġvol ume
è¿ Ľ
ĠÙħ Ø¬
D ouble
_st art
P e
ĠÐ¸ ÑģÐ¿
Ġe ye
Ġ" +
Ġthat 's
ĠØ§ÙĦ Ø·
ĠÐµ Ð³Ð¾
ÑģÑĤ Ð°Ð²
Ġre ader
OV ID
c ategory
child ren
ĠGre en
w indow
ĠÏĦÎ· Î½
ĉ pro
Ġå ®
ĠSoc ial
ent ication
Ġn ke
Ġtr uly
ind en
ĠL as
B it
Ġj s
Ð¸ ÐºÐ¸
Ġdi et
Ġp il
xt ure
ĠWH ERE
Ĺ à°¾
ot i
################ ################
Ġt v
Ùħ Ø¯
Ġë ĮĢ
ir cle
ĠA uto
Ġreport s
at ically
") )Ċ
æī Ģ
Ġi Ã§
(p ath
O UR
y led
ĠCom ponent
êµ ¬
Ġg ut
an je
ic ien
åı ĸ
Ġmet al
10 8
.j oin
mer ce
Â º
à¸Ń à¸ķ
Ð³ ÓĻ
Ã³ g
un to
Ġre con
i ers
ĠC oun
.com ponent
ÑģÑĤ ÑĢ
j on
ap at
ÑĤÐ¸ Ð²
Ġoper ator
áĥ Ļ
IV E
Ġgl ass
ÃŃ st
ĠÐ± ÐµÐ·
ÛĮ Øª
á» «
w en
ĠL at
åį ķ
Ġt ipo
lement s
ĠEng ine
.cl ient
AL UE
ĠF unction
ĠK om
bl ing
.w idth
Ġest im
à°¾à°° à±ģ
âĢĻ Ã©
Ġë ¶
) *
. http
Ġg y
V ideo
Ġparam eter
ĠM any
íĻ Ķ
ĠA uf
Ġcas o
Ġ eller
à²¿à² ķ
icha el
Y ear
Ġinvest ment
Ġ×Ĳ Ö·
F C
Ġfe et
Ã´ t
Ġê¸ °
' d
ra ag
Ġset up
Ġa udio
ĠÐ± ÑĭÐ»
×ķ× §
B S
Ġextrem ely
Ġpr Ã©s
æĺ İ
Ð½Ð¸ Ðº
í Į
à®¿à® ©
( L
Ġvari able
Ġset t
Ġgu id
Ġà¤ ı
ĠV ideo
Ġappropr iate
Ġcent ral
az z
ĠÙĦ Ùĩ
Ġmin imum
ĠRes earch
Ġeas ier
Ø¯ Ùħ
Ġdise ase
.t arget
Ġg al
Ġis n
und er
ÐµÑĤ Ðµ
Ġcor respond
Å ©
ÏĦ Î¹Îº
ÑģÑĤ ÑĮ
=" /
ate ver
.d art
', čĊ
ĠØ¨ ÙĨ
Ġk er
on ym
Ġpa ÃŃs
F L
Ġre tr
ĠM ethod
Ġep is
c or
ĠÙĨ ÛĴ
it as
arg o
Ġplace holder
se lected
ĠàªĨ àªµ
T S
_ un
Ġd ella
Ġcomplet ed
Ġwe ather
Øµ ÙĦ
/ Ċ
is her
Ġgr up
Ã« r
%% %%
Ø° Ùĩ
Ġh ous
ç¾ ¤
inter face
Ġprovid er
.l ang
ke it
a ats
Ġprote ction
áĥĵ áĥĲ
el ing
te e
bo olean
E CT
@ "
form ed
ĠM it
' m
w ide
. String
Ġal bum
Ġen contr
Event s
. ui
×Ĳ ×¨
met a
Ġad apt
Ġw arrant
ĠÐ² Ð¾
Ø¹ ÙĦ
D oc
Ġtem ps
/c ore
ĠÐ¿ ÑĢÐ°Ð²
Sc ale
Ùĭ Ø§
Ġed ge
Ġhim self
çŃ ī
I ter
ik u
Ã ĥ
Ġk or
Ġth ank
E rr
par k
ren ch
Ġà¦ ²
Ġdur ante
ĠÐ² ÑĢÐµÐ¼
Ġschool s
Ġsc ene
Ġbon us
Ã¡ m
ĠW he
à¥ĩ à¤²
ÃŃ cul
is en
mod al
um inate
Ð» Ñĥ
S chema
as il
Ġ ä¸
à²¿à² ¯
Ġelect ric
à²¿à² Ĺ
. Ex
Ġå Ĳ
Ġ Ê»
Ġk new
C lose
Ġo le
Ġincre ased
Ð¸ÑĤ ÐµÐ»
áĥķ áĥĶáĥļ
d raw
Ġopportun ities
Ġse ctor
") čĊ
_ cl
D on
Ġn ak
Ġing red
Ġd ialog
ĠÑĢÐ° Ñģ
Ġw ind
') ->
Ġv id
ĠFr anc
Ú »
ĠN etwork
A c
Ġsc ience
Ġcomp ared
u ir
à¥ģ à¤¨
ìĨ Į
Ġstud ies
Ġsp ent
ĠÐ¸ Ñħ
ear n
Ġf arm
ri an
ĠC amp
o id
Ġe a
ard e
Ġe at
Ġal one
á»Ľ i
# Ċ
Ġ/ >
Ġcell s
ĠÐ¿ Ð¾Ð²
un ning
Ġbro ad
Ġsc ient
ĠS on
Ø³ Ùħ
ĠMan agement
Const ants
in ct
w d
te gr
ult ure
.pro totype
Ġvis ual
Ġb ot
ver ter
Ġoffer ing
Ġà¤ ¡
áĥ ¬
ov en
Ø§Ø± ÛĮ
- T
.com mon
Ñı Ð·
Ġme jor
×Ļ× Ł
H P
Ġc ro
ĠR est
M ar
Ġte ams
ĠL ocal
ãģ Ŀ
ĠF ore
Ġf ans
ĠA tt
J ob
Ġp ad
Ġw o
Ġl ibrary
hel p
Ġ' #
Î ¤
Ġr ace
Ġ: ĊĊ
Time out
pr imary
an ia
Ġm Ã©
u pload
Ġincre asing
æ ¼
_d ict
Ġz ich
Ġannoun ced
Ġm and
à´Ł àµįà´Ł
am ing
Ġå¤©å¤© çĪ±å½©ç¥¨
J e
ĠB E
Ġgr adu
A IL
ĠC ustom
ĠSt ar
. [
Ġm ac
Ġfig ure
Ġb rought
à® ¨à¯įà®¤
C re
imest amp
ĠI M
Ġs ul
ĠK r
Ùģ ÙĬ
Log ger
æį ®
Ġt xt
.S e
ad ora
Ġeconom ic
è® °
ĠÃº lt
ä» ĸ
/ g
éķ ¿
am en
Ġcu ando
Ġv ast
Ġat tract
Ġbe ach
ask et
à«įàª Ł
ç ¼
iz i
ĠO K
Ġw et
ay load
ĠL ine
åĬ Ľ
.ex ample
is set
Ð½Ñĭ Ò£
ĠÎº Î±
Ġroom s
ĠC am
Ġ( _
Ġ" #
is is
it et
Ġ ile
c are
Pro gress
in stance
à§įà¦ ·
Ġà² ¤
ĠOff ice
ÙĤ Øª
ĠPa ul
à´¾à´£ àµį
à¦¿à¦ °
åħ Ń
Ġgo als
ÏĦ Î¹
Ġin cl
.b utton
s end
Ġà¦ı à¦ķ
ä¸Ń åĽ½
L es
M ember
áĢ Ķ
stru ctions
ĠY es
en as
Ġap i
end ant
Ġp ull
ch or
.p ost
Ġpol ic
Ùģ Ø±
l ished
Ġb h
Ø Ł
å° ĳ
_n ode
Ðµ Ð¸
ah i
Õ¥ÖĢÕ ¨
Ġw ire
Ġl ok
áĥĺáĥ ł
ë¬ ¸
N a
88 8
áŀ Ģ
âĢĻ a
Ġsp read
Ġoff ic
ĠCon sole
int a
ĠW ell
ili ar
! =
ÐµÑģ Ð¿
Ġident ify
ĠÔ ±
à¸¥ à¹ĩ
i ans
ĠØ¬ ÙĪ
åĮ ĸ
Ġocc ur
Ġà¸ ģ
- center
Ġco ff
eg a
Ġ{ }Ċ
à¦ ¶
ìĹ ¬
Ġrel ax
Ġlist en
Ġm ur
×ķ× ¤
Ġr aw
Ġres p
y k
ĠÐ² Ð¸Ð´
Par se
Ġdeterm ine
Ġen able
.f r
ĠJ ah
F ind
Ġf el
lic it
ìĹĲ ìĦľ
Ã¼ nd
10 5
. .ĊĊ
Ġgir ls
æ¬ ¡
Rel ated
.A s
ĠP R
Ġsh oot
áº¥ t
Ġel le
ĠQ ual
Ġlo op
Ġh arm
åĽ Ľ
od ed
ersist ence
Ġà¸ £
ĠGl obal
ol ve
en ance
Î¯ Î½
Ø¯ Ùĩ
] ;
En c
Æ° á»Ŀ
Ġ )ĊĊ
ĠÚ© ÛĲ
Ġes tr
In st
ĠL in
ro ke
à¤ ¥
Ġ Õ¡Õ¶
Ġl l
H ost
Ð¾ÑĢ ÑĤ
P erm
hand le
F ree
SE T
à® ļ
à²¿à²¦ à³įà²¦
Ġnam ed
Ġw ax
.t ime
om in
ug g
n ya
Ø¯ ÙĬ
Ġi hr
D O
Ġtest ing
Ġm ist
cond s
S eg
e j
k it
Ġà² Ĩ
_ config
Ġ$ ("#
/ f
ĠA T
Ġs ter
augh ter
ĠDown load
Ġsur v
. un
ut ure
Ãº s
Ġs ar
Ġfamil ies
à¥įà¤ ª
_l ength
ic iÃ³n
yth on
à¦¤ à§ĩ
ap on
ĠD B
Ġ å¤§
ĠI k
Ġdisc ount
Ġbenef it
ant en
Ġs ources
Ġform s
Ġw ife
il ename
Ġse hr
Ġcon centr
Ġc up
Ġaff ord
je ction
C or
b urg
(e vent
o es
Ġst ation
M D
Ġpop ulation
æĹ¶ éĹ´
Ġla unch
Ġm p
.t itle
à¸²à¸ ģ
å Ļ
fr ame
àµ »
à¤¿à¤ Ĥ
t or
ÒĽ ÓĻÐ°
ST R
à¤¤ à¥įà¤°
Ġm ont
ĠE ach
çĥ Ń
d ocument
ĠJ an
ol ar
.M odel
Ð¾Ð² Ð°ÑĤÑĮ
Ġd ont
àª¾àª ¯
Ġtem po
ĠØ ¶
¤ ĳ
ĠTr ump
Ġan c
em po
Ġaw ard
æıĲ çİ°
_s ub
ot or
ant ic
Ġim plied
ĉ self
à¸± à¸ļ
Ùĩ Ø±
ĠWITH OUT
er se
é«ĺ æ¸ħ
(t ype
Ġin come
à¤¾à¤ ª
ij o
Ð §
) ]Ċ
Ġ[ ];Ċ
ĠR oom
Ġu b
, $
Ġbu ilder
áĥĿáĥ ļ
ativ ely
Ñĥ Ð°
- line
Ð¾ÑģÑĤ Ð°Ð²
_ EX
Ġwe ar
Ġun ser
pl us
S ort
ÃŃ m
in ese
all er
Ġsh opping
ash board
Ġb ound
Ġf ather
ig ital
g in
Ġat Ã©
R ate
çĶ ·
Ġbe yond
oy al
Ġà°ª à±įà°°
Ġà¤¯ à¤¹
Ġu lt
og y
Ġg ain
Ġth r
_ result
Ð°Ð½ Ð¸Ðµ
Ġcoll abor
à³Ĩ à²¯
_ ERROR
ĠS un
Ġpower ful
ë§ Ī
àª ¬
m enu
if orm
pro du
ĠG al
Load ing
_ k
Ġb urn
Ġhigh est
Ġà¸ Ń
Ġ' ../../
ĠG overn
Ġby tes
cre ated
Ġt ent
ĠD ouble
ĠÐ° Ð½
Ġlo an
ict ions
err ors
. serv
Ġfact ors
Ġwur de
i ques
Ġgu ys
à¦ ļ
ĠØ¹ ÙĦÙĬ
×ķ× ©
Ġman age
.d raw
×¢ ×ľ
Ġe e
Ú¾ ÛĮ
ĠDes cription
Ġe j
Ġcall s
Ġbes ch
w in
t mp
ĠáĥĲáĥ Ľ
ĠØª Ø±
Ġgebru ik
Ġm ere
ĠDe v
à® Ļ
é ļ
it Ãł
_ O
> {
Ġan os
ç¦ ı
. height
ener ated
Ġfin ished
Ġne arly
Ġcommun ication
Ġáĥ ©
at r
ĠF ull
Õ ¢
ĠĠ ĊĊ
Ġm emb
_P RO
ĉ r
Ġtalk ing
re h
Ġà° Ĩ
à´¤ àµį
Ġtr aff
ĠÕ ©
æĽ ´
Î¼ Îµ
ĠÐ½ Ð¾Ð²
Ġc md
re me
Ġim mer
Ġth anks
ick ets
à¸£ à¸°
Ø³ ÛĮ
à¯Ī à®¯
æ° ĳ
Ġs cript
ĠL ife
Ġre asons
Ġevid ence
Ø® Ø±
Ø§ Ùĭ
Ġà¤ķ à¤¾à¤°
L IC
_t able
Ġrecord s
Ġvo ice
ÃŁ en
Back ground
Ġf av
3 50
Ġl ack
a al
Ġ" .
ific ate
he it
_n umber
ìĦ ¸
Ġqu ando
Ġobject s
Ùĥ ÙĦ
c ss
åĬ ¡
Ñģ Ð¸
n on
ic ul
Ġm ijn
Ġg Ã¶
Ã¤ ng
ĠÐ¼Ð¾Ð¶ Ð½Ð¾
Ġf ear
Ġv il
nd ef
ter ior
Ó ¯
ig i
ìĭ ł
à¤ ĩ
ä¸ İ
A p
G en
è ¢
áĥĶáĥĳ áĥ¡
Õ¥Õ ²
å½ ĵ
Ġdis pon
L ayer
.m essage
red it
Ġex port
å± ±
ann ed
Ġb á»¥
Ġs pect
Ġver w
ĠPr ice
Ġa im
Ġgu ard
'] )
Ġ" $
Ġn or
åĵ ª
Ġhund red
ĠÐº Ð¾ÑĢ
it at
( __
Ġh asta
ar p
O U
ateg or
æ ·
let ed
å¾ Ĺ
Ġexperien ced
Ġtr ial
ãģ ł
Ġag ent
Ġreal iz
à¦¾à¦ ¸
Ġpar k
Øª ÙĬ
Ġper met
Ġend l
æİ ¨
ĠØ¨ Ø¹Ø¯
ul er
ëı Ļ
à¶± à·Ĭ
Ġre pe
Ġin iti
Ġg ed
âĢĻ une
Ġw ieder
Ġk il
ĠG ar
Ġmak en
à²¿à² ¨
Ġtechn ical
[ index
au c
En um
Ã ĵ
Ġdom ain
ĠG en
Ġval or
00 3
u ent
_m ap
V ol
æ¯ Ķ
Ġh aar
Ġr adio
Ġå ¾
abil ities
×ķ ×Ļ
à¸¥à¹ĩ à¸Ńà¸ķ
ĠØ³ Ø±
íĦ °
A F
ĠEurope an
Ðº Ð¾Ð¹
ĠT om
Ġdet ect
AB ILITY
ut os
ph ere
Ġwe er
í ļĮ
R ule
Ġsec ure
ĠE ner
Ð½Ð¸ Ð¼
gl obal
Ð¾Ð´ Ñĥ
omet ry
ãģ į
f ix
s ession
à¸ģ à¸²à¸£
. Com
comm od
Ġl if
pro ps
it ud
ĠM ill
_c ast
ĠÐº Ð¾Ð»
ap es
An y
Ġàªķ à«ĩ
à³ģ à²µ
ç¥ ŀ
- sh
Con d
pect ive
ET H
Ġcan cer
. On
à¯ģà® ¤
) /
é© ¬
Ġd ict
Edit or
Ġpro ps
Ġ{ '
ĠB ox
. max
Ġparticular ly
ĠTex as
ĠWash ington
s uccess
Ġfriend ly
ĠL ook
ìļ °
Ġin clus
Ðµ ÑĨ
b in
vo ice
ÙĦ Ø¨
act ivity
)) ;
S k
ĠPl us
=" {{
al f
u we
_f or
vis or
Ġà² ĩ
Ġrem oved
ĠĠĠĠ čĊ
Ġes per
è Ĳ
Ñĥ Ñħ
en en
ĠUn ivers
Ġà¦ ¥
10 3
Ġgu ess
Ø§Ø± ÙĬ
Ġarg uments
Î Ł
á» ī
ĠAcc ount
Ùħ Ø§ÙĨ
Ġis so
Ġp om
Ġsur round
ÓĻ Ð»
ĠÙĩ ÙĪ
istr ict
ç± »
Ġa pro
ĠAustr alia
Ġrestaur ant
Ġj og
Ġz elf
ĠÐ §
__ _
ĠCas ino
Ġar en
Ġê µ
id ente
à¥įà¤ ¸
èµ °
ĠBl ue
Ġal though
ĠIs ra
cl ip
ê ·¸
àªµ àª¾
Ġth reat
çĽ ¸
00 2
.de lete
f aces
ĠSp iel
à«ĩ àª²
Ġw rote
Ġc ache
t ab
ÙĨ ÛĴ
æ ¡
ir ation
ĠP ay
â Ĺ
d k
Ġim press
Ġe arlier
Ġa gr
Ġch urch
ä¿ Ŀ
à¦ Ń
éĿ Ĵ
ĠåĽ ½
à§į à§°
che dule
Ġon ze
Ġ ÏĮ
G o
Wh ere
cont act
a Ã§Ãµes
Ġl it
ÙĦ Ø³
Ġset s
v c
Ø³Øª Ø§ÙĨ
ist o
Â ¿
æĦ ı
z h
- D
r at
L A
ĠM ont
e en
Ġv Ãµ
ĠD at
Ġd y
à²ķ à³įà²
Ġà¸ Ĺ
11 5
es cription
En umer
pr ite
Î¿ Ïį
Ġa st
Ġv u
ĠCont rol
ant ed
Ġabsol ut
à¥ģ à¤²
Ġà¤¹ à¥Ģ
Ġf etch
Ð°ÑĢ Ð¸
end l
a Ã°
ess or
ãĥ ¬
å®ĺ æĸ¹
êµ Ń
] ['
ìĬµ ëĭĪëĭ¤
_ j
Î» Î»
Ġna j
ĠUn ity
áŀ ĵ
a q
raint s
Ġwait ing
Ã¼ h
Ġp Ãºblic
Ġb od
Ġdis tr
Ġf on
ĠP ara
Ġstr ict
Ġb ra
áŀ Ħ
N ote
ĠÙħ Ø¯
Ġ á¹£
à¸²à¸ ĩ
Ñĥ Ð²
ĠÐ¾ Ñĩ
( F
ĠAr g
x ml
Ò¯ Ò¯
ol s
ar se
ser ve
d ers
à¤¯ à¤¾
Ġu pload
og raf
Ġun o
ë £
èģ Ķ
Ch o
_ object
ĉ set
×¨ ×Ĳ
Ð¾Ð» Ð¾Ð³
Ġh yd
( View
áº¡ i
Ġpass ion
à´ Ĺ
Ġsecond s
an ne
_ item
co res
ri or
Ġlist ed
Ġrem ov
IG N
à¤¿à¤ µ
EN SE
Ġc á»§
Ġconnect ed
orith m
ple x
Ðº Ð¾Ð¼
{ }
Ġoper ations
ĠOr gan
ro ad
âĺ ħ
Ġtemper ature
n am
Ġà¦ ĵ
ĠC OVID
Ġnot re
Ġm ission
Ġac adem
Ġcl oud
E B
Ġsch on
)) ,
k et
Ġpart ir
ur en
Ġmoment o
ç ¢
amb da
ĠÚĨ ÛĲ
Ġest ate
Ġj ag
à¶ ½
à®ª à¯įà®ª
Ġbo ost
ĠC are
Ġap lic
n is
Ġle v
à§ Ī
ĠS om
Ġmes mo
à² £
Ġwh ose
atch es
ll a
Ð¾Ð³ Ð´Ð°
F in
Ñĭ Ñģ
( k
ĠE lect
ien en
Îµ ÏĤ
Ġfind ing
Ġim pos
æĻ Ĥ
ant ity
æŃ ¤
àª ³
ä»£ çĲĨ
àµĨ à´¯
Ġhelp ing
stand ing
use um
Ġref lect
Con nect
Ġc v
ig u
à¸Ĺ à¸µà¹Ī
ìŀ ħ
Ġcol d
et zt
= False
ĠÑģ Ðµ
c atch
Ġmult i
Ġo v
Ġcá»§ a
åį ¡
ess ions
Ġv ai
( error
à¹ Ģ
Ġgu y
Ġchall enge
Ð» ÐµÐº
Ġweb sites
ook ie
st at
åľ° åĿĢ
Ġdirect or
ĠT erm
C ap
Ġw ij
Ġs b
_ out
ch i
m u
ict ed
Ġë ĵ
. use
Ñĥ ÑĢÐ°
ĠC D
\ Ċ
Ġà¤ħ à¤¨
. object
. User
Ġmov ed
Ö ĩ
ie le
ĠC reat
à®Ł à¯įà®Ł
Ùħ Ø§ÙĦ
Lo ader
Ġgener ally
à¸£ à¹Į
( req
Int ent
H i
ens ity
l ijk
Ġsur pr
Ġd oub
ĠØ «
Trans form
Ġcr Ã©
Ġ íķĺ
Ð»Ñİ Ñĩ
10 4
Ġà¹ Ĥ
ĠRe view
Ġa head
ĠRe port
Ġi yo
Ġs cre
L ook
ic ons
Ġf al
ch ron
P ool
Ġg aan
**************************************************************** ********
Ġopen ing
Ã¶ s
Ġcont roller
Ġcomp are
let s
áĥĿáĥ ł
W rapper
ĠN ote
ĉ assert
ĠÑį Ðº
Ġs ys
Ġex ternal
Ġg ibt
åħ Ī
é ĥ½
Ġat i
ib les
N T
] ;čĊ
/ t
sub mit
Ġa tr
ĠEn ter
Ġcap acity
ç¤ º
iz able
O UN
pro file
ĠL ast
un te
Ġmat rix
- K
ĉ log
ĠR ock
cre te
H ere
ĠÙĩ Ø°Ø§
ek s
ĠE ss
Ġ×ĳ ×ŀ
Ã¡ g
Ġap art
à°¿à°Ĥà° ļ
Ġà¤¤ à¥ĭ
Ġsche dule
" .ĊĊ
ĠA L
ĠS ince
ĠĠĠĠĠĠĠĠĠĠĠĠĠĠĠĠĠĠĠĠĠĠĠĠĠĠĠĠĠĠĠĠ ĠĠĠĠĠĠĠĠĠĠĠĠĠĠĠĠĠĠĠ
Ġj eg
ĠÐº Ð°ÑĢ
á Ĥ
ĠCont act
Ġmen os
Ġdis patch
Ġ" Ċ
Ġàª ¥
Ġb orn
um in
. format
In valid
el ess
The y
Field s
Ġconfig uration
uch t
Ġå¤§åıĳ æĹ¶æĹ¶å½©
_ int
à¸µ à¸¢
ĠTh anks
ãĤ ¿
ÑĢ Ð¾Ñģ
Ġj ournal
åĢ ¼
Õ ©
A xis
Ġ" ../
ĠS imple
l j
¥ ¿
s um
Ġg one
ÑĤ Ð°ÑĢ
Ġn ar
ĠD iv
ĠW ater
ĠU r
Ġ×Ĳ ×ķ×Ł
ĠÐ° Ð±
1 12
Ġu d
-m ail
atas et
Se ction
ÐºÐ¸ Ñħ
arg a
Ġpost ed
Ø¯ ÙĬØ¯
ë ¹Ħ
àª ļ
Ġsex ual
ĠÐº Ð¸
ION S
ÙĩØ§ ÛĮ
Ó ¡
Ġprocess ing
- old
Ġall oc
S m
Ġapp oint
ĠM or
" ].
ç¤ ¾
Ġrelev ant
Ġfact or
Ġw ild
Ġr ac
el ijke
Ġáĥ ľ
Ġart ist
Ġse us
re es
å» º
resh old
Ġdo ctor
èµ ¢
à© ĭ
ĠD a
Ġr ub
ĠÕ° Õ¡Õ´
Ġc opyright
Ò³ Ð¾Ð¸
Ġtod as
à§ĩà¦ ²
ĠB ay
f en
ìĺ ¤
Ġann ual
Ð» ÐµÐ¼
Sc ore
Ġà¤¸ à¤ķ
Ø® Øµ
cy cl
. Error
ol ic
Ġm ent
alle l
M M
ĠFr ank
Õ¡Õ¶ Õ«
Key s
Ġgr ad
ä½ ł
g ang
un es
Ñģ ÐºÐ°
ug ins
al is
ĠÐ± Ð°Ð¹
ert a
Ã Ĺ
Ġrap id
Id s
Ġper mit
ĠÑģ Ðº
Ġcrit ical
Ġlarg er
Ġà² İ
Ñģ Ðµ
ÙĦ Ø§ÙĦ
Ġtr uth
éĽ Ĩ
è ĥ
Ġm ental
Ġd us
ĠT ra
con n
Gl obal
Ġorgan is
ĠĠĠĠĠĠĠĠĠĠĠĠĠĠĠĠ ĠĠĠĠĠĠĠĠĠĠ
Ġbuy ing
Ġincre d
éĻ ħ
- R
Ġu z
al ah
de vice
Ġt anto
ĠÛģ ÛĮÚº
Ġsh ip
os o
os i
Text ure
ĠÙĦ Ùħ
Ġclos ed
f ill
Ġpro ces
Ġl ugar
J oin
qu ir
Ġs weet
ow l
ĠÐ´ ÑĢÑĥÐ³
Ġz ero
àµįà´ ²
)) čĊ
Ġche ap
à¥įà¤ ¨
æµ ·
ion i
Ñĭ Ð»Ð°
P or
Ġeff icient
ĠO l
ing u
] :
Ġmin ute
ĠÙĥ Ø§ÙĨ
ĠR ich
S i
Ġj am
| |
US ER
ĠT or
ed y
) {
Ġs ÃŃ
Ã¡ri os
ĠS P
T C
à±ģà° ¨
( G
ag ma
à¤ķ à¤°
i Ã¨re
ĠTh ursday
Ġf ederal
Ġsh ot
Ġread only
Ù ½
ĠO h
Ġinter view
. en
Ġho e
à³įà² Ł
Ð´ ÐµÑĢ
( obj
ĠØ§ÙĦ ÙĦÙĩ
ĠOn ce
Ġaff ili
Ġìĭ ľ
Ġtrans action
it ness
Ġis n't
Ðµ Ð¸ÑĤ
Al ignment
Ġem ot
. Re
b st
ate ur
à¨ ¤
it Ã©s
' ai
es a
ĠPro cess
_ en
ĠM iss
ĠM ass
Ġmiss ing
ĠPl ayer
M any
Ġth erap
d t
ç± ³
à¦¾à¦ ľ
ĠApp lication
ĠP op
Ġall es
ĠÐº Ó©
ĠR oad
Ġtal ent
aw s
×ķ× ¡
ĠJ o
Ġm Ã¥
et ail
ãĤ ³
à± Ĭ
à´ª àµįà´ª
_in put
Ġfl at
ĠV ir
V AL
Ġm ale
ĠB i
ä¹ Ł
-> _
R C
/ lic
): čĊ
ĠI de
Ð¼ ÐµÑĢ
we i
Ġ{ {
Ġz w
à¤ ģ
() ));Ċ
Ġcoff ee
_f rom
Ġexper iment
Ġord ers
- item
Ġpo or
Ġà¦¸ à¦®
D id
Ġáĥ ¤
f on
ind o
17 0
ĠJ ul
Ġc ant
à² ¹
pre t
ĠÐ ¤
à¤¾à¤¨ à¥ĩ
ĠÐ¸ Ð³
Ġê² ĥ
Ġdis tribution
ow a
u je
ÃŃ vel
à§ §
ĠB ed
anc ing
Ġdirect ory
Ð» Ð¾
Ġle ader
Ġ äºļæ´²
Ġg j
áĢŃ áĢ¯
ur as
in et
ist an
P ass
)) )Ċ
Ġges ch
ĠÐ· Ð°Ðº
ĠC ong
Ġr id
Ġcr usher
áĥĿáĥ Ĵ
an h
Ġhappen ed
ĠG L
ĠT uesday
Ġà¹ Ħ
Ð¿ ÑĢÐ°Ð²
ex pected
Ġel s
Ġl ose
ĠHe ad
Ġadvant age
S M
C ustomer
å¹ ķ
Ġ- =
ÙĨ Ø©
Ġpe ace
ĠS pecial
ĠWh y
ĠEx per
ib i
Ð¸ Ð²Ð°
Ġwel come
c ion
ost a
Ġàªª à«įàª°
ci as
Ġbest e
Ġm ad
ĠPe ople
ĠĠĠĠĠĠĠĠĠĠĠĠĠĠĠĠĠĠĠĠĠĠĠĠĠĠĠĠĠĠĠĠ Ġ
ĠSt ore
os h
Å¼ e
Ð¹ Ð½
Ġun less
Ġàªª àª°
com ment
ĠChrist ian
art icle
à· Ļ
Ġanal y
valid ate
Õ¡Õ Ń
Ġv ÉĻ
Ã¨ res
ĠM A
Ġdo en
ï¼ļ ĊĊ
ĠÎ³ Î¹Î±
avas cript
Ġ" );Ċ
å ĸ
ëħ Ħ
Ġd ari
ĠÐ¶ Ðµ
ĠF inal
Ġneg ative
P UT
Ġhelp ed
Ġequ al
åı £
. check
l f
Ex pression
Ġfe es
os is
Ġe uro
Ġj est
sh ared
clud es
F unc
ar am
Ġat tr
Ġà¤ª à¤¹
Ġsl ight
Ġs cope
Ġ ...Ċ
Ġjour ney
Ġs plit
à§ĩà¦ ¶
ĠPar is
- x
Ġìķ Ħ
Se lection
è® ¯
ins i
ip t
è Ļ
ĠB on
ÙĬ Øª
Str uct
Ġfollow ed
Ġ' .
Ġup dates
H igh
Ġtr i
Ġinstance of
×ķ× Ĺ
Ġhom es
à²¨à³įà²¨ à³ģ
Element s
r Ã¡
Ä± l
Ġadd ing
EN G
( url
Ġin tr
Ð°Ð½ Ð¸
ĠÐ° Ñħ
Ġgr at
R adius
à®¾à® ķ
ic ious
ï¿ £
Ġvi Ã°
Ġwer k
H A
L at
Ġì§ Ģ
ĠJ ames
art en
í ı
ĠP o
ĠCommun ity
Ġin ner
Vari able
Ġr out
eng er
Ġn one
Ġà² °
l ot
........ ........
à²¿à² ¤
am ples
w t
×Ļ×Ļ× Ł
ĉ e
M ove
B B
Ġà¸ ķ
H as
Ġfe e
Ġn Ãº
ĠØª Ùħ
Ġv Ã¦
Ã½ ch
c ular
Õ¥ Öģ
á» Ń
Ġal i
kt op
Ġc ivil
Ġdon de
R oom
New s
Ð¸Ð¹ Ð½
à§ ±
act iv
' Ã©
- content
c ale
Ġv om
Bo olean
ĠTe le
ĠA lex
er k
oc ity
uk an
à¨ ¨
Ġn ap
d rop
Ġbeh avior
Ġt ail
ĠAn al
.f ilter
az ine
Ġ" -
> '
Õ¡Õ ¼
Ġde i
IO Exception
Ġl uck
à¤ ħ
ìĻ Ģ
ãĢĢãĢĢ ãĢĢãĢĢ
ĠCour t
P U
ê ¹
Ġa de
ĠBo olean
Ġrem ain
Ġtr ail
Ġpie ces
Ñ ļ
Ġyou 'll
à§ ĥ
n p
Ġsist ema
ĠCh ild
Ġtraff ic
ood s
ĠØ§ Ùħ
Ġmov ement
Ø§ÙĦ Ùħ
Ð¸ÑĤ ÑģÑı
ĠUn ter
Ġpre st
Ġn at
ie ce
å° ±
ê° Ħ
Ġapplic able
_ var
= None
è¿ Ĳ
.st yle
N av
Ġold er
b ind
. android
Ġprodu ced
Ġestab lish
ent r
let ter
. exports
Ġáĥĵ áĥĲáĥ
Ġr ing
Ġsur g
Ġn di
.l ist
à´¸ àµį
Ġh aven
ĠP rem
Ġn od
.re place
Ġdies e
2 20
12 7
Ġf ashion
ê³ µ
Ð¼ Ñĥ
un o
Ġestab lished
V ENT
Ġ= >Ċ
æģ ¯
èĤ ²
ĠOn ly
th row
Ð· Ð°
Ġres et
ÑĢÐ° Ñģ
ÑĪ Ð°
Ġinst ant
ĠP et
ĠSt at
ıà¤ķ à¥ĭ
ĠAn n
ĠProm ise
Ġr are
Ġa inda
ÙĨ Ú¯
Ð»Ð° Ñģ
Ġd á»ĭ
Ġper man
ÉĻ t
Ġsuccess fully
Ġsupport ed
ĠA uth
Ġor igin
**** **
Ġti empo
Ġbill ion
Ø¹ Øª
t k
L et
art a
Ġsh ift
en ed
Ġst yles
Ġà¸ §
n one
ĠK on
Ú «
Ġp oll
Ġspec if
Ġ" %
Ġpl ot
Ġ&& Ċ
Ġl ux
Ġs pring
AR D
ĠÐ´ ÐµÐ»
Ġagre ed
j em
.l ayout
Ġlog o
Ð´ Ð°ÑĢ
Ġ" '
s wer
Ġnot es
Ġcon struct
j ango
ĠÂ ¿
Ġpr i
.P r
f x
Ġhus band
ĠMus ic
Ġcreat ive
Ġthere fore
Ġapp s
p k
Ġmot iv
Ġsign al
ro g
Ġdes cribe
Ùĥ ÙĪÙĨ
ir th
Ġde cre
Ġe leg
Ġbr ain
à§įà¦ ¥
B uild
Ġob lig
icien cy
it ate
ur b
àª¾àª® àª¾àªĤ
Ġst ick
áĥ ¨
Ġst reet
ãĢĤ âĢĿ
ij s
ĠÐ¼ Ð°
Ġtechni ques
o ir
Ð»Ð° Ð´
åħ¬ åı¸
Ġt ap
ĉ w
ĠF rench
Ġm g
ĠW ednesday
Ġhe avy
Å ½
Ø£ ÙĨ
Ùģ Øª
opp ed
re quired
ĠÕ ¹
Ã Ħ
Ø³ ÙĬ
æľĢ æĸ°
in h
fore ach
S ome
åĪ ¶
Result s
W ord
Ġmaint ain
Ġà¦ª à¦°
e a
ĠV an
I RE
r un
ĠL ight
O RE
Ġse ven
Ġv eg
L ock
as is
Ġprom ot
Ġë ¬
and i
Ġhol iday
Ġìł Ħ
ĠS upport
um es
enc ode
Ġà¨ ¦
Ġper haps
Ð¸ ÑĨ
ĠAssoci ation
ĠInd ian
ĠáĥĴ áĥĲáĥĽ
áĥĿáĥ łáĥ
SS ION
ĠAb out
.W eb
Ġu g
T erm
ĠÎ ¸
ush ing
Ġser Ã¡
Ġqu arter
Ident ifier
e ps
F iles
Ġmod er
V O
ĠÙħ ÙĪ
th rows
Ġex pression
Ġà¤ķ à¤¹
Ġpr a
ow ired
à±ģà° Ĥà°
ĠPro p
Ð½Ð¸ Ð¹
_ KEY
l ia
Ñĭ Ð¿
ateg y
ĠP ass
Ġw edding
. Color
Ġdr iving
u ge
Ġplac ed
Ġadv anced
Mon th
Ġk unt
ĠA ccess
Ġkey s
à· ļ
j ava
à¹Ī à¸²
Ġach ieve
Ġet a
_ new
Ġdec ide
ç µ
comp any
Ġab stract
% Ċ
ĠK n
ĠL ove
Ġprofession als
is co
Ġret ail
Ø± Ø¶
_ query
Ġc amb
ĠB re
Ġlaw s
Ġë ı
Ġm ess
àª¾àª ¤
++ ){Ċ
Ġt Ã¤
ĠIO Exception
Y es
_ AD
ĠÎ±ÏĢ ÏĮ
ĠInt ent
pp ed
g ers
åħ ¶
ut i
Ø§ Ø·
Ġex ists
z one
ĠS QL
Ġneigh bor
fr as
B efore
-t he
ì Ĥ
in in
Comp at
Ġex change
ĠÏĢ Î¿Ïħ
Ġs ang
ĠRe public
ĠÃ© l
W orld
Ġpos it
à· ĥ
ĠM aster
)) {Ċ
åĬ ¿
S end
Ġpro pr
all back
ab o
ĠI r
Ġup per
Ñį Ð³
] čĊ
è ±
à© °
Ġà¤¸ à¤¾à¤¥
ĠB lock
ĠÙħ Ø·
ĠL ive
Ġà¸ Ļ
âĢ ¬
ĠB log
Ġch i
íķ ł
Ġexper ts
w ell
f d
ĠM aterial
Ġå ¹
Wh ile
u ar
> &
In v
in q
P ackage
Ġcap ac
Ġcover ed
Ġz al
f ach
Fe ature
ĉ echo
_T R
Ð» ÐµÐ½Ð¸Ñı
S L
- H
Ġ} }Ċ
Ġh am
ãĤ °
Ð² Ð¾Ð´
18 8
×Ļ× ŀ
Ġb lo
Not ification
uss en
Ġp on
ĠCol lection
ĠPr int
Ġp y
ie b
ĠÐ¿ÑĢ Ð¾Ð²
Ġre ct
- of
ĠS pe
Ġsh aring
ĠÃ ľ
- G
ĠÐ´ Ðµ
ĠJ ava
ĠÎ ·
( list
#if ndef
Ġat tribute
b uf
ĠL A
Ġà¤¹ à¥ģà¤
ON G
model s
ost er
Ħ à¸£
í Ĩ
Ġsu itable
Ġpre pared
Ġsee ing
. position
ĠâĢ ĭ
ÑĢÐ° Ð¶
Re quired
ĠB uy
Ú¯ Ø±
Å¡ e
. at
Ġæ ī
ble m
l ad
b aar
ic ion
Ġcon tribut
Ġ ÖĦ
Th ese
áŀ ĺ
à¦ §
ĠH D
umm y
à¤² à¥Ģ
T ube
Ð ¨
ÃŁ e
Ãª s
Ġdel ay
F IG
par ator
s ave
Ġà® ī
ag i
ĠÐ± Ð¸ÑĢ
Ġv ed
(( (
ÄŁ Ä±
ĠA P
St yles
áĥłáĥ Ĺ
Ġn ad
ĠRob ert
h idden
Ġáĥ ¥
à°° à±įà°
Ġwas te
Ġdef ine
_l abel
( array
ab i
CC ESS
M T
ĠC A
af ter
art y
Ġbe k
×¤ ×¨
Ġke pt
ur an
re al
Ġf ond
Ġexperien ces
Ġeffort s
Ġs ow
Ġ. =
ĠL ou
ĠBrit ish
V D
id x
fo oter
Ġor ient
ë Ħ
Ġred irect
Ġàªµ àª¿
Ġtr ading
m ak
ĠE U
Ġgar ant
E r
ĠF ort
² à±ĭ
à¤ Ľ
oc he
. New
č čĊ
Ġf ixed
Ġan o
ĠÕ ·
p an
Ġstart s
S ql
Ġv r
Ã¼ k
à¸²à¸ ¡
.in sert
Ġmil itary
. Column
H ello
ac iÃ³
QUE ST
ĠT oday
Ġà¤¹ à¤®
ĠÐ»Ñİ Ð±
ãĥ Ń
ĠA k
amb a
. U
æĭ Ľ
ĠM i
- on
qu ent
Ġthought s
Ġpr imer
Ġsmo oth
.ex ecute
ord ers
ite it
Ð½Ñĭ Ð¼Ð¸
oriz ontal
ĠA D
go ing
Ġw il
ĠÕ Ń
arg ument
ÉĻ l
Ġmay or
- al
Ġpor n
Ġhab e
pl ugin
Ġl leg
Ġfaz er
Ġhab it
ĠSer ver
ativ o
_p age
ier a
ĠT ag
ĠM ichael
Fl ag
Ġcent re
å ¢
Ġwe iter
ÑĤ Ð¾Ð¼
ap se
Ġ ï¼ļ
h at
_t itle
Ġà´ °
Ð³ Ðµ
äºº äºº
àµģà´ ¤
S im
c ement
Ġr Ã©s
Ġk ad
Ġre place
Ïİ Î½
ĠB u
Ġd ess
pr agma
ch ain
Ġan tes
Ġon to
Ġà¤ī à¤¨
Ġdis pos
Ø« Ø±
Õ Ŀ
ÐµÑĢ Ð¸
par ser
ÐºÐ¸ Ðµ
ident ial
ÑĤ Ð¾Ð±Ñĭ
S ingle
Pr int
Ø¬ Ùĩ
ĉ end
_ all
Ġun its
ug s
Ġsem pre
Ġm ater
Ġhand ler
ĠT wo
24 0
Ġindepend ent
ul ated
Ġac commod
Ġste el
y cle
bl og
Ġaltern ative
y ou
Ġàª Ń
Ġm ock
éĩ ı
Ġm ath
if er
$ _
R est
æł ·
/lic enses
Ġdest ination
S pace
Ġfoot ball
ĠAfr ica
Ġp ent
Ġap plied
Ġm ine
' une
#if def
Ġav ant
à¸µ à¹ī
Ġch amp
ĠL ike
(m essage
q a
In s
à¤ķ à¥Ģ
wh at
ay an
UL AR
Ġcours es
Ġk it
ĠP ART
ut f
ĠR o
- fe
(n ode
åı Į
anc er
ch te
Ġnu est
Ġà¸ Ł
lic a
ĠT im
Ġ Ã³
10 6
ä» »
Ġhapp ens
à¯ Ģ
Ġthous ands
= [
Ã« n
Ġto k
s ort
ĠÙħ Øµ
Ø¹ Ø¨
' >
ĠÑĤ Ð¾Ð»ÑĮÐºÐ¾
ĠU nd
N ULL
ag r
çī ©
Ġg ef
ĠZe it
Ġatt end
Ġbig gest
ler i
Ġm Ã©d
×ł ×ķ
à§ģ à¦²
Ġcom pliance
ĠE sp
Ġpresent ed
Õ¡Õ º
Ġdescrib ed
ra cht
ik es
ĠBe ach
Ġ×Ĵ ×¢
ĠCent ral
ic ios
Ġme g
Ã§ as
ir l
Ð¾ÑģÑĤ Ð¸
íķ ©
pos es
. ");Ċ
Ġh Ã¡
re i
Ġ .Ċ
im inal
ĠR a
ĠM el
( text
ĠMan ager
Ġà¤² à¤Ĺ
ĠA z
H et
Ġg ek
ick en
Ġdal am
Ġcover age
pl ier
Ġex tract
Ġproper ly
ì¹ ĺ
Ġdoc uments
à§ ¨
ple ment
Ì ģ
Ġimport ante
Ġaut or
ul s
ĠL ord
Ġsym pt
ri age
àª ¥à«Ģ
Ø¯ Ø±
Ġb ought
Ġe arth
Ø´ Ø±
Ġest ar
.A rray
AP P
it r
Å¾ e
Ñĥ Ñĥ
vir t
Ġà¨ ķ
Ð ¯
æ Ł¥
' );čĊ
add r
ok u
ark s
.g roup
ed ge
à²° à³įà²
Ġli qu
ĠD O
ĠÐ¿Ð¾Ð» ÑĥÑĩ
J ust
ĠP ress
Ġch ain
å· ŀ
ĠĠĠĠĠĠĠĠĠĠĠĠĠĠĠĠ Ċ
A CT
Î ļ
ze it
Pl ugin
ĠL oad
Ġà°ļ à±ĩà°
Ø¨ Ø§Ø±
åĨ Ĩ
à°¨ à°¿
ail ability
ĠW ir
c b
ĠP DF
Ġd anger
ĠP an
ĠSe lect
Ġhead ers
Ġkn ows
Ġwh atever
11 4
AL SE
à¤¾à¤ ı
à¸²à¸ Ĺ
ï¼ļ âĢľ
Ġcan cel
åĮ Ĺäº¬èµĽè½¦
å ŀ
ential s
is l
ĠÑĩ Ð°ÑģÑĤ
_ EN
ĠDef ault
Ã© ri
¾ Ļ
Ġsoc iety
. Id
ch at
Sub mit
avig ate
ĠReg ister
k el
H istory
Ġpl enty
Sh are
æł ¼
×Ļ× ¡
Ġ Ïĩ
Õ¡Õ ²
ill i
ĠS ecurity
( index
D er
lar Ä±
ĠC G
D iv
0 10
St op
Ġ* čĊ
Ġchalleng es
Ġexerc ise
_V ALUE
iss a
P IO
Ġb ah
Ġpart ies
app y
ÛĮ Ø´
al er
_t oken
ÐµÐ½ Ð°
Ġad m
ab b
é ħ
à¦¿à¦ ¬
ĠĠĠĠĠĠĠĠĠĠĠĠĠĠĠĠ ĠĠĠĠĠĠĠĠĠĠĠĠ
'] );Ċ
ĠF est
Ġ} ,ĊĊ
ĩ à¸´à¸Ļ
Ġown ers
Ġ! ĊĊ
ãĥ ķ
Ø§ÙĨ ÙĬ
C enter
Ġpro jet
own er
å ²
Ø§ Ú©
×Ĺ ×¨
Ġwarrant y
à¤ ł
æ ¥
Ġreal ity
- term
M ay
.c lear
ĠCh urch
ĠU til
e lement
à¶ ¯
16 8
ĠS ize
M E
Ġ? ĊĊ
Ġrem ote
Ġad vent
ĠL E
Ġsepar ate
_ no
Ġcomp reh
cl ar
od i
ëĤ ´
am ps
ĠÒ ¡
ĉĉ ĠĠĠ
à¦ ¥
Ġpr z
Ġ rows
Ġwe ak
Pro gram
atur a
18 9
Ġ Ã§a
áĥĶáĥ Ĵ
ĠG es
ER V
S G
Ã¼ l
Ġempres a
Ġde posit
è¶ ħ
Ġdur ation
Ð´ Ð¸Ð½
Ł à«ĩ
ĠB ecause
à¶ §
ĠE en
put e
ĠS up
à§ĩà¦ ĩ
Ġto e
Ġí Ļ
au g
Ġë³ ´
åģ ļ
Ġr h
un ately
Ã¨ t
ĠS eg
ich er
Ñĭ ÒĽ
ä¸Ń å¥ĸ
c out
an ie
v m
Ġ Ä°
àµ ¾
ol ution
ĠEduc ation
s plit
×ķ× ¦
Ġpre mi
u ur
Ã ħ
Ġr ating
Ġnumer ous
or er
*/ ĊĊ
Ġdep th
) [
Ġtask s
b es
ĠÏĥ Ïħ
t ip
Des c
Ġapp ar
Ð± Ð°
áĥ ŀ
à¤² à¤¾
ach ment
ĠJ un
ĠÐ½Ð° Ñĩ
Ġarch itect
ÙĤ ÙĦ
ach er
Ġcar s
ĠØ¢ ÙĨ
Ġw inter
oc ial
áģ ĭ
è ²
Th ank
Ġg ather
Ġque ue
ĠEu rop
HE CK
Ġpart ial
10 7
Ġà¤ķ à¤¿à¤¯à¤¾
ĠK ar
ãĤ ·
b ot
C art
ĠT a
à±ģà° ķ
uk u
Ġutil iz
Ġì ĸ
re z
Ġ{ čĊčĊ
.cont ains
Ġsmall er
Ġdep artment
×ľ ×Ĳ
f n
_l en
S he
ien ces
Ġclass ic
for ce
ĠS ing
ëŁ ¬
Ġ ell
am ma
h d
iv el
_ val
Ġob vious
. Value
ÙĦ ÙĪ
Ġì ļ
. image
ify ing
Ġst ars
Ð´ ÓĻ
ĠE xt
Direct ory
Ġgu ests
ç¨ ĭ
_ end
Ġpre pare
Ġc raft
-s ize
se c
Ġbr ight
ĠInst agram
em and
r ar
ak h
Ġlearn ed
M ake
Ġrun s
Ø¬ Ø±
à¹ī à¸Ļ
à¸¡ à¹Ī
ĠÑģ Ð¾Ð±
ĠDevelop ment
Ġfund ament
Ġk ol
Ġg arden
ĠR iver
Ġtyp ically
Ä± z
_ max
-l abel
ÑĨÐ¸ Ð¾Ð½
Ġhon est
Ġ×¤ ×ķ×Ł
. Read
ç Ŀ
b al
Ġi ÅŁ
Ġà¨ ¸
ĠA ff
Ġd f
Arg ument
as ync
Ġt ub
Ġall a
ici ans
Im port
Ġs quare
o a
Ġæ ±
ĠÕ Ģ
b ij
Ġb atch
Ð Ń
') );Ċ
Õ« Öģ
æ¬ §ç¾İ
Î± Î½
Ġpor no
ĠMin ister
Ġz ou
ĠN on
r or
Ġa id
out ube
ĠD ies
Ġgener ated
ĠØ§ÙĦÙħ Øª
Ġfore ign
ĠÐ¼ Ð°ÑĤ
: @"
Ġsus p
ì§ Ħ
C OM
clip se
Ġba ÅŁ
à§ Ĥ
An imation
D uration
è ¥¿
Ġrequest s
Ġt se
Ġchang ing
AT US
Def inition
Ġm ud
ab y
Ġpol ÃŃt
Ġtr uck
×Ľ ×ľ
Ġorganiz ations
Ġk ing
ĠDirect or
à¦¨ à§įà¦
à®¿à® ±
M ock
âĦ ¢
áĥĶáĥļ áĥĺ
Ġsu ite
è® ¾
n ov
ĠCoun cil
im as
ÈĻ i
DE BUG
. entity
Ġmention ed
ĉpro tected
áĥĺáĥ ķ
ä½ ķ
Ġd il
Ġopin ion
Ġfor get
ØŃ Øª
Ġwork ers
åİ »
be it
Ġk Ã¶
×Ļ ×Ļ×Ŀ
Ġv erm
ĠM ount
an im
ĠGr and
roll ers
ĠĠĠĠĠĠ Ċ
al an
ig an
ĠA f
íĸ Ī
à¦Ł à¦¿
set tings
- N
ind s
az o
X ML
åĻ ¨
ud ad
Ġobj et
Ġesc ort
med ia
Ġse k
Ġj ump
Ġà° ĩ
ag ers
)) ,Ċ
Ġimplement ation
Â ²
s z
al m
ĠÙĪ Ø±
Å º
Ġstand ards
ĠD it
áĥĺáĥ ¢
_ U
Ġd aughter
. str
Ð»Ð¸ Ñĩ
.C reate
Ġà¤® à¤¹
it ur
O ther
ç ģ
ðŁ ĺ
T wo
Ø¨ Ø¯
= new
æ Ĥ
if ts
Ġandroid x
ĠÐ¼Ð¾Ð¶ ÐµÑĤ
Ġr ain
M B
Ġh ang
P ublic
Ġ? ></
Ġinter ior
. Button
ĠM ais
à¯įà® ³
.g l
Ġrecomm ended
ue go
ĠCont ent
ĠN ext
g un
ĠVal id
Ġaud ience
Ġdest roy
Ġemploy ee
ï¼ Ĵ
Ġ×Ĳ×Ļ× Ł
_C H
de c
Ġg aat
Ġf ish
Ġserv ed
T imer
_S H
se cond
g ame
Wh y
Î¹ Ïĥ
G R
Ġopen ed
Ġabsolut ely
ä¸ ĵ
_in it
à¤ķ à¤¾à¤°
ĠU nder
à«įàª ¤
ĠSe cret
Ùĩ Ø¯
ê° ľ
ay e
Ð» ÐµÐ´
Ġcon oc
Ġd ÃŃa
è¯ Ŀ
in ho
áĥĺáĥ Ľ
10 9
Ġa os
Ã¬ nh
F ail
ĠO k
. url
F i
Ġtid ak
ĠP our
ä» ¬
e ff
ĠFlor ida
à¸· à¸Ń
Ġrep air
à¸Ļ à¹Į
A re
Ġd he
Ġpl ants
ol ver
v et
v g
à¨ ¸
é¢ ĺ
å± ķ
Inter val
.b ack
ues tra
Ġas ÃŃ
Dr iver
à²¿à² °
Ġcon serv
as p
Ġvari ables
Ġfacil ities
ĠS em
Ġkeep ing
×ł ×Ķ
Ã¤ Ã¤n
Ġà¤ §
Ġg Ã¶r
Ġfa ith
d c
Ġhe le
ÅĽ ci
Ġal go
_m essage
ent o
Ú ĺ
ĠB ill
Ġth us
M ut
ĠIt s
Ġ' ',Ċ
Ġbu f
Ġme e
Ð¼ ÐµÑĤ
Ðµ Ñī
wh ich
¦ à°¿
Æ°á»£ c
Ġan imal
V C
ØŃ Ø©
Ġgener ation
ib a
ÐµÐ» Ð¸
40 4
ag ra
Ġload ed
áº¿ t
ĠSc ience
àµ Ĭ
Ġmov ies
? >Ċ
í ģ
Ġlead ers
ĠCh inese
Ġregister ed
ĠS and
ĠĠĠĠ ĉ
ĠM ex
u ite
=" ../
M eta
. context
Ġd t
å¸ ĥ
Ġs ido
point s
Ġd ynamic
ag g
OW N
Ġcent ury
Ġid x
ian te
Ġw id
.c ount
int o
æĺ Ł
N etwork
- user
Ġded icated
Ġcor re
Ġj ur
ĠP ath
2 10
Ġteach ing
Ġnov el
ĠT re
ĠC ast
ÏĦ Î¬
í Ĵ
te am
ĠAl though
co hol
w itter
ĠÐ¼ ÓĻ
D ATE
Ġr adi
Ġa th
Ġenc ore
Ġteach er
. all
M ost
Ġperson as
Ġv ote
ĠÐ´ Ð²
.p ersistence
Ġh idden
à´£ àµįà´Ł
ï¼ Ĳ
Ġà¤ķà¤° à¤¨à¥ĩ
ist ant
Õ Ń
×Ļ ×ķ
Ġfeed back
Ġk id
Ùħ Ø¹
Õ¸ Õ¶
Ġresol ve
ĠÐ¿ÑĢ Ð¾ÑģÑĤ
ie g
Ch at
Ġaccount s
ĠÑģ Ñĥ
D im
ĠPro perty
Ġar ia
Ġ×Ķ ×©
Ġfl ash
C ancel
i Ã§Ã£o
11 3
Al ert
Ġex hib
Ġw est
à§ģ à¦°
) -
Ġbe comes
Ġm ich
Ġcomb ination
D irection
åİ Ł
áĥ ¦
âĢĻ n
ess er
Ġ' ,
Ġfail ure
_ reg
Ġ__ _
Ġmed ium
B undle
ist ro
Ġn Ã«
à¸²à¸ Ħ
ĠF amily
Im g
Ùĥ Ø±
ord en
ìĹ ħ
Ġæ ¬
g ot
w ick
éŁ ©
( struct
íķĺ ëĬĶ
Ã¤ ll
ï¼ī ĊĊ
(f inal
Ġnie uwe
( ['
Ġsub mit
Ġeconom y
th at
Point s
p erson
if s
lo ader
. -
Ġvis ion
ia is
Ġp ac
Ġà²ª à³įà²°
Ð¾ Ñī
ĠÐ¾ÑĢ Ð³Ð°Ð½
.d b
ĠÐ° Ð¹
z n
ser ial
ĠRe f
Ġper t
Ġv ul
ax is
Ð¾Ñģ Ñģ
M ed
ìŀ Ī
Res ources
Ġdevelop ing
ãĥ ¡
ĠÐ ¯
ĠL eb
Ġindustr ial
Ġà° ¦
ÙĬØ± Ø©
Ġp ure
ÙĨ ÛĮ
Ð½Ð¸ ÐºÐ°
Ġe lev
Ġde als
_ ,
à®¾à® ©
.L inq
est ed
Ġ ),
ĠM ens
Ġper mission
OR Y
iter ator
_w ith
ĠP en
ĠÐ½Ð° ÑĪ
br ief
Serv ices
ĠT ake
áŁ ĭ
ir s
ploy ment
C M
und e
m ake
_f ield
/ h
Î ľ
Ġà² ¦
Ó© Ð»
à§ ľ
F S
ip eline
? âĢĿ
Ġdep art
Ġal ter
R outer
Ġà´µ à´¿à´
ĠL ic
H ot
Ġautom atically
Ġpur poses
Ġv y
Ġt f
D ebug
à¨ ķ
Ġcor ner
ÐµÑĤ ÑĮ
Ver tex
ĠÐ·Ð° Ð¿
Ñĸ Ð²
ĠIn vest
ĠÕ« ÖĢ
st on
d am
Ø§Ùħ ÙĦ
Ġc rypt
Ġáĥ Ŀ
Ġdon c
ĠCh o
ĠMark et
ĠDet ails
Ġo dd
Ù Ĵ
Ġe ight
Ø¦ ÛĴ
ãĤ «
ĠØ§ÙĦ Ø§
Ġpar ser
Ġà²® à²¾à²
Ġcon stru
Ġwon 't
ï¼Ł ĊĊ
Con tract
ÐµÐ½ Ð¸Ð¸
Ġd ip
ĠT ree
C r
ĠIs land
Ġconst it
ĠC e
f all
Ð» Ð°ÑĤ
ĠWARRANT IES
Cond ition
ĠG er
ĠK a
ook s
ab an
Ġint ellig
áĢ ¼
ĠÐ¼ Ñĭ
à¸´ à¸ķ
Ġtr ib
S ocket
Ñĥ ÐµÑĤ
Ġval u
Ġloc ations
ĠL ib
ĠÙĪ Ø§
Ġpl t
ĠØ§ ÛĮ
Ð° Ð´Ð°
r iver
.util s
Ġshow ing
Ġe lection
Ġfil led
Ġman aged
ÏĦ Î±Î¹
ob by
Õ´ Õ¡Õ¶
al en
ĠN ach
ĠC ert
. i
è´ Ń
ĠÑģ Ð¾Ð²
Ġdiscuss ion
Ġl ub
Ġ×ĳ ×Ĳ
ad t
Ġred is
Ùĩ ÙĪ
.f irst
Ġca used
çĦ¡ ãģĹ
M ouse
ç Ł¥
ĠÙĪ ÙĬ
Ġ" @
Ġs elling
fol io
Ġaw are
Down load
à¯ Ĥ
Ġà¤ľ à¥ĭ
ĠT imes
b ur
b our
lic ht
Ġk um
Ġ æĸ°
_ read
ĠEm ail
éĢ Ł
lo op
. os
Ġìł ķ
ass ign
[ k
ĠÙĩ Ø°Ùĩ
Ġ×ľ ×ŀ
os es
Ð»Ð¸ ÒĽ
Ġd ut
Ñĭ ÑĤ
L Y
Ġs ad
ìķ Ī
ĠÙħ ÙĤ
Ġdistr ict
à¯įà®ķà®³ à¯į
à© ģ
U ST
L I
Ã¼ m
Ġdi am
enc ed
At tributes
ĠEng land
anc o
ĠÐ¿ Ð¾Ð·
Ġrelationship s
ĠM ary
Ph oto
Ġpres ence
C I
Ġexpl ore
ich en
áŀ ·
. Test
org en
i at
äº ¿
ĠÑĤ ÐµÐ¼
åį ģ
Ġk es
Ġfam ous
ĠI ch
Ġbr anch
i em
Ġprocess es
ve is
Ġincor por
ĠT er
.F ile
Ð¾Ð²Ð°Ð½ Ð¸Ñı
ĠH all
Ġen f
Ġt l
ĠT our
ï ¸
ä¸ ľ
Ġst one
Ä± k
Ġp ak
zo ek
De legate
ĠÐ± Ð¸Ð»
ĠLe ague
Ġoper ating
Ġf ly
Ġte k
Fl ags
( tr
back ground
Ġfund s
fer red
Ġëĭ ¤
el ines
åĳ ĺ
Ġadvert ising
Ġte gen
ya a
- out
ir us
OL D
Ġy ield
Ġìł ľ
nap shot
Ñĺ Ðµ
Ġprevious ly
_ LO
ĉ ĠĠĠĠĠĠĠ
ãĥ ī
Pol icy
è· ¯
d l
Ġw indows
ĠÛģ ÙĪ
Ã¡ p
_ UN
Ġà² Ĺ
à¤Ĥ à¤Ĺ
ĠØ¯ ÛĮ
ìľ Ħ
sc ape
. "Ċ
20 4
Ġdom in
Ã¶g lich
ĠE qu
!! !!
à© ±
+ '
Ġdecl ar
ag t
_C OM
ĠSt atus
k at
up s
ĠÎµ ÏĢ
M edia
Ġve get
. Http
Ġshow ed
Ġp ic
Ġdat as
à¤ Ĩ
_ line
à§ĩà¦ Ľà§ĩ
Ġrec ipe
ct ors
ĠS D
ĠÚ© Ø§Ø±
Ġest as
æĴŃ æĶ¾
Ð³ Ð¸
åŃĹ å¹ķ
ĠC ond
ãģ¾ ãģĻ
å¾ ĭ
ĠH y
Ġl in
Ò ¿
.de bug
st ances
_ address
( Q
();čĊ čĊ
- W
.r andom
fras truct
Ġ// Ċ
M ath
Ġpart ners
áĥ £
U CCESS
áĥĺáĥ Ļ
ĠØ§ÙĦ Ø«
ank a
-f ree
Ġelect r
è ©
Ġv ak
.b egin
iz o
Ġeven ing
an as
_m sg
Ġm ouse
ed om
Ġm Ã¶
ĠAd ministr
Ġtrans ition
ass a
ĠH ave
Ġp ill
ĠrÃ© g
Ïģ Î¬
Ġperform ed
Hel p
Ġcall ing
Ġpar king
ĉ C
.C ount
. K
ob a
S ur
Ġak an
Ġwor ry
å® Ŀ
ic ations
Ġà¨ ¹
eng ine
ĠÐ½Ð° Ñģ
Ùħ ÙĪ
y ch
Ġs ous
Ġfam iliar
Ġb ott
ĠÂ» ĊĊ
æ ¨
ĠCom mand
er de
Ġcho ices
é» Ħ
.s upport
y er
AT ED
Ġà¦¹ à§Ł
am u
umb ers
18 6
12 1
àª¿ àª¯
Ġbeaut y
Ġme ant
ÙĬ Ø§Øª
Ġh in
M aterial
" ]Ċ
ĠÑģ Ð°Ð¹
ĠW as
P N
_ trans
ãĥ Ĺ
Ġp urs
ĠÙĥ ÙĦ
Ġappe ars
à¯įà® ļ
Ġfunc ion
Ġà¤¥ à¤¾
ff ff
ĠB ud
Ġâ ĸ
Ġproced ure
ov es
à²¿à²¦ à³Ĩ
à¯ģà®ķ à¯įà®ķ
Ġáĥ §
SE SSION
Ġy es
ĠÚ© ÙĨ
ni h
âĢĿ ï¼Į
ĠAl s
ĠC urrent
Ġdep ending
atur al
áĥĺ áĥĲáĥľ
- day
Pro p
Ġn ada
áĢ Ľ
ĠInstit ute
ĉ printf
ch ten
Ex tra
ĠL ake
Õ¡Õ½ Õ¿
Ġpro c
Ð¾ÑĤ Ð¾Ð²
ç§ ĳ
ĠL ocation
ci pe
S peed
à¤¾à¤ ģ
. array
Bo ard
n ormal
Ġfact ory
ë¯ ¸
Ãª m
oss a
Ġhe el
d an
et i
Ġbr ief
z el
Ġmens en
ong s
ul ations
ĠB Y
FF FF
ĠRe cord
ĠØ£ ÙĬ
ĠB O
à²¿à² Ĥ
Ġth i
ĠÐ ¨
ĠInd ex
ĠR un
à§ ¦
ĠO ld
. ed
Ġj oint
ord inate
A K
éĵ ¾
ĠF ederal
Õ¡Õ ¦
B est
Ġ×Ķ ×ª
Ġ ĉ
Ġàª ĸ
um mer
f iles
.dis play
è Ħ
ĠB es
Ġpol y
Ġà´ ľ
z ek
re y
Ġst ores
ĠÐ¸ÑģÐ¿ Ð¾Ð»ÑĮÐ·
ĠW all
Ġj ak
Ġsen ior
åį Ĺ
Ñį Ñį
Ð¾Ð» Ð½
æ² ¡
_ param
ĠTh read
.As sert
cont roller
c as
Ġpay load
ĠW i
Ġnut r
ĠCom mission
ock s
ĉ static
at re
ĠØ§ÙĦØ° ÙĬ
ĠÐ¼ ÐµÑĤ
Ġad vis
" },Ċ
Ð¸ ÑĢÐ°
ĠTo ast
ĠD im
Ô¥ Ñģ
Ġdet ailed
à¦ ĸ
Ġcomp os
Ġà¸ ¥
×Ļ× Ľ
Ġtor ch
Ġàª ī
ĠF und
ÐµÑģ ÑĮ
11 8
ĠÕ¡Õ ¼
ul le
à¤¾à¤ ī
.A uto
Ġass istance
Char acter
.re quest
à¸Ķ à¹ī
Ġpl ate
ãģķ ãĤĵ
L ower
F ILE
Ġw en
Ġmach ines
Ġàª «
& &
Ġsc an
( ctx
ĠW il
à¤Ĥ à¤¦
Ġv ÃŃ
ĠÐ± Ð¾
Ġpesso as
àª¿ àªķ
Ġfant astic
Ò³ ÓĻ
ç ¶
ic ar
ap pro
V o
Ġt aste
P ad
( čĊ
ĠåĽ½ äº§
s ign
Ġdecis ions
ĠÐ¿ Ð¾ÑĤ
Ġ íķľ
à¤¸ à¥įà¤¤
ot ic
' il
( y
Ġs qu
t xt
Ġu i
est i
00 5
Ġle ct
. Image
_ pos
ik el
Ġà° ¬
N O
ĠÙģ Ø±
Ġfo is
Ã¤ tt
Ġtr igger
áĥĲáĥ ¨áĥĺ
ĠS af
Ġb isa
tr l
RE SS
Ġwatch ing
ĠÕ ¬
est ic
à¤¾à¤ ļ
iv i
b ag
M ult
á» ħ
Ġcomp lic
ost o
. Object
Ġans wers
ĠWe ek
ĠCl ient
à®ķ à¯įà®ķ
ĠT ry
Sc ene
× £
æ´ »
< >();Ċ
Ġtem por
ĠÙĩ Ø§ÛĮ
Ġk rij
Ġan a
ĠL ED
c opy
è¢ «
Ġmet a
á»ĩ n
Ġ å½©ç¥¨
ord e
Ġprof es
Â ´
] ->
l ow
Ġà¦Ĩ à¦®
18 5
Ġlo ading
Ġe f
Ġg un
è ķ
ĠUn ion
h ab
Ð»Ð° Ð²
PO SE
Re view
Ġn un
< !--
ĠRe c
20 3
Com ments
à¦ Ľ
çĻ ¾
ast ing
Ġsign ed
it ors
qual ity
ĠØ¨ Ø¯
ĠM ad
anc ia
Ġt rop
aj ax
ĠÐ¿ Ð¾ÑĢ
ĠDe uts
Ġd ied
az e
ar roll
check ed
Ġà¸ ŀ
_p ost
å¼Ģ åı·
Ñĸ Ð¼
Ġrem ains
Ġmaint enance
Ġc ad
18 7
asy on
ĠCom mon
n ÄĽ
ç»ĵ æŀľ
12 2
Ġfor um
AR G
ĠF ield
Ġ" ",
Ġr an
à°¿à° ¤
Ġa ug
* (
f c
.r un
ĠPar am
arg v
hel per
11 6
" ];Ċ
Ø³ Ø§ÙĨ
Gener ator
Ġt um
log o
Ġadv ance
Ġseg ment
U LE
à¸ ĸ
Ġdump ster
- right
Ġà¦ ĸ
ë¬ ´
in sert
à® ´
Ġocc up
ĠÐ³ Ð¾ÑĢ
Ġbe coming
Ġexp ensive
-l g
il os
Ġ ice
ëª ħ
( char
Ð¸ÑĤ Ð¸
Ġå ľ
Ġk g
Ġf uel
âĢĻ il
ĠØ¨ ÙĬÙĨ
çĶµ å½±
~~ ~~
Ġn Ã©
.sh ape
ĠE R
, p
Ġposs ibly
Ġs we
ce an
ĉ struct
àª° à«Ģ
Ġre ject
N C
Ġcharg es
ì ¡°
com pl
Ġclaim s
(st d
boot strap
Ġvol t
pl ates
ou v
/c ss
Des criptor
Ġgood s
# import
ĠUn it
ĠM P
Ġk t
ert o
icht ig
×Ĳ ×ľ
ìĿ Į
àµ Ī
Ġf oto
Û ±
Ġver ify
st ra
Ġ ).
4 50
Ġs j
Ġ×¦ ×ķ
à´³ àµį
ĠV or
ĠR om
ĠL I
| Ċ
³ Î¹Î±
ing o
put er
E P
Ġà´ ¬
Com mon
Ġjust ify
_e vent
( args
ĠJ ew
É Ľ
×ķ× Ĵ
åĽ½ éĻħ
à®© à¯įà®±
\ Http
ĠÑģ ÑĢÐµÐ´
m atch
q li
Ñı Ð´
Ġk ul
Th anks
à¨ ¹
Ġv ary
ĠLog in
Å¡ t
ĠN eder
à¸Ńà¸Ļ à¹Ħ
Ġ×Ķ ×Ĺ
er os
% ,
ĠK ind
enn is
Ġbl ij
ï¼ ı
P ubl
ĠÙĪ Ø£
B ottom
w est
we g
Ġà² ľ
ĠÐŁ ÑĢ
Ã¤ m
éĺ ³
as je
quest ion
ĠØ§ÙĦ ÙĬ
ĠáĥĽ áĥĲáĥ
J ECT
Pro xy
N ESS
Ġ\ "
- th
å· §
.in it
a ine
ĠSer ies
áĥĶáĥ ¢
Ð¾Ð² Ð¾ÑĢ
ĠF ont
Ġwar en
Ġa Ã±o
um ps
àµģà´Ł àµĨ
Ã¤ s
Ġclean ing
Ġdeliver ed
ĠÙĨ Ûģ
Ġc ursor
Ġmajor ity
erc a
cr uit
S ch
il en
are t
åŀ ĭ
ĠP S
13 5
w ana
à¤ķ à¥įà¤¤
_ params
S ync
ëĲ ĺ
ĠWhe ther
.D ate
r á»¥
Ġw y
Ġm arch
ĠC R
ic ago
Ġst im
Ġw ine
Ġà¤Ĺ à¤°à¥įà¤
Ġinstr ument
ne ctions
ĠP UR
Ġis ang
ĉĉĉĉ ĉĉĉĉĉĉ
ãĤ ¸
Ġass ign
Ġk ub
_ view
xim ately
ber t
Ġc s
ĠiÃ§ in
ĠÏĥ ÏĦÎ¿
B order
Ġà¶ ļ
ond a
Ġvalid ate
Ġl av
es i
ent i
( len
Ġto da
) čĊčĊ
Ġà¦ Ľ
cle ar
F ailed
b ro
. select
ĠP L
O k
ĠL OG
Ġrel ative
Ġà° ī
ist or
ĠEx p
Ġà¤ħ à¤§
áĢ ·
` ,
Ġcontin ued
M emory
à¤¸ à¥Ģ
A uto
ij i
áº¿ n
.h pp
Ġwalk ing
Ġr end
at io
_d is
Ġsou th
Ġà· Ģ
Ġle aving
Ġanim als
(c urrent
ĠS ource
ĠÚ© Ø±Ø¯
m g
Ġn ative
Ġà¤°à¤¹ à¥ĩ
O wner
Ġconf lic
ĠF ood
an ja
onym ous
ĠK l
ĠJ son
Ġes col
Ġf lo
å° Ĩ
ĠÃ ¢
Ġpract ices
K it
p op
. \
æķ Ļ
ĠÐ´ Ð°Ð½
Ġàª®àª¾àª Łà«ĩ
ĠÐ¼ Ð¾Ð³
Ġreli able
ĠG erm
h in
any e
ĠÐ±ÑĥÐ´ ÐµÑĤ
ang en
Ġmin or
Ġfocus ed
ê² ½
; &
Ġsu is
ĠÃ© gal
ĠO S
Ġcommun ities
Ð¼ Ð¾Ð¶
à¤¾à¤ ¬
ĉ new
Ġmin i
Ġk ot
ÑģÑĤ Ð°
het ic
.A l
Ġz one
ĠD istrict
Ġagre ement
ĠÐ¿ Ð¾ÑģÑĤ
åģ ·
ĠØ§ Ùģ
F E
ĉ l
Ġill ustr
# pragma
ĠÙĨ Ø¸
ĠáĥĴ áĥĲáĥľ
éŁ ³
Ġtop ics
ĠÑĤ ÐµÐ»
ĠF ar
k te
Ġàª ļ
i endo
P ointer
ient os
Ġk uk
Ġend ed
Ġcontin ues
/ ĊĊ
Ġqu iet
Ġc row
O s
ĠÏĢ ÏģÎ¿
crip ts
Ġf le
ĠTechn ology
ĉĉĉĉ Ċ
Ġ×ŀ ×Ķ
Ġr ide
Ġh ace
Ġnull ptr
y nt
Ġtot ally
áĥķ áĥĺáĥ¡
ĠIsra el
ÑģÐº Ð¾Ð¹
.r ender
Ġo Ã¹
Ġs ocket
Par a
Ġread ers
B E
Ġpolic ies
Ð± Ð¾ÑĢ
ä¸Ńæĸĩ åŃĹå¹ķ
ãģ§ ãģĻ
ĠL td
uil t
D IT
Ġà´ ī
Ø§Ø¯ Ø©
Ġv in
Ġ ÈĻi
é ł
Ġf oll
Ġbed room
ĠÑģ ÐµÑĢ
Ñı Ð¼
an al
Ġb ond
ĠAc adem
l ers
Ġj un
Ġso le
Î Ĺ
Ľ Ħ
Ġstrateg ies
Qu estion
Ġáĥĺ áĥ¡
st ack
j our
s Ã¥
ï¸ ı
ĭ çīĮ
om o
à®© à¯į
ĠÕ ¨
ÎŃ ÏĤ
Ġå¾ ®ä¿¡
Ġâ ĨĴ
Ġk aj
Ġf if
Î» Î¿
ä½ ¿
Ġequ ip
ãĤ Ī
Øª Ùī
Øª ÛĮ
Ġpr oud
Ġ );čĊ
å± ŀ
ĠCh amp
Ġmog elijk
Ã± a
Ġsu it
P rom
r g
Ġf ot
Ġd iverse
Ġcompet ition
Ġacc ident
à¹Ī à¸ĩ
ul d
ĠW ho
M at
Ġr s
( msg
row se
oper ator
ĠØª ÙĨ
Ġcult ural
Ġat tributes
af a
ĠN g
M C
Ġr ou
(s ize
ĠC ustomer
×Ļ× ¤
Ġ×Ĳ×Ļ× ĸ
Ġs ister
Ġ' "
ester day
Ġdeb ug
ĠÐµ ÑģÐ»Ð¸
rit ing
AS K
Ġman ual
em pre
Ġinst alled
à¥įà¤° à¥Ģ
b as
re place
Ġexc ited
ress ion
h ou
Ġwin ning
Ġv acc
Ġsn ow
PE CT
T V
Ġm s
. Event
Ġ" ",Ċ
ine craft
Ġd ok
Ġph ase
od os
_ is
In ternal
Ġprom pt
.ĊĊ ĊĊ
Ã©l Ã©
Ðº ÑĢÐ°
Ġprovid ers
c mp
Ġprom ote
ĠM ER
Ñı Ð½
im on
Ġp ays
Ġre ached
Ġen um
ERS ION
ĠÐ· Ð°Ð¼
ĠAd v
ĠÑĤ ÐµÑħ
Ġfl ight
Ø§Ø «
' n
ĠRe views
> ";Ċ
Ġmatch es
An im
styles heet
Ġ á»ĭ
Ġc Ã¡c
.serv let
S w
Ġcon j
Ġto ward
_id x
al g
at ile
Ġd av
Per formed
Ġmel hor
Ġvis ible
Ġas set
p th
D rop
_M AX
Ġd ou
ĉ print
C opy
In formation
ĠUS B
ĠThe ir
Pl an
Ġt us
âĢĻ in
') )Ċ
ĠBr asil
(m odel
Ġl y
ĠØ± ÙĪ
ĠPol icy
Ġperm issions
k m
ov o
Ġlead s
è¿ ĳ
Ġr outer
Ġs le
' ;
Ġm ic
Ġch art
Ġal iment
ĠF IT
Child ren
G EN
Ġdies er
fe ction
W ORD
Ø§Ø± Ø§Øª
s ible
Ġwill ing
h ot
áĥĺáĥ Ŀ
is me
éĻ Ĳ
ĠCor por
Ú ĳ
Ġenjoy ed
Ġfr uit
ch ant
rel ated
Ġà´ Ĵ
ĠCar ol
Ġu pp
'] .
à¨ ¦
Ġcons umer
åĪĨ åĪĨå½©
Ġv Ã¤
íĴ Ī
Ġpl astic
ĠB ad
angu ages
_m od
. this
à² ļ
Ġc ul
ob re
Ġg Ã©n
ĠEx pl
eg o
Ġthere 's
H ave
Å ĵ
Ġein fach
_ URL
Ġsu gar
Ġaw esome
Ġsl ots
Ġáĥ ª
Ä ¡
ordin ates
] +
cr it
æĶ ¹
Ġseek ing
×ķ× Ľ
Ġgr ade
aj u
Ø§ÙĦ ÙĬ
Ġà´İ à´¨àµįà´¨
ãĤ µ
b reak
é¢ Ĩ
ĠÑģÑĤ ÑĢÐ°
F R
ĠÐ° ÑĤ
à¥Ī à¤Ĥ
à´¨ àµįà´¤
Ġspec ies
ĠSh ort
14 4
du led
Ġass um
us hed
Ġ×ŀ ×©
Ġes se
Ġext ension
o q
F older
form ance
w ater
Ġsong s
X ml
ãģ ¡
Ġchem ical
Ġarr ang
v t
v ÃŃ
ĠÛ ¾
Õ¡Õµ Õ«Õ¶
. of
Ġm ant
ĠÑı Ð²
uc iÃ³n
Ġil s
. left
Ġcont em
I 'm
Ġå °
UR I
f ull
St udent
Ġì Ĩ
ĠS in
oper ation
ÓĻ Ð¹
m iss
_ or
Ġp ok
y ect
S H
i ance
Ġtrad ition
ĠCom ment
Ġcomp at
ĠÄĳ Æ°á»£c
D U
Ġmag n
ÐµÐ½ Ð¸Ð¹
Ġí ĺ
Ð¸ÑĤÑĮ ÑģÑı
æ± Ł
3 20
ĠÏĦ Î±
Õ¶ Õ¥ÖĢÕ¨
Ġcl oth
ĠÑĩ ÑĤÐ¾Ð±Ñĭ
AR AM
á»Ļ t
Ġp oker
erv ed
Ġd ates
é¦ ĸ
áŁ Ĩ
à¤¿à¤ ®
ĠØ¨Ø± Ø§ÛĮ
.s ql
ĠS anta
ĠM ult
à«įàª µ
[ n
Ġàªª àª£
ìļ ´
ob o
_ OP
R ows
ĠåĮ Ĺäº¬
à¸± à¸ĩ
ell t
-- Ċ
Ġim pl
ir k
Ġàªı àªķ
S cope
_ offset
Ġrem aining
Ġpand em
ê³ Ħ
àª Ń
ĠÃ ĸ
al pha
empl o
ĠIll uminate
Ġl ors
Ġexc iting
Ġtr ait
à Ń
ÃŃ an
- tr
em Ã¡s
p is
à¸¥ à¸Ļà¹Į
Ġcon ference
_p oint
ì ¦
) }
.x ml
M I
ĠÐ± Ð°ÑĪ
Î¿Ïħ Î½
Ġp ada
ĠÛ ½
áĥļ áĥĺáĥ¡
Ġbr ings
Ġr um
Ġrais ed
èĢ Į
ut z
ener ate
clus ion
ìľ ł
æµ ģ
æĶ ¿
æĬĢ å·§
Ġacadem ic
ĠÃ©gal ement
Ġgu est
ĠAnd a
ish a
ë Ķ
(' ./
ìķ ¼
Ġt at
Ġag ency
p un
Ġg ust
ÑıÑĤ ÑĮ
Ġt ough
Ø¦ ÛĮ
Ñĩ ÐµÑģ
à´¨ àµį
Ø® ÙĦ
Ġch ose
Ġprem ier
ĠG i
Ġìŀ Ĳ
Ġà¦ħ à¦¨
serv ices
Ġser a
Ġse at
P RO
à²¾à² ¨
ok ens
r ig
33 3
anc ial
F inal
Ġb g
Ġus o
ĠN Y
.b ase
à¤¹ à¤°
serv able
áŀ Ł
Ġ×ķ ×Ķ
ement e
Ġtechn ologies
æł ĩ
. Thread
Ġver k
Met adata
ther n
Ã³ l
Ġtr at
ĠW atch
Ġs ounds
- ch
è¯ Ħ
ie u
Ġsp ending
Ġin structions
Ġæ ĺ
Comp any
èµ ·
ëį °
Ġd ere
F ore
×ĳ ×ľ
ab out
æī ĵ
.M ap
cc ion
end or
à§įà¦ ª
ĠD igital
c ap
ĠG raph
áĥĺáĥ ļáĥĺ
Ġsust ain
à¥ĩ à¤Ł
b egin
ĠS ave
ie ux
Ġcit iz
ë¶ Ħ
Ġmill ions
Ġu a
el ig
z ip
Ġlist a
P air
( ch
Ġma j
_col or
Ġmark ets
åı¯ ä»¥
Ġcheck ed
ĠS C
Ġfurn iture
ĠAp ache
Ġwer d
s ed
Ġsu as
Ġt au
Ġa ma
S heet
à´¿à´ ¤
qu el
Ãª t
En able
×ĵ ×¨
ĠAs sembly
R et
Ġm ismo
Ð¾ Ñħ
Ġit u
'. $
Ġb inary
ĠE mp
ĠB ur
Ġcle arly
Ñĩ Ð°
Ġì ¶
Ġer g
11 7
Ġke ine
Ġcre ation
Ġf older
"" "Ċ
ĠÙħ Ø±
Ġà° Ĺ
à°° à±į
yt ics
åı Ĥ
à¦¾à¦ ¹
à· Ĳ
urs os
Ġent ertain
ç« ł
am l
Ġk v
à¥¤ Ċ
Ġ×© ×Ķ
) :ĊĊ
èķ ī
in ations
ĠCon vert
pro p
áĢ ħ
l g
Ð ¦
Ġl ay
ĠV o
Ġc ities
Ġf uer
ÑĥÐ»ÑĮ ÑĤ
ĠW at
K e
P resent
virt ual
on th
_b lock
ap pe
Ġmost ly
Ġn ost
. default
Ch art
j ours
Ð¾Ñģ ÑĮ
Ġexam ples
re en
u ction
Ġsc roll
b ra
Ġle aves
im ents
ic ans
Ïģ ÏĮ
gn ore
G ER
Ġint ended
å¯ ¼
ag ne
" ],Ċ
áº ©
not ation
ĠÐ½ ÑĥÐ¶
ĠS aint
à¥ĭ à¤ľ
Îµ Î½
Tem p
Ġex tr
å Ķ
ÑģÑĤ Ð¸
Ġ erv
% .
Ġwas n
ĠPART IC
Ġconvers ation
ĠGovern ment
Ġcont aining
- E
Ú¯ ÛĮ
Ġà¤Ĺ à¤¯à¤¾
à¥ĩ à¤°
cond ition
ĠÐ¿ Ð°
ament os
B ind
ĠÐ± ÐµÐ»
Ġsim pl
ier on
Ġposs ibil
Ġprem ium
Ġcolumn s
Ċ ĠĠĠĠĊ
Ġpi Ã¹
Ġe ating
Ġà¦ «
å¾ ®ä¿¡
ĠPart y
enc ial
le ich
Õ ·
ãģ ĳ
C reat
áĢ ŀ
) ]
Ïģ Î¯
Ġaspect s
LE TE
L INE
} else
ĠG ames
èĩ ³
Ð¸Ð¼ Ð¸
íĸ ī
frastruct ure
ik ip
ĠnÃº mer
Ġphot ograph
Ùĥ Ùħ
.l ocation
ĠØ§ÙĦ ÙĦ
Ø¹ Ø¶
at ro
The me
clud ed
ĠÐº Ð¾
. item
Ġla ug
Â» .
Ð¸ÑģÑĤ ÐµÐ¼
ĠJ ob
áŀ Ķ
n ement
ĠÑı Ðº
i us
T T
ĠM obile
ĠE lement
Ġdesign s
E very
.p op
ĠC BD
.l ast
Ġn odes
.in ner
ĠLog ger
2 30
P ay
ĠS pring
ĠØ¨ ÙĦ
ĠÐ´ Ð¾Ð¼
à¤ ¢
Ã©c n
Ã¡ vel
Ġhe ll
à² ¶
ÅĤ a
Ġvisit ors
C ity
Ġv ibr
çļĦ åĲĹ
m aterial
ĠM un
ĠH ill
' r
ĠM att
ĠÎ ²
à´ ´
Ã İ
Ã§ os
' ;čĊ
ult y
uk t
Ñĥ Ð·
ÑĢÑĥ Ð¿
ÑĮ Ñĭ
Ġà¸ª à¸¥à¹ĩà¸Ńà¸ķ
i ros
vo or
' ny
her n
CH ANT
ĉ std
ENG TH
Ú Ī
Ġ[ ...
Ġex ecute
Ð½ Ñĥ
âĻ Ģ
Ġne u
Ġin valid
R ot
ĉ ex
ic ator
. vis
- ex
Ġam er
à´± àµįà´±
Te am
ing e
Ġfem ale
Ġmon de
Ñį ÑĤ
ĠHel p
AR Y
ie v
Ġcirc um
_ST R
Ġoh ne
Ġàª° àª¹
( var
Ġlimit ations
ĠSh op
ĠÑĥ Ð´
AN CE
Ðµ Ò£
est ination
Com plete
Ġ} ).
Ġcont ents
ĠStud ent
Ġbus y
(n um
ret ch
à´ ¡
Ġbatter y
ung a
Õ¥Õ ¯
It 's
Ã´ n
ib e
B inding
Ġingred ients
Ġcy cle
> ::
ĠÐ½Ð° Ð·
< Integer
f lex
áŀ ¸
he im
ab r
_ check
Ġre put
âĢ¦ Ċ
ĠS ql
head ers
ĠÐ¸ ÑĪ
ê ´Ģ
Ġeer ste
Ġà· ĥ
Ġb attle
ç Į
- color
è º
Ġy i
ĠM S
Ġinstall ation
ĠPUR POSE
avi our
S al
ä¸ ĸ
áŀ ı
Ġà° ľ
n ight
form s
Õ«Õ ½
. em
ëł ¥
Ġk ill
Ġresid ents
qu ier
Ġcre am
å± Ģ
Äĩ e
ĠĠĠĠĠĠĠĠĠĠĠĠĠĠĠĠ ĠĠĠĠĠĠĠĠĠĠĠĠĠĠ
çİ ĭ
Ġæ Ī
Ġcar bon
ic ian
Ġs pl
Rem ove
ĠÑģ Ð°
Ġprec is
é¢ Ħ
Ġcomb ined
Ġman ifest
å¤§åıĳ å¿«ä¸ī
ach ing
t l
àª¿ àª¤
b at
Ġpos itions
V ert
à¹Ī à¸Ń
Sh ort
Ġsur vey
im mer
ĠC S
Ġwh om
Ġin line
x f
Ġany where
Ġdent ro
.m ake
Ð¾Ð² Ð°
à®¾ à®°
Ġà¸ «
ĠG erman
Ġtr as
Ġà® Ĩ
Ġreg istration
Ġj oy
Ġà¤ī à¤ª
à° Ĺ
à°¨ à±įà°¨
t ask
ain a
ĠH ier
Ġmo ins
it Ã¤t
ĠC ov
Ï Ī
ĠS port
Ġwe 're
ack ing
ch ter
ĠÙĬ Ùħ
Ã¡ ch
Ġp d
Ø§Ø± Ø¯
ÑĤ Ñĸ
Com ponents
icht en
ĠGe orge
Ġhigh light
Ġinter ess
DA O
us r
Ġh yp
( row
ĠH istory
ĠH as
Ġ Ñİ
c iÃ³n
_m in
ÐµÑĤ Ð°
L ight
_m ode
à¸Ńà¸Ļà¹Ħ à¸¥à¸Ļà¹Į
ĠG ET
@ end
Bl ue
ĠAt l
×Ļ ×Ļ
ĠÐ° Ð¼
ĠHT ML
iss en
à¦¾à¦ ª
F ac
Ġg ere
Ġma ior
b uffer
Ġsk al
pre v
1 19
Ġprof it
Ġ| Ċ
ĠÐ· Ð½Ð°
.col or
)) )
ĠÕ° Õ¥Õ¿
Õ ²
. auth
ÐµÑģ Ñģ
18 4
Ġalle en
Ġm yst
ĠL earn
Ð°ÑĤÑĮ ÑģÑı
j ud
con nection
p ub
. âĢĻ
ĠS elf
_ group
Ġr ental
unc a
ĠP y
res se
Ġcu enta
Ġg ra
Ú© ÛĮ
Ġot ros
Model s
Ġy ak
Ġ' ';Ċ
Ġte en
ur ers
ĠÑĢ Ðµ
Ġmeas ures
ĠĠĠĠĠĠĠĠĠĠĠĠĠĠĠĠĠĠĠĠĠĠĠĠĠĠĠĠĠĠĠĠ ĠĠĠĠĠĠĠĠĠĠĠĠĠĠĠĠĠĠĠĠĠĠĠ
ÓĻ Ð½Ðµ
: \
Ġt ener
Ġman ner
áĥķ áĥĶáĥľ
ìŀ ¬
ier ung
ost on
à¸¥ à¸°
g ie
ocol ate
riend ly
Ġput ting
ap ed
Ġé ¦
Ġpro j
Ġb id
on na
á» ı
ij u
v at
ìĹ Ī
à¹Ģà¸ ĩà¸´à¸Ļ
con f
Ġf Ã©
Ïĥ ÎµÎ¹
Ġb are
s creen
ĠS ingle
ĠÐ²Ñĭ Ð¿
Ġl ati
_ th
ĠáĥĴ áĥĲáĥ
ÙĨ Ùī
ĠK ore
à±ģà°¨ à±įà°¨
Ġrestaur ants
Ġinflu ence
Ġimport ance
P icker
Ġsuper ior
Ġcon he
z et
IL L
b t
à±įà° ª
n ership
Ġask ing
ĠCol ors
ãĥ Ĩ
5 12
_f e
12 4
Ġd ad
Ð°ÑĤ ÓĻ
ÐºÐ¸ Ð¹
Ð ĸ
am men
Ġv ra
(t est
ĠI L
×Ļ× ļ
áĥĲáĥ ļáĥĺ
ìĽ Ķ
W ARE
Vis ibility
ĠSm art
x a
IN FO
v l
å® ¹
Ġdin ner
< td
17 5
Reg ion
Ã° i
Ġdef inition
Ġme a
w r
F ollow
ĠÐºÐ¾ÑĤÐ¾ÑĢ ÑĭÐµ
ÙĬ Ø«
ĠÙħ ÙĦ
sh ort
Ð°Ð» Ñĸ
anc ement
Ġsk ill
Ġà°µ à°¿à°
ÐµÐ½ Ð½Ð¾
à§ĩà¦ ĸ
Ùģ Ø³
Ġconcern s
-t op
éĵ¾ æİ¥
ĠÓ© Ð·
Ġe gg
, y
ĠP eter
Ġf s
ĠÏĥ ÏĦÎ·
Ġf aster
') čĊ
Ġt ank
D as
Ġet h
ĠR adio
B et
(st ate
ĠP ot
Ġat mos
ens a
an za
Ġent h
z w
v s
ĠÐ²ÑĢÐµÐ¼ Ñı
C oll
Ġdis abled
çĦ ¶
Ġhor as
em en
.c all
ĠÐ¼ ÐµÑģÑĤ
Ġì £¼
Ġbel ang
Ġslight ly
à§ĩà¦ Ľ
C B
Ġconf idence
ĠÐº Ò¯
; ;
Ġentre pr
Ð°Ð» Ð¾
âĢĻ ,
Ġocc asion
Ġmun icip
Ġrespons ibility
.s p
.L ength
ĠØ¥ ÙĨ
Dec imal
Ġà¶ ´
æ »
. env
par a
æµ ĭ
Ġpl ugin
Ġepis ode
à²Ĥà²¦ à³ģ
ĉ i
Ġ å½©
Ùĥ Øª
ĠÐ½ Ð°ÑĢ
ĠPARTIC ULAR
) +
èµ° åĬ¿
ÑĢ Ð¾Ð¼
ĠÅ¾ e
ĠS ite
Ġ×Ľ ×ľ
ĠCh ange
Õ¸ÖĤÕ µ
ĠÙĪ Ø²
Ġm t
( is
x e
Ġn orth
Ġs izes
ĠÐ´Ð¾Ð» Ð¶
Ġfil ms
àª¾àª ¸
ĠC V
es o
Ġch osen
è¿ Ķ
ĠÐ¿ Ð¾Ð¿
ig os
Ġs vo
çĻ» å½ķ
IM IT
Ġi he
.c pp
Ġb ird
cl os
Å į
Ġk up
ial e
ĠÐ¸Ð½ ÑĤÐµÑĢ
ĉ List
D ictionary
local host
ĠĠĠĠĠĠĠĠĠĠĠĠĠĠĠĠĠĠĠĠĠĠĠĠĠĠĠĠĠĠĠĠ ĠĠĠĠĠ
à¤¤ à¤¿
( List
ĠW omen
Ġ|| Ċ
ÙĪ Ùģ
st ar
ë© °
n om
ç© º
Ġalg un
Ġqu ot
CHANT ABILITY
ãģ Ķ
ĠÐ±Ð¾Ð»ÑĮ ÑĪ
Ġmonth ly
.h andle
Ð¸Ð· Ð°
Ġz ip
áŁ ģ
Ġguarante e
Ġà¸ Ľ
Ð¾ÑģÑĤ ÑĮ
C riteria
> ';Ċ
aj i
Ġj ul
urch ase
enc ias
_l ink
wh en
Ġkind s
ĠC lean
Ð» ÐµÐ½Ð¸Ðµ
Ø· Ø©
Ġp ointer
Ġd Ã¼
Ġt ant
ÛĮ Ø²
åł Ĥ
ì² ´
Î¯Î½ Î±Î¹
Ġst ored
. Context
am t
Ġl Ã¡
èį ī
_ X
Ġallow ing
(t arget
Id x
us ic
new s
Ġson o
ĠS el
æ¯ Ľ
AR K
} .
Ġh l
Con structor
Ġc ot
id ir
ÐµÐ¹ ÑģÑĤÐ²
Ð½ ÐµÐ¹
Ġk et
C ounter
i ÅŁ
à¥ §
Ġv ind
à«Ģ àª
ìĺ ģ
Ġref resh
Ġì °
é ¾Ļ
à· Ħ
Ġa ument
ÓĻ Ðº
.model s
Ġcr uc
Ġdep uis
. pl
);ĊĊ Ċ
Ġf t
Ġse quence
ĠFIT NESS
à¸Ĺ à¸¢
áĥĽ áĥĲ
h ide
Ġre b
Ġà¨ ¨
Ġdes en
Ġbre ath
Ġ ÏĨ
T ouch
Ġpro t
Be h
com ponent
S ide
ĠH uman
ĠÑģ ÐµÐ±
z elf
Ġest ado
Ġax is
ÐµÐ½ Ñĭ
Ġìľ Ħ
ĠPl ace
Ġ ä¸Ģ
igh ter
k tr
77 7
Õ¡ÖĢÕ ¤
ĠC ore
àµįà´ µ
Ġfav our
ĠØ¹ ÙħÙĦ
Ġn Ã¡
or en
Ġv rij
. params
à¥įà¤ ļ
ĠÐ ĸ
ĠÐ¿ Ð°ÑĢ
í ħ
ĠØ¯ Ø§
.d omain
U pload
olog ie
Ġgrand es
fort unately
Ġac compl
G A
áŀ Ľ
Ġst aat
Ġreg istr
Ġout door
iz za
Ġlov ely
og o
Ġin teger
Ġseg u
Ġh v
æ± Ĥ
ĠÐ² ÐµÑĢ
ĠG esch
c ie
Ġtype of
ĠAcc ording
Ġsal t
Ø§Ø± Ùĩ
/ l
Ġle urs
ĠWh ere
B L
wer k
ĠM enu
or ney
ĠR ight
aur ant
Ġbreak fast
AV E
ĠSt ream
Õ¡Õ ¤
Ġaccur ate
Ġand eren
am as
ĠAs ia
- ĊĊ
Ġcomm itted
m ove
Ġro of
im ize
Ġëª ¨
' +
Ġa insi
ste ad
Ġbu ck
Ġn ing
ĠÐ´ Ð¾ÑģÑĤ
Õ¾ Õ¡Õ®
ĠÑģ ÑĤÐ°
Ext ension
app oint
Ļ Ĥ
ul ator
ĠSt ock
Ġmass age
ich te
ç½ ®
( uint
Ġbe ar
y nd
Ġt res
æ ĳ
L icense
æľ ª
ĠØª Ø¬
ĠEner gy
ad ian
ĠEd ge
ĠÐ½ Ð¸
Ġconsum ers
ĠAdd ress
ĠE le
[ key
iet en
ĉ S
Ġlead ership
Ġà¦¬ à¦²
Ã©t Ã©
æĢ Ŀ
Ãł y
ĠÏĥ Îµ
Ġtechni que
Ġengine ering
13 1
ed back
Ġdes ire
µ ľ
pec ific
Ġl le
Re al
Ġdes pite
Ġd ib
Ġsam en
Ð³ ÓĻÐ½
Ġv eter
User name
ra it
ĠE v
22 2
ĠDem ocr
Ġkh Ã´ng
c ert
Ġca uses
( System
ĠCom mit
Ġt ah
Ġm ixed
ĠW in
Ġz us
D omain
Ġpubl ish
s w
áº ½
Ġy ap
. Request
Ġà¤ª à¥Ĥ
ass er
¾ ³
} )ĊĊ
ĠÃº n
Ġenvironment al
Ġhold ing
čĊčĊ čĊ
áĥ® áĥķ
ĠG ro
ĠH ard
ĠN or
Ġro d
Se e
Ġcol our
Ġfac ility
Ġapr Ã¨s
16 5
B ounds
ĠÑģÐ» ÑĥÑĩ
ĠE arth
ĠW rite
Ġ ere
Ġg eme
Ġel a
As sert
à¸²à¸ ª
à°Ĥà° Ł
Ġ( {
Ġà¤¬ à¤¨
Ġtr end
à¨ ²
P al
ĠMark eting
Ġ" ;Ċ
ĠÐ° Ñģ
Ġpriv acy
y cl
ÃŃ d
res ents
E t
ac i
Pro du
Ġse le
Ġ ãĢĲ
Ġbin nen
Ġun iversity
çº ¢
ession al
Ġot ro
ĠÙĪ Ø¬
C F
Ġcons c
_add r
Ġde ix
Ġpl ane
_ content
à¤¿à¤ ¶
ok ing
' >Ċ
Õ¡ ÖĦ
Ġon de
Ġà¦ķ à§°
Ġadministr ation
Ã³r ia
d em
Ġbr ands
Ġveh icles
è ħ
out s
Ġla at
Ġspecif ically
è İ
Ġp eng
13 3
à°ķ à±įà°
ĠA B
ĠØ³ ÙĬ
( Integer
Ġcl ock
Ġtrab ajo
ire base
abe i
è¶ ³
Dis patch
Ġh ub
cl a
on av
re k
oc c
he den
p ool
- J
R andom
Ġang le
nt en
Ġch air
ĠLe vel
ÑĥÑİ Ñī
Ar ch
Ġs Äĥ
Ġe vol
ĠMed ic
.. Ċ
à´¾à´¯ à´¿
r ender
ĠÐ¼ Ð°Ñģ
ĠÑģÐ» ÐµÐ´
Ġs umm
red irect
× ¥
àµįà´ ·
F ocus
Ġh av
REF ER
qu ences
Ø§Ø¯ Ùĩ
ç¢ °
res et
Ġre ward
Ġm outh
/ S
ĠV ict
ĠÐ¿ÑĢÐ¾ ÑĨ
Ġbath room
T yp
result s
èĭ ı
ur ies
B us
ĠStand ard
Object s
12 6
Ed ge
Ġap enas
Ġd ot
Ġte cn
à®± à¯įà®±
ÉĻ s
ĠL ibrary
Ġt ables
Ġáĥŀ áĥł
yn y
Ø¯ Ø©
Ùĥ Ø§ÙĨ
Ġal cohol
Ã¶ l
Ġfe els
Ġseem ed
L os
Iter ator
Ġa voir
ial s
UT F
Cre ated
é» ĳ
Ġ×ŀ ×Ĳ
Ġr ise
un ched
ĠL im
Ġadult s
Ġ? ?
p f
Ġt ÃŃ
Ġappro ved
ĉĉ Ġ
ĠMed ical
Î Ķ
St and
Ġt ags
ĠCont ainer
l ights
u ple
ag u
âĢľ I
Õ« ÖĢ
14 5
sol ute
Ġus age
char ge
ed ing
à°Ĥà° ¤
Ġi y
ĠSm ith
Ø¹ Ø±
Ġsympt oms
Ġcan vas
Ð°ÑĤ ÐµÐ»
Ġv ital
ĠÑĤÐ°Ðº Ð¶Ðµ
and on
ĠS pr
à¤ ī
Ġd ich
ĠW ay
_D ATA
clud ing
Ġb or
A ctions
er as
Ġexpl ain
×ŀ ×Ķ
éĿ ł
ĠÃ©t ait
ë° Ķ
on de
ma al
Ġis ol
ĠSe cond
ĠF all
èĤ ĸ
âĢĻ en
> \
ac o
Ġshe et
Ġteach ers
fo o
ast s
ì¶ ľ
ĠK o
áº¡ n
Ġx ml
ĠL abel
Ġn ome
ê¸ Ī
è¿ ĺ
v y
Ã ĺ
< =
ig it
- form
ç» Ħ
Ġpod r
Ġsk ip
ri ends
Ġappro ximately
00 4
Ġt icket
Ġh ook
ĠÃł s
íĺ ¸
ĠCent re
Ġtrab aj
Render er
over ride
Ġpro tocol
Ġt ir
Ġfor ces
áĥĺáĥ £áĥ
ac ao
à®¿à® ¤
_ HE
Ġident ity
pr im
ĠP ubl
Ġà° Ī
Ġhor iz
iss ue
Ġcl ar
ĠPr ivate
N odes
( I
Ġcorpor ate
ĠÐ½Ð° Ð¼
ĠØª ÙĤ
hal ten
te ch
ãĢ ı
B ER
Ġdoll ars
Ġr ig
b c
ĠC ook
ĠS ar
. search
p io
Ġsist em
Ġcl imate
rit ten
Ġqu ote
ĠR et
SE D
ill o
ç® Ĺ
ç¼ ĸ
ĠÙĪ Ùħ
p ad
æ£ ĭçīĮ
_ output
'] )Ċ
ann y
è¯ ģ
à±įà° µ
Ġprote in
Ġgrat uit
à±Ĩ à°²
' en
Ġsou l
éĹ ®
st op
as m
a id
Ġe c
Ġma h
à© Ī
ĠV ers
Ãł n
Ġm uss
Q ual
K ind
.Pr int
ĠJ ahr
L en
ĠVal ley
Ġinj ury
att i
ĠNeder land
Ġà¸ļ à¸Ńà¸¥
ĠC L
Ġk ick
ard a
Ġh all
ĠWest ern
e per
ik ing
Ġh ip
Ġen abled
_ IM
7 50
aw m
åħ ±
( param
Ġpre t
ÑħÐ¾Ð´ Ð¸Ð¼
Ġà¦ ĩ
de bug
H S
ĠCon text
ĉ n
à¤¾à¤¨ à¥Ģ
Ġn uc
ìĥ Ŀ
ond en
am ar
Ġà¸ ¡
Ġm au
iel en
Ġpu ed
ĠF a
'=> '
Ġrep ly
ĠÐ¿ÑĢÐ¾ Ð¸Ð·
Ġcompreh ensive
ãĤ £
Ġdog s
áĥĺáĥ łáĥ
Ġsh ares
.t op
Ġdes arroll
. )ĊĊ
ĠÙĨ Ùĩ
Ġg ear
Ġconven ient
Ġbe at
Ãª te
Ġdis p
ĉ function
( cl
.A ction
18 1
Ġappear ance
C ost
Ã¶ t
Ġdeterm ined
_in ter
Ġpre gn
Ġbro ther
Pat tern
ĠMER CHANTABILITY
áĥĶáĥĳ áĥ£áĥļáĥĺ
Ġà¤ī à¤¸
Ġt oute
- z
Ġus a
åį İ
() ))
ag raph
Ġpent ru
Ġv ier
Ġn el
ĠCon nect
ĠKe ep
ãĥ ĸ
Î¹ Î¿
æ ĵ
LO W
13 9
.M essage
? "
ĠJ ose
ke le
ÑĢ Ð¾Ðº
ĠS ym
Ġart ists
Ġm igr
ill es
Ð¾ Ñĥ
D P
ĠL uc
": [
LO CK
Ġk Ã¤
ĠÙĪ Ø³
ìĦ ł
Ġcr isis
Con firm
ĠF ra
ĠM ov
Ġt sh
Ġjoin ed
ĠCh icago
ÑģÑĤÐ°Ð½ Ð¾Ð²
Ġappreci ate
Ġtou jours
Ġg anz
Ġh orr
Ġå ¥
ĠÙĩ ÙĬ
_tr ain
am at
Ñį Ð»
Ø¨ Øª
ĠìĿ ¸
at omic
it is
_ obj
ĠA rr
à¤¾à¤² à¥ĩ
or al
r ir
Ġ ãĢĢ
g age
Ã¡ b
OR S
Ġauth ent
ans ion
ci os
12 9
Ġh ou
ul ui
M ask
un que
àµįà´± àµĨ
Ġexpert ise
and y
Con n
ĠÐ° ÑĪ
Ð¾ÑĢ Ð¼Ð°
Ġsam ples
.D E
Ġpro test
Ġt imer
ê ·
b ere
Ġsub stant
h ash
se ct
en ant
å¤©å¤© å½©ç¥¨
Ġdist inct
Ġvari ant
Ġsu cc
ç» Ł
ip her
? )
ort hern
ĠÕ« Õ¶
( config
Ġ$ .
Ð½Ð¸ Ñħ
ĠP ut
à¸Ħ à¸£
14 1
Ġs yst
Ġdoub t
_P ATH
Ġh ide
Ġen orm
ag ent
Û °
ul p
ĠB efore
W ell
Ġáĥ ¢
ĠÐ³ Ð¾Ð´
áĢ ½
an Ã§
Î Ļ
Ġde ck
ĠáĥĽ áĥĿáĥ
Ġc ategories
= self
(m ap
c py
ĠÐ½Ðµ Ð¾Ð±
( V
ĠS ports
. Y
Ġà° İ
Ġbl ank
v ens
_C lick
Ġf ro
ic ia
ĠCont inue
irt ual
ĠM AX
aps ed
At tr
Ġcor r
Ġà¦ı à¦ĩ
cul ate
: </
et ails
Ġex cess
Ġst ated
Ġgr av
Sh ape
13 2
áŀ »
Ġest Ã¡n
ĠGu ide
Ã³ d
ĠÕ¨ Õ¶
LE S
Ġtre es
ik er
un ter
ä¼ ł
Ġgreat est
Ġàª¸ àª¾àª
à³ Ī
Ġz it
éĸ ĵ
Ġdiscover ed
D i
Ġàªľ à«ĩ
j ob
Ġt sa
.m ain
Ð»Ð° Ð³
ĠOb ama
Ab stract
à°¾à° ¯
n n
ĠK en
Ġsignificant ly
ien st
Ġlink ed
Ġein es
te le
Ġtrav ail
av ailable
- left
I EL
èµ Į
Ġafford able
ÑĨ Ðµ
à®² à¯į
Ġà¦ķà¦° à§ĩ
Ġg egen
ĠC ategory
arn ings
Ġp Ã«r
s cription
w ere
U ri
ans wer
Ġad opt
ed itor
à´ ·
Ġm ob
AR N
P ower
{ $
ĠÑģ Ð¸ÑģÑĤÐµÐ¼
r v
he less
W elcome
me an
ĠJ ud
Ù ¼
P ayment
Ġpu eden
Øª ØŃ
en k
Ġlist ing
Ã° ur
j as
ing a
ult ural
An swer
. register
æĭĽ åķĨ
we ek
ĠA rea
AS H
ÓĻ Ñģ
em plate
Ġ éĩĳ
ĠC oll
Ġp it
Ġes e
( u
Ñĸ Ð»
à¤¿ à¤°à¥įà¤
w u
( X
ĠC EO
_ u
(java x
ìĭ ¤
Ġà¸ Ķ
Ġt as
à®¾à® ²
Ġir on
ĠC ross
å© ·
C amera
Ġw idget
Ġk ab
and ler
æĬķ æ³¨
ê± °
Ġexclus ive
Ġ ents
ĠÑĩ ÐµÑĢ
ĠD uring
ĠØ¬ ÙĨ
={ ()
> ,
×¤ Ö¼
/ json
ìĭ Ŀ
áĥ ĸáĥĶ
.r f
ĠB uffer
ä» ·
Ġle b
ĠJ ournal
Ġc ra
Ġend s
_b ase
ìĹ °
Ġcandid ate
ÐµÐ» Ð¾Ð²
Ġà®ļ à¯Ĩ
z ent
à§ĭ à¦¨
Ġgl ad
18 3
ĠO m
ĠM em
and ed
b ul
te en
ĠØ¨ Ú¾ÛĮ
Ġmuch o
m em
A udio
W ait
om i
Ġinter val
Ġk osten
Ġbe im
ÒĽ Ð°
or se
ĠÒ ·
ĠØª Øµ
Ġdiff Ã©r
F il
Ġlabel s
ant u
Ġb ent
Ġp ump
Ġ" ../../
Ø¨ Ùĩ
Ġ! !
ëŀ ĺ
à´ ¬
ĠF L
Ġparticip ants
Ġc z
è£ ħ
Ïģ Î³
×ĵ ×Ļ
iven ess
Ġvol g
neh men
ĠV e
Ġt error
an ish
àª¨ à«ĭ
Ġapp end
valid ation
ĠS ale
Ð± Ñĭ
à¥ ¨
M ov
æĦ Ł
Ġth ick
Ġë Ĳ
Ġb inding
ib li
ĠMay be
c pp
"> ĊĊ
Ġreal ize
Ġbro ken
Ġmus ical
ÅĤ o
Î® ÏĤ
ĠC u
Ġtwe e
Ð» Ð°Ð½
Ġnou ve
Ġsu ffer
ĠL u
: [
Ġs pons
.D is
ĉ throw
L imit
áĢĦ áĢ¹
( max
àª¤ àª¾
Ġbo ot
Ø±ÙĬ ÙĤ
ate way
D T
ĠÚ© ÙĬ
ne e
des c
Ġk ans
iv id
Ġmar ried
R S
à¦° à§įà¦
Ġsu c
. O
ĠLou is
let te
f inal
Ġf Ã¥
ìĤ °
ĠÐµ ÑģÑĤÑĮ
Ġc ri
C RE
Ġar rest
Ġsupport s
ìŀ ĳ
_ LE
. UI
à¥ ľ
Ġel im
ek a
ĠÐ±Ñĭ ÑĤÑĮ
ÙĪ Ùĩ
G ood
sem ble
ĠD ar
ĠR oute
- Z
an j
G ap
åº Ĺ
Ġdifer entes
Õ¡Õ¶ ÖĦ
Ġrequest ed
Ġà¤ħà¤ª à¤¨à¥ĩ
- and
Ã« s
á»ģ u
Ġconsider ing
ĠS ou
it el
. Item
íķĺ ê³ł
ĉ get
class es
Ġel ig
ĠØ° ÙĦÙĥ
ĠK IND
ĠGerm any
L anguage
Ġdrug s
Ġvir us
ĠC a
N AME
Ġfa Ê»
Ġm ij
Ġquant ity
Ġt ight
à´ ¶
atur ing
# +
Ġpurch ased
ĠS end
Ġ ##
íķ Ļ
Ġe b
Ġredu ced
ĠÙĤ Ø¯
ĠC up
Ex press
Ġd iz
S uper
ph oto
ĠÐ¾ Ðº
ac er
IN S
Re p
ĠDe lete
ëª ¨
ĠÏĢ Î±
ĠÖ ĥ
Ġ/** čĊ
ĠN av
Set ting
ple ted
_ RO
Ġcomp rom
Ġf is
áĥĶáĥĳ áĥĺáĥĹ
ĠÎµ Î¯Î½Î±Î¹
ne q
Ġm d
Ġzo als
Ġ á»¥
St ats
Ġse ed
Ġcr iminal
ĠÙ ¿
Ġ Ñī
àª¾àª ¦
b ank
Ġext ended
ĠI' ll
à¤¹ à¥ĩ
Ġso it
at in
[ x
Ö ¿
ç« ĭ
å¥ ĩ
à°ķ à±ģ
à´¾à´ ¤
ĠåĪ Ĩ
-d oc
Ġd z
à¤¿à¤¯ à¥ĭà¤Ĥ
Ġap artment
ĠØ´ Ø±
Ġsk y
em s
.g ame
f re
.p y
ad v
ĠWeb site
ied en
Ġal leg
áĢ ľ
u its
eng a
Ïī ÏĤ
Ġam in
/ index
inn ers
Ġt ickets
s ys
Ġt in
om ent
ĠÐĿ Ð°
Ġmar riage
ĠWARRANT Y
Ġà¸ Ī
ir as
à¤¾à¤ Ł
Se quence
-l ink
il ig
15 2
Ġh j
an ager
Ġà¦ľ à¦¨
Ġass im
os c
0 11
Ġle tt
Ġ Ã¤
abet es
Ġthe ory
í İ
ĠÐ² ÓĻ
ok es
à¸ ¨
res a
' }
Ø¹ ÙĬ
Ġan te
ĠA V
Ġclin ical
Ġê² ½
I k
à¸²à¸ §
s ystem
Ġworld wide
Al ign
.Thread ing
Ġj ew
Ġresol ution
ĉ char
Head ers
y or
Ġàªķàª° à«Ģ
Ø¨ Ø©
_re quest
Ġk illed
âĶ Ģ
çĿ Ģ
ĠØ§ÙĦ ÙĪ
Ġfl ags
Ġpract ical
ĠH ospital
Ġs itting
== =
åı ĭ
ĠTh omas
à®£ à¯įà®Ł
UT H
15 5
Ġtr ong
Ġm l
Ġbe w
Ġvol unte
åĿ Ľ
( val
Ġ' %
ĠØ§ ÛĮÚ©
ÉĻ k
15 1
is an
ÑĨ ÓĻÐ°
à´¿à´ Ł
18 2
cycl er
ĠMart in
Ġz v
iz aÃ§Ã£o
è¾ ĵ
ĠØŃ Ø§ÙĦ
Ġal pha
re p
c am
Ġt udo
( root
à° ļ
( json
ĠAb stract
$ (
ĠW ood
S ymbol
Ġà¤¤ à¤°
Ġl unch
13 4
ack ed
à¤¨à¥įà¤ ¹
Se cond
nost i
Ġsign s
ĠT own
ĠCol umn
Ġstud io
Ġ æĹ¥æľ¬
Ð½ ÑĥÑĤ
ĠU k
Ġb ike
e i
Ġlo ans
S um
ĠM ember
n te
Ġsearch ing
Ø§ÙĨ Ø¯
.d at
Ġm ig
Ġtherap y
åĳ ¨
Ġg ay
×¢ ×Ŀ
Ġan x
_ order
/ r
Ġg oto
c f
Ø³ Ø±
Ġdeb t
Ð¸ÑĤ Ð°Ð¹
Ġæ Ŀ
. parent
Ġb ay
Ġeff iciency
ant al
Ġ Ã¥r
Ġes o
Ġdr ag
ĠCom ments
Ġevent ually
Ġm ole
Ġsp in
_id s
¸ à±įà°¤
à² ľ
Ġar be
13 8
Ġk ung
ĠÎ± Î½
her it
Ġpl ays
Ã³ m
ĠÐ½ ÐµÐ´
ams ung
Ġy on
ĠÐ´ ÐµÑĤ
Ä±n Ä±n
In fl
Ġor ig
ĠH om
à¤Ń à¥Ģ
ĠDo es
Ġ[âĢ¦ ]
Cl oud
áĥ ¤
Ð¼ Ñĭ
Ġ' -
est ions
Ġhand ling
et ic
in itial
Ġf yr
ĠÎ ĳ
Ġfin ance
.A n
ëĲ ľ
B R
c ity
Ġ×Ķ ×¨
Ġtout es
[ -
Ġà´¸ à´Ĥ
Ġz ap
ĠF ac
à¦¬ à§ĩ
: %
st ep
åį Ī
ĠUs ing
um en
Ġinterest s
apt op
pe g
Ġ×ķ ×ķ×Ĳ
/ {
Res et
r il
ĉ inline
Ġk us
à´¾à´ ²
à²¾à² ²
Ġmult ip
D istance
Em ployee
A I
Ġneighbor hood
ĠĠĠĠĠĠĠĠ čĊ
ĠØ® ÙĦØ§ÙĦ
Ġreg ional
C ur
Ġ×¢ ×Ŀ
ĠI hr
ek en
Ġst yled
13 6
N D
à°² à±ĭ
Ø±Ùĥ Ø©
st ers
Ġc ela
Ġ) ;
G E
Ñħ ÑĮ
Y S
ĠF ollow
ost ream
Ġpr is
aw ay
ĠF REE
ĠÛĮ Ûģ
Ġlog ging
ĠCh at
qu ot
à¨ Ĥ
Ġp ose
à´ ŀ
àª ĸ
Ġpl aats
Ð°Ð½ Ð½Ñı
Ġaccept ed
id ents
asse mbly
ĠT otal
Ġ×Ĳ ×ľ
Ġsn ap
, b
ĉb ool
Î± ÏĤ
Ġ} )ĊĊ
Ġc riteria
Ġb ou
Ã° a
and en
Ġth erm
àª¾àª ²
Wh ite
Ġman era
tern oon
æĺ ĵ
ĠD C
è ³
Ġk omen
ifest yle
àªµ àª¾àª®àª¾àªĤ
Ġmin ing
ah ren
I ED
up lic
m ode
æĮ ģ
à¥įà¤ ¦
ĠCong ress
_w idth
iz ado
ĠAut om
iter al
_n ot
Ġe y
Ġh au
ĠSt yle
àª¨ à«įàª
àµįà´ ³
st ell
ĠR untime
ive au
à¦ ĵ
ĠF oot
Ġfon ction
Ġh ers
Ġp am
.f ile
Ġb asket
v ideo
A pr
Ġih re
ass et
ord an
Ð² Ð°ÑĢ
Ġprior ity
Ġsi empre
Ġpay ing
Ġsol ar
Ġp df
à¦¨ à§įà¦¤
. right
Ġg ender
q rt
imm ing
ĠR en
Ġh older
.e clipse
e urs
Ġst re
Ġencour age
Ġà² ¶
ëł ¤
Ġgrup o
Ð¸ÑĤ Ð°
Ġgo ogle
_b utton
åķ ª
id ity
Ã© ment
ang ers
ĠØ® ÙĪØ¯
à´ ¹
-fe ira
Ġæī ĭ
Ġauth ors
ç ¡
ĠÒ» ÓĻÐ¼
Ġm á»Ļt
ç§ °
Ð»Ñı ÐµÑĤÑģÑı
¡ à±ģ
ak ers
ĠB oth
ÙĪÙĦ Ø©
å¨±ä¹Ĳ å¹³åı°
Ġserv ing
_ ref
Ġt ile
fl ag
16 3
ĠÎ »
Ġes pa
> <?
ĠV ari
umer ic
_RE G
TER N
Ġn n
Ġout ros
Ð³ ÐµÐ½
ëĭ ¨
áĥ£áĥł áĥĺ
Ġvert ical
ost ic
ĠS ession
ETH OD
ĠTH IS
(d ouble
.c ode
================================ ================================
Ġquel ques
ek er
àµįà´ ŀ
ro k
Ġf old
De v
ãĤ ģ
t ain
" ],
Ġper d
Ð¾ÑĤ Ð¾
? ,
Ġdis se
end ers
et her
ĠD atabase
b are
Ġ Ïħ
ä» İ
ê¹ Į
ann o
ON T
id ers
FT WARE
eng o
/ M
28 0
Î¿ Î½
Ġbirth day
Ġp unt
Ġpro ve
ĠM ot
Ġn avigation
c ustom
en ne
Ġsol ve
à´ Ń
àµģà´ ®
Âł Âł
ķ Į
×ķ× ĺ
åľ¨çº¿ è§Ĩé¢ĳ
à²¿à²Ĺ à³Ĩ
ĠÕ´ Õ«
å¸ ¸
Ġdies em
Ġ' Ċ
ĠAr ab
ĠV AR
Ġme al
ĠÙĤ Ø±
N ormal
/** čĊ
Ġ æĹ¶æĹ¶å½©
po q
re ce
ĠëĤ ĺ
n ia
é¦Ļ èķī
.j ava
Ġobt ained
æ Ł
ç Ł
ist ing
ĠV ill
Î¼ ÎŃ
Ġn gh
à®¿à® Ł
ä¼ Ĺ
×ĺ ×¨
Ġà¤¦à¥ĩ à¤ĸ
à¹Ģà¸ ¥
à²Ĥ à²¤
çĻ ½
port e
n ah
Ġtrabal ho
r ag
è¨ Ģ
ĠÐ° Ð¿
Ġad s
ãĥ ŀ
Ġvill age
el ta
Ġcont re
ys ql
15 3
omet imes
ĠA w
Ġre covery
Ð¶ Ð°
âĢĻ e
ĠÄĳ i
ä¼ ĺ
ÐµÐ¼ Ñĥ
ÑĢÑĥ Ð´
Ġne ck
ĉ data
Ġ×ķ ×ķ×¢
Ġabsol ute
à¤Ĺ à¤¾
Ġtext ure
s uper
à³įà² ®
Ġbig ger
Ġb omb
m ac
Ġat u
Ġabs or
ĠO ption
Ġ ÄĲ
ack er
Ġc b
Ġident ified
Ġenc uent
ĠÎ ķ
Õ¸ÖĢÕ ®
Ġcov ers
ure au
Ø§ÙĨ ÛĮ
åĳ Ĭ
ĠE conom
Ġemerg ency
Ġë į
áĥĲáĥ Ļ
pu Ã©s
Ġê ±
ĠB oston
ĠÐ¿ÑĢ Ð¾Ð´
Ġà¤ķ à¤®
uck et
<< "
ĠÖ ħ
27 0
Ġf aut
ah o
Ġmerc ado
Ġch er
Ġz n
ens ch
ĠAfr ican
Ġ Ã¸
Ġnot iced
(f loat
ĠCl oud
×ĲÖ· ×¨
Ġ' </
... .ĊĊ
Ñĭ Ð½Ð°
ic er
Ð¸Ñģ ÑĮ
op a
Ġhundred s
à¯ģà® µ
à´² àµį
EN S
Vis ual
b est
3 30
ĠÃ ģ
Ġt orn
Y Y
.trans form
ĠL i
V M
Ġentertain ment
ĠÐ± ÑĥÐ»
Ð³ Ñĸ
Ġre in
áº§ n
ĠIn f
ĠIn fo
ÑĨÐ¸ Ð°Ð»ÑĮ
re cord
ĠL oc
Ġas sets
Ġ@ "
we ise
Ġfund ing
an che
à´¾à´ ķ
ãĥ Ĳ
Ġmot ion
_ action
Ġp oco
Ġà¦ Ł
ĉd ouble
Ġelect ronic
Ġofficial s
Ġé¦ Ļ
ĠM ir
ĠVir gin
C G
ģ à¸¡
Ġbl ess
Ġintrodu ced
St ar
.e qual
æ Ĳ
W ill
Ġign ore
- en
Ġorder ed
Ġsab er
Ġg ente
_b uffer
HT TP
ĠÐ½Ð° Ð´
m ond
Õ«Õ ¯
ãģ ¿
Ġph r
Ġle ver
Å¡ ÃŃ
e ction
T ile
NS String
Ġhe aring
ĠS ET
Øµ Ø±
M ill
âĢ¦ .
ĠÏĦ ÏīÎ½
Ġge h
Reg istry
Ø´ Øª
Ġc odes
×ŀ ×©
à«ĭ àªķ
ĠEnt ity
ol id
ĠÑĥ ÑģÐ»
.D e
' e
Ġplan et
Valid ation
Ġtr ouble
iy o
ific ar
ĠW alk
Ġun known
- ui
ï¼Į âĢľ
P refix
Ġgover ning
Ġo li
ix els
×Ļ× ¦
ent re
con struct
Ġl ado
Ġmom ents
Ġg eld
ia u
by tes
' in
ĠB all
add a
ĠFest ival
Ġpred ict
plac ement
.Ċ// ĊĊ
in nen
Ġcalcul ate
ĠT oken
to ol
20 5
ĠØ¢ ÙĩÙĬ
Ä ĭ
à¥Ģ à¤¨
Ġprogram a
S imple
Ġstr ugg
Ġmod al
. email
Ġcr ime
Õ¡Õ ·
Ġbel ie
ĠW al
Ġte a
ĠB ol
iss ance
(pro ps
Ġo ct
Ġal ors
Ġsh ut
x imo
; //
Ġdocument ation
He alth
Ġtrans l
Ġ×ĸ ×Ķ
Ð¸Ð· Ð½
Ġvers ions
Ġre venue
ĠM useum
Ò¯ Ð¼
ĠÐ¿ÑĢ Ð¸Ð¼
âĢ Ĥ
lic ations
REFER RED
Ġex em
ĠM aar
ä¹ Ŀ
> )
å¼ º
Ġvalu able
Ġpropos ed
Ġw al
Ġsem ana
Ġcomm ission
¢ ħ
St atic
æ ®
ĠAct ive
Ġqu em
Ġs Ã¶
Ġsel bst
Ġour selves
Ġet was
ç ĸ
ĠLic ensed
O h
ĠJ a
Ġsud den
áĥĶáĥ ¥
Ġgr ab
Ġad alah
Ġbeg ins
ĠA u
Fl ow
ĠD og
Ġv á»Ľi
ĠB rown
ĠSer ial
avig ator
Ġper f
Ġme ille
act s
Ġqu and
=" "
ĠSc ott
A E
Ġappe ared
éĽ »
Ġl ights
Ġm ang
ly wood
ÓĻ ÑĪ
AT CH
Ñĩ Ð¸
« áĥļ
ĠØ§ÙĨ Øª
Ġ×Ķ ×¢
. or
Ġ_ ,
í ŀ
Ġdis k
aw o
Ġcom ent
Ġà¨ µ
L ib
On ce
ĠÐ¶ ÓĻÐ½Ðµ
Ġrat io
áº «
Ġg w
Ġcon ce
Ġimpro ved
èĢ ĥ
ĠSh ould
ĠØ¹ Ø§Ùħ
Ġph arm
ĠØª Ú¾
Ġ" "Ċ
ell i
ĠÐ·Ð° Ð²
àµįà´ ®
ĠÑįÑĤ Ð¾Ð¼
ãĢ İ
Ú© Øª
ĉ result
y al
Ġprom ise
A nt
ĠH en
Ġand er
Ġà¤µ à¥įà¤¯
Ġrel ation
ĠA h
und efined
ĠAng eles
u elle
Ú ļ
ex ception
Ġer st
ĠÑĢ Ñĥ
uth i
â Ī
Ag ent
ĠGr id
ct r
Ġs ides
Ø² ÙĬ
Ġwe g
W E
ĠÐ³ Ð¾Ð´Ð°
Ġnue vo
Ġpr in
I gnore
T ION
ÅŁ t
Pl ace
Ġkt Ã³
Ġwas n't
- y
, n
. graph
sub scribe
Ġh az
Ð¸ÑĢ Ð¾Ð²Ð°Ð½
ĠLe e
Ġmod o
ĠÐ± ÑĥÑĤ
Ġh Ã¤
ĠSE O
Ġest o
à¸´ à¸Ķ
Ġd apat
Ġcandid ates
Ġnum s
Ġ Ã¶n
Ġà¤ľ à¤¾à¤¤
ä¿¡ æģ¯
be eld
ab l
ie urs
ì¹ ´
Ġblock s
Ġsupp osed
Ġà¤ħ à¤¸
Ġcomple tion
ĠìĿ ¼
Ġeffect ively
ĉf loat
17 8
qu et
Ġp ier
Ġinter pret
V ec
M aster
ĠÙħ Ø«
erse y
Ġla h
ĠRem ove
f un
Ġa con
S upp
Ġst opped
m issions
p ot
ĠK now
Ġis land
Ġfr Ã¥
Ġlet ters
ĠÕ¥ ÖĢÕ
Ġf ell
Ġh Ã¶
Ġaffect ed
Ref resh
Ġarr ived
sm all
ĠÑĥ Ð¶Ðµ
@ property
ÏĦ ÏĮ
à®¿à®© à¯į
àªµ àª¾àª¨
R I
æĥ ³
ĠL ow
Ġmanufact urer
ik en
Ġl ad
adr id
k ol
Ġproble ma
r ing
Sub ject
ĠáĥĶ áĥłáĥĹ
oh l
_ pr
( line
ĠI mp
ĠEx ecut
Ġ{ };Ċ
Ġ' $
Ġfoll ows
ĠÐ±ÑĭÐ» Ð¾
èį Ĳ
Ġinnov ative
ĠDis play
Ġan u
Ġb its
Ġprogram me
Ġdin ing
_f l
enc iÃ³n
ĠÐ´ Ð¾Ð±
Av ailable
à°¨ à±ģ
ë£ Į
Ġde ve
Ġre verse
eto oth
åĮ ħ
ĠÃ¼ Ã§
Ġro z
** *
à· ĵ
([ Ċ
Ġà¤¸ à¤¬
åĲ §
É Ķ
Ġdeg rees
Ġvac ation
Ġci udad
etr ics
ĠD I
ĠR ow
tr ait
è® ¤
Ġla unched
ÑģÐº Ð¾Ð³Ð¾
ĠÐ¿ÑĢ Ð¾Ð³
Ġe gy
Î¿ Î»
B I
à¸ ¶
Ġn arr
ik h
Ġat au
ann i
è ı
à°¿à° ¯
as er
Ġqu ien
.object s
Ġn Äģ
14 9
b g
Ġf mt
éª Ĺ
_ AT
Ġaccess ible
ĠE ll
ĉ ĠĠ
åı Ĭ
ÙĪÙĤ Ø¹
ov i
Ġed ition
ar te
ĠD aar
ikip edia
T ags
- com
_ z
Ùħ ÛĮ
C pp
Ġown ed
ĠB id
åŁ º
ing ly
.P REFERRED
ors hip
ĠP od
, :
< script
j an
us o
ĉ res
Ã¡ v
ions hip
g reg
ur d
ĠP ac
ĠPr iv
Ġwhe el
ĠLink ed
.b l
Ġt Ã©cn
ĉc out
.string ify
Ġstring s
M er
Ġcomp ens
Ġdo ors
Ġg ard
. Entity
Æ°á»Ŀ i
Ġro l
+ =
Ġsoc i
All ow
ãģ ¤
à°¨ à±į
/ n
C ert
on ic
Ġke eps
ĳ ľ
Ġopt ional
Ġe ar
Ġa yaa
Ġmanufact uring
Aut owired
ÙĪ Ø§Øª
od d
Ġturn s
Ġhold s
Ġ" _
Øµ ÙĪÙĦ
ac ed
Ñĥ ÑģÑĤ
Ġl ip
çł ´
ÓĻ Ð¿
! "
ĠÐ¾Ð± ÑĬ
ĠOut put
, ,
_ USER
h y
_M ODE
m is
Ġc arr
.in put
ĠP as
Ġc oc
umb n
.m y
àª¾àª ľ
ĠC ost
à¸ ľ
14 2
. ext
ĠV eg
×Ļ×Ļ× ł
íģ ¬
Ġyou th
Ġdat os
åģ ĩ
Ġarr ive
ĠI con
Ġg olf
Ġc aught
es p
Ġn s
ier te
Ġn atu
áº£ n
Ġhard ware
Ġmu jer
ĠÐ¾Ñĩ ÐµÐ½ÑĮ
Ġstand ing
w rap
ĠÐº Ð°Ð¶
ĠO il
upport ed
st mt
= %
m ons
Ġà¤¦ à¥ĭ
Ġì ²
à© Ĥ
. per
ĠÐ¿ÑĢ Ð¸Ð²
olog ia
u o
ly mp
ĠÐº ÐµÐ»
Ġdo ch
ãĤ Ń
15 6
Ġtw ice
Ġë ²
ÙĪ Ø§ÙĦ
ĠB as
_C L
Ġenter ed
Ġref und
Ġp itch
ä½ĵ èĤ²
_on ce
Ġe ase
Ġz ien
Ġpay ments
Ġall er
æĸ ¯
all en
ĠÑĢ ÐµÐ³
ien ne
_ OK
. form
Ġrece iving
- res
.key s
Ġkut i
áº »
16 4
-t itle
o pe
âĢľ ,
Ð» ÐµÐºÑĤ
Ġinitial ize
OL OR
Ġfit ness
Ġch annels
_ level
Ġ×Ĳ ×ķ×Ļ×
Ġversch ill
Ġm w
Ġdr ivers
ĠÐ½ÐµÐ¾Ð± ÑħÐ¾Ð´Ð¸Ð¼
cl aim
ER VER
Ġterm in
p al
test ing
Z one
Ġvis ited
Ġeduc ational
Ġpers pective
Ùħ Øª
auc oup
P G
- text
å¤ ª
Ġà´ ²
ĠT urn
Ð¾ÑĢ Ð¸
×ª ×Ļ
ĠSO FTWARE
ĠM ah
Ġest os
ag ens
ĠØ¨ Ø´
ï¼ī Ċ
V ID
Ġdo is
Ġ×ľ ×¢
Ġn k
17 9
å½± éĻ¢
ĠB and
aÃ± a
Ġ×ĳ ×¢
Ġenh ance
Ø Ľ
14 3
ĠÐ¿ÐµÑĢ Ð²
< std
ĠnÃºmer o
T oday
Ġdes ired
Ġam pl
irect ory
à²Ĺ à³Ĩ
àµģà´¨àµįà´¨ àµģ
Ġcare fully
Ò³ Ð¾
Ġhouse hold
Ġcons ent
Ä ©
Ġn ob
Ġd ow
ch ts
- list
ĠÑĥ Ð¹
Ġr au
ĠC la
um ik
O IN
ĠÑĢÐ°Ð· Ð²
Ñĥ Ð´Ð°
ÑĢ Ðµ
ĠÑĤ ÐµÑĢ
ĠBit coin
bl ack
Ġì Ĭ
as an
Ġme u
å® Į
Ġp ang
Æ° á»Ľ
ne a
ĠN i
.t able
ĠÑĪ ÑĤÐ¾
Ġlog ic
ĠD am
Ġd ance
åĽ ł
ĠT ax
ë¡ Ŀ
_ sp
ä» ĭ
_ al
_ LOG
Ġsow ie
en za
ĠÑĢ ÐµÐ·
ç Ĩ
- i
] /
Ġj an
çĭ ł
ag ger
em i
Ġà´ļ àµĨà´¯
à² §
- end
. char
àªĤ àªĹ
Ġconc ert
- gr
OR K
ĠÕº Õ¡Õ¿
r ate
Ġáĥ¨ áĥĶáĥĽ
ĠR oyal
ç ·
Ġcreat es
à¥Ĥ à¤ª
Ġg ent
c ido
Ġs ummary
Ex ample
ãģ ©
ver e
le la
æĹ¥ éŁ©
UN C
ÙĪØ± Ø©
r ics
à´¿à´ µ
à«įàª¯ àª¾
äº ĳ
Ã¨ n
J S
Ġhot els
æ¶ Ī
Ġc ub
à¦¿à§Ł à§ĩ
Ðº Ð°Ð½
Ġne ut
2 60
ç¦ı åĪ©
åĪ Ľ
Ġd jango
à¤¾à¤¯ à¤¾
ĠPro te
ĠR oll
Ġp ob
ĠRes ource
at ies
Ġre cover
Ġm obil
íĶ Ħ
O wn
Õ¥Õ¬ Õ¸ÖĤ
Ġ/* Ċ
ĠP ak
ĠÐ¿Ð¾ Ñĩ
Ġs ending
Ġfl u
Ġsens or
ĠW er
å¦ »
ĠAv ailable
2 25
ial is
ĠÐ¸ ÑģÑĤ
un ge
ĠÙĬÙħ ÙĥÙĨ
ĠFil m
ĠØ£ Ùĥ
if ies
ĠQu ery
et en
Ġgam ing
ĠA C
å¤ ´
] *
Ġaccur acy
Up dated
ex ample
" }
ĠPh oto
Ġen viron
ĠG a
Ġpattern s
b us
Õ¥ÖĢ Õ«
à²ķà³įà² ķ
Ġtest ed
Ġu u
éĻ ¤
ĠD ocument
ĠC ou
Â §
Ġìĥ ģ
ĠÐ² Ð°ÑĪ
_p re
Ġbook ing
å· ²
Ġcompet itive
un u
Ġsupport ing
Ġf asc
ãģ Ī
ĠÐ´ Ð¾Ðº
Ġsp aces
ĠÒ ļ
S ummary
Ġe cht
Ġsubstant ial
s che
Ġentr ies
Ġy r
leg en
st one
Ġatt ached
ĠL LC
" `Ċ
èº «
Ġà¤° à¤¾à¤ľ
è®º åĿĽ
uk o
Ġz on
apt ure
Ġrep resents
ĠF un
Ġge ht
Ø¦ ÙĬØ³
Ġdem ocr
â ľ
Ġpre fix
ĠÐ¾ Ð½Ð¸
ig ure
Ġd d
åı ª
ĠH E
M a
Ġh Ãł
B U
Av g
Ġà¤² à¥ĭà¤Ĺ
_ AL
_ and
fo od
ä¾ ĭ
mon th
On line
àª¾àª° à«ĩ
Ġëĵ ±
Ġv ag
ĠÐ¸Ð½ ÑĦ
à° ľ
Ġac id
ĠÐ¾Ð± ÑĢÐ°Ð·
ĠG ew
Ġdisplay ed
ĠD eb
B egin
à¥įà¤ §
ĠB ul
13 7
_ form
Ġà¦¨ à¦¿à¦
# !
Ġest Ã£o
ĠĠ čĊ
Ġtre ated
enc i
Ġæ¬ §ç¾İ
åħ ĭ
Ú ĸ
à¤ķ à¥įà¤°
col lection
ĠÚ ħ
à¨ ®
ì Ī
ĠB oy
Ġl id
Ġap resent
r if
How ever
ĠâĢĭ âĢĭ
Ġcar ried
uz z
Î¬ Î½
Ġutil is
/ A
(" <
cept ions
Ġà¤¯ à¤¾
Ġd ell
16 2
Ġ Ó
Ð» ÓĻÑĢ
ĠÐ» ÐµÑĤ
ĠØ³ Ø¨
. Key
Ð± Ð¸
Ġaut res
Con vert
ÑĢÐ° ÑĦ
Ġform ation
áĥ£áĥ łáĥ
Ġtr ou
â Ĩ
ĠÑĩ ÐµÐ»Ð¾Ð²
b order
ongo ose
Post ed
Ġcal endar
Ġdef ense
ĠÙĪ Ø¨
B N
r ich
ĠCommit tee
áĥĶáĥľ áĥ¢
end region
Ġc ust
_ up
Ġsurg ery
ir c
Ã Ģ
Ð² ÐµÑģÑĤ
Ġbed rij
Ġn ok
Ġfrequ ently
à²Ĥ à²¡
å¾ Ī
âĢĻ aut
Ġbring ing
Ġtell s
Ġ( @
ac cept
Ġp c
Ġj ug
ĠØ§ Ù¾
Ġperfect ly
Ġsex y
ĠGe org
( []
à¥Ĥ à¤¨
Ġav ailability
Ġmo i
Ø¥ ÙĨ
Ġfood s
Ġh orm
Ä± na
in te
Ġå ¿
um u
ĠR oman
ĠI' d
Ġl ived
ĠPost s
it Ã¤
if fer
ik s
_ client
or ough
Con verter
ĠH aw
O ct
Ġse pt
Ġpu is
ĠC ab
Ġqual ified
à¶ ´
å¹ ²
Ġpr ix
.g ithub
à´ķ àµįà´·
ĠUn less
ne g
ge w
Ġcap able
Ġg ob
ĠA ward
H z
k ur
ĠV ar
U m
r ia
Ïĥ Îµ
emb ro
ĠÛĮ Ø§
ç ¯
bl ue
o it
b ound
ĠC ountry
40 1
al and
Ġf ib
Ġiss ued
ĉs witch
Ġvisit ing
Ġter ug
Ġdel ta
( /
¾ è®¯
Ġdec ades
c md
Ġá¹£ e
W atch
Ñĩ Ñĭ
el ly
Ġy esterday
_ args
_ (
Ø³ Ø§
( params
_ price
Ġl ap
Im ages
Ġv Ã½
éĤ £
th a
Ġs ah
dr iver
Ġre pr
Ġkom t
ĠÑĤ Ñĭ
- (
ĠFranc isco
ĠM id
/ C
ac in
p anel
åº Ķ
onav irus
Ġanim ation
Ġro les
Ø§Ø± Øª
à¯ģà® ³
ÑģÐºÐ¸ Ð¹
CR IP
Ġfind en
ĠU l
P our
Ġc urrency
ar c
ĠEn vironment
Ġaf ternoon
Ġà¸ ľ
f ree
Øº Ø§ÙĨ
ĠB AS
AN S
ste in
_ img
à¯įà® µ
à¤¾à¤° à¥ĩ
Ġv ig
iz aciÃ³n
ĠI II
ok s
Ġw is
Press ed
Ġlik es
Ð¾Ð½ Ð¾Ð¼
ul ing
Ġfundament al
f as
ĠSoc iety
_D IR
/ re
Ġc ort
_S UCCESS
åĲį çĦ¡ãģĹ
ĠÑģ Ñĩ
p ush
Ġv est
Ġe ig
"> <?
Ġáĥ¡ áĥĲáĥĽ
Ġr it
Ġpro ven
ĠN u
16 1
Ġ ----------------------------------------------------------------
Ġcook ie
unc i
Ġb io
ĠJ im
Ġflow ers
pe at
_ context
Ġs ak
in ternal
Ġav ait
åĬ Ł
Ġ} ,čĊ
æĶ ¶
Ġsh oes
Ġmen j
ĠÙħ Ø³Øª
ĠÃ© qu
G oogle
ª à¯įà®ª
14 7
Ġpart nership
æĶ ¯
Ġg Ã¼n
ĠÐ³ Ñį
ie z
I ll
ĠÐ¼ Ð½
at tribute
Ġbut ter
Ġf y
ĠÐ½Ð° Ð²
. date
Ġph ilos
à±ģà° ¤
M essages
p ages
Ġfr amework
×§ ×¨
Ġplatform s
l ung
Ġs cores
f riend
v u
Ġspe ech
Ġl omb
( o
% )
ĠÑģ Ð¾Ð·
.f l
Ġam or
ĠÐ¼ Ð¸Ð½
As set
Ġserv i
ĠEst ado
Ú© ÙĨ
ĠJapan ese
ĠgÃ©n Ã©r
Ġthey 're
áĥĲáĥ ¥
Ð»Ð¸ ÑĢÐ¸
Â £
Ġalt ijd
-w idth
Ø¬ ÙĬ
m el
Ġdesign er
c ache
Ġgro ot
ÑĢÐ°ÑĤ ÑĮ
Ġcommit ment
æĿ ĥ
Ð¸Ñı ÑĤ
Ġe q
ĠV ery
Ð² Ð¾Ð»
Ġinsp ired
ne j
Ġsign ature
Ġp t
. empty
Ġperson s
ĠC ase
Ġmass ive
ĠÑĢ ÐµÑĪ
V A
ĠM aj
Ùģ Ø¶
i w
à¸± à¸ģ
áĢ »
áĥ ĸ
Ġ$ ('.
Ġst ad
. ref
Ġaqu i
à¦ķ à§įà¦·
AM P
ï¼ ĵ
ÑĨÐ¸ Ñİ
B ound
ÐºÐ° Ñı
Ġfol ks
ĠD ES
w ort
ĠD om
Ġpro ceed
B on
- off
Ø§Ø¦ ÙĬ
Valid ator
à¤¾à¤ §
as ant
áĥĿáĥ ¤
inst all
ï¼ģ Ċ
Ġqu Ã©
Ġb ast
Ġmedic ine
ĠÐ¼ ÐµÐ´
è´ £
Ġh ora
Ġqu art
Ġsur prise
Ġac comp
w p
Ġcruc ial
product s
Ġê³ µ
Ġh es
ist es
ck now
Ġyou 've
Ġà¶ ¸
Ġhe 's
am bo
Ġfr agment
ir an
åĮ Ĺ
m argin
N N
ĠS ales
ĉ local
ĠO UT
OV E
r ad
.in ter
/ images
( arg
ĠS ant
ĠAmer icans
Ġm uk
Ġgam bling
an an
âĢĻ ai
d p
Ġn ors
àµįà´ ¥
ic ol
ĠDan iel
Ġsing les
ĠBe aut
Ġno ise
ograph ic
.m od
åĪ Ĺ
S ince
ĠQ String
4 80
Ú ģ
_m ethod
ç ı
Ġj us
Ġext ensive
çķ Į
ks i
Î» Î·
> ();ĊĊ
h ang
Ġé¦Ļ æ¸¯
Ġfour th
Perm ission
ÏĦ Î®
T F
ĠIs lam
Ġd ÃŃas
i ere
Ġre act
Ġmach en
Ġà¦ı à¦¬
EN CE
Ġt ussen
Ġimag ine
è¯ »
-------------------------------- ----------------
Con f
Ġì ¤ĳ
Ġ Å¼e
Ã¤ ch
Ð»Ð¸ Ðº
Ġil i
Sh op
Ġa ce
à¹Ģà¸ Ķ
ĠPerson al
ied ad
Ġà´ ¶
st o
ë° ©
ÒĽ Ð°Ð½
Ġv erv
à¤¾à¤² à¥Ģ
( temp
aren ess
Ġse ja
Ġal ta
der n
S elf
re b
Ġtem a
AC H
Ġæ± Ł
Ã¡t ica
ĠT Ã¼r
act ual
ÑĸÐ½ Ñĸ
ĠSt ory
ĠO P
å¦ ĩ
ãĤ º
f ar
Ġdi as
Ġà¤® à¥ĩ
x c
i est
Pro f
_ I
Ġre com
up a
ĠM achine
St ock
Ġtele vision
In sert
F ORM
ĠE sc
ativ as
ĠÑĤ Ð¾Ð¼
Ġb ind
B ig
_F ILE
æ ¹
ĠP A
Ġdel icious
m ag
Ġfor am
Ġport ion
.* ;Ċ
ĠN ight
à¸Ń à¸£à¹Į
Ġcheck ing
ĠG R
ĠA mb
v oke
15 4
-b ody
Ð² Ð¾ÑĢ
Ġpick ed
14 8
ĠàªĨ àªª
äºĶ æľĪ
Ġj etzt
ĠU P
Ġb ug
C md
ĠØ¯ ÙĪ
_ row
Ġwh ak
ĠÒ Ĺ
ãĤ Ħ
Ġmin ister
Ġs ag
Ġç Ļ
0 20
Ġfre edom
Ø§ÙĦ Ø¨
ĠProduct s
Ġe fect
å ĥ
M esh
ĠR andom
Ġur i
Ġviol ence
ear ning
ir ts
)Ċ //
is ke
Ġu st
ĠR od
à«ĩ àª°
Ġdig it
ĠÑĤ Ð¾Ð³Ð¾
. Un
/ lib
èµĦ æĸĻ
à¥ ¦
.T asks
M ail
Ġ[ ],Ċ
Ġsol ic
Õ¡Õ ¢
(t ime
Ġk ay
Ã¼ hr
P acket
LIC ENSE
Ġev t
Å¼ y
×ł ×ĺ
kw args
Ġincred ible
ĠS Ã£o
der r
fil ename
riter ion
Ġint ens
Ġreplac ement
Ġb om
Ġmod ified
Ġh og
Ġcompar ison
_ ;Ċ
Ġæīĭ æľº
ĠV ous
ĠA G
Ġw ak
Ġg ang
15 9
Ġspe aking
H D
àª Ī
à¸£ à¸´
Ġconstant ly
W in
ĠRuss ian
P a
17 7
ĉ ĠĠĠĠ
out ing
Ġcon crete
- level
Ġnot ification
ĠThere fore
ĠM iddle
Ġtr an
N G
Ġput s
Ġgro te
Ä ¾
Ġreve aled
aw ait
ĠÙĦ Øª
à¥ģ à¤¦
Ġd ah
ĠÑĤ Ó©
Ġn ed
Ġm k
En vironment
17 2
Ġreal izar
. Type
ÃŃ o
ival ent
l Ã¤
Ġacc ord
Ġwor se
ç Ĭ
Ġpro bl
Ġre cher
ĠH i
Ġus ual
ÙĪÙĨ Ùĩ
Ġdef in
S ecurity
l oss
Y P
0 12
Add r
. grid
( Http
Ġtyp ical
j n
Ġd raft
Ġempres as
H tml
Ġr and
Ġcar acter
ĠCh arl
! âĢĿ
ãģ Ľ
ĠÑĦ Ð¾ÑĢÐ¼
Ġadd s
Ġc able
ĠWill iam
ãĥ ģ
ss en
á»¯ ng
ĠC at
ĠÎ ł
. ID
ĠTr ip
W H
à¥ĩ à¤¸
Ġmain ly
Ġem ph
ĠÐ·Ð° Ð±
Ġag ents
D at
". $
ax y
ĠJ er
14 6
ĠØ§ÙĦÙħ ÙĨ
Ġsh ock
.L ayout
.m odule
Ġcook ing
ĠM u
def ined
Ġà¤¦ à¤¿à¤¨
en y
Ġconfirm ed
17 6
r f
à²¦ à²²à³įà²²à²¿
ä½ Ĩ
c imento
L P
iv as
n ote
h alt
Ġhistor ical
Ã Ĥ
) }Ċ
l on
ì ħ
ap ing
m ann
Ð¾Ñģ Ð¾Ð±
Ex ecut
½ Ķ
ĠÑĢÐ° ÑģÐ¿
Ö ĥ
Ġtr im
R ob
ĠÐł Ð¾ÑģÑģ
Ġren ov
Ġà¤¸ à¥įà¤µ
Ð¸Ð½ Ðµ
åĮ Ĺäº¬
16 6
_ app
ire ment
ãĢģ Ċ
Ġ) čĊ
ÐºÐ¸ Ð¼
ĠÐ½Ð° Ð¿
ver b
Ġà¤¸ à¤°
Ò¯ Ð»
ĠOpt ional
Ñĥ Ñī
Ġes k
45 6
Trans fer
åĬ ©
. op
field s
áĢ «
Ġnd á»ĭ
ub b
à´¿à´ ª
ĠTe ch
Ġàª¸ àª®
ĠÐº Ð°ÑĤ
æĪ ĺ
Com bo
Ð°Ð» Ð°ÑĢ
ĠÂ ©
åĲĪ æ³ķ
Th en
ĠØ¨ Øª
à¹ĩ à¸Ļ
Ġcapt ure
Ġam en
OM E
à°² à±ģ
00 7
à¥ģ à¤ª
ĠDis ney
áĥĶáĥ Ŀ
ĉs uper
Ġexc el
_ q
m itt
ÑĮ Ñİ
Ġfor ced
ëĭ ¹
ÛĶ ĊĊ
_T O
åħįè´¹ è§Ĩé¢ĳ
ĠÐ¿ÑĢ Ð¾ÑĤ
ä¸Ģ åĮº
æ¡ Ī
Ġl on
Ġnuest ro
Ġbu ff
æĢ ģ
Ġh ag
UP DATE
Ġ×Ķ ×ķ×Ĳ
à¯įà® ²
.n um
ĠN acional
ĉ let
! )
ÑīÐµ ÑģÑĤÐ²
ĠC art
ac on
ĠG eb
re qu
Ġcut ting
à«ĩàª ¶
Ġconcern ed
áĢ¬ áĢ¸
Ġy ard
Ġess a
ãĥĥ ãĤ¯
_ create
ĠRuss ia
à¦¾à¦ Ĺ
i ya
/ js
An al
Ġpo z
å¤ Ħ
2 24
Infl ater
Ġass ume
( se
um as
ĠĠĠĠĠ Ċ
ĠDe ze
æĮ ĩ
.B ack
PE C
Product s
Ġin a
Ġh ire
áĢ ¡
_N OT
g res
ĠÐ¿ÑĢ Ð¾Ð±
Ġf et
Ġhous ing
ĠÐ¸Ð¼ Ðµ
Ġon a
Ġorgan ic
Ġentire ly
Î¼ Î¿
ĠF ALSE
cont inue
ib en
Ġd Ã©s
s im
t f
ĠS U
Ġfore st
Ġg Ä§
Ġrecord ed
ĠY OU
ib us
pl ing
Ġj uga
ĠA LL
Ġcitiz ens
ull en
ĠS pace
ĠÐ» Ð¸
ĠÙĬ Øª
Ġlist s
ĠJ oin
Bl ack
ĠEurop a
Ġseg undo
Ġa comp
ĠR O
end ent
t c
Ġprim era
iv ot
Ø° ÙĦÙĥ
j Ãł
Ġkat ika
ÑĭÐ» Ñĭ
Ġnear by
Ġhon or
ĠMens chen
Ġm oy
io res
åĬ ŀ
ĠÐ±Ð¾Ð» ÐµÐµ
çİ ĩ
eh icle
Ã¡ d
ĠInitial ize
Ġre vis
Ġex iste
Ġwin ner
Ġog sÃ¥
àµģà´ µ
ĠPro perties
Test s
Ġdiffer ences
Ġc et
ĠM ic
Ġd w
Ġd op
Ġch am
Const ant
V E
< p
yst al
uk s
Cont ains
ĠN am
. al
ĠC ur
ard o
ong a
Ġà¤® à¤¿à¤²
ier no
Ġmov es
/ >Ċ
Ġp is
ĠEX PECT
Ġsitu ations
_ update
Ġnum py
ip ient
à§ģ à¦¨
Ġper ce
Ġit o
ĠØ§ÙĦ Øº
Ð¸ÑĢ Ð¾Ð²
Ġform al
Ġpro yect
00 6
Ġbe aucoup
ĠÐ²Ñĭ Ñģ
R untime
N ov
Ùħ Ùĩ
Ġb read
Ġpro of
Ġg ene
ĠÛĮ Ú©
15 8
Ò Ĺ
Ġà¤¤ à¤ķ
.s ort
ĉ uint
à¤°à¥įà¤ ·
p id
Pre ferences
Ġact or
ĠL ab
åĽ¾ çīĩ
type of
] ),
Òĵ ÑĥÑĢ
c in
åı Ĺ
Con sole
åŃ ĺ
'] ;
Ġm Ã©t
¿ Ģ
Ġt ourn
à®¾à® Ł
ĠS n
Ġg ol
ij ken
Ġdesen vol
S ite
Ġde j
Ġcharg ed
Ġknow ing
ĠÐ¿Ð¾Ñģ Ð»Ðµ
Ġpresent ation
Ġsche ma
l ass
Ġlig ne
2 12
à¸ ©
Ġproced ures
tr im
Ùĥ Ø©
Ġtrav Ã©s
Ġm Ã³
Ġ å¤©
à¹Ī à¸²à¸¢
Ð¹ Ð»
ĠCon st
Ġr ough
Ã¡ st
ĠW ild
- block
Ġreason able
D M
z ig
Ġregular ly
17 1
Ġl ift
ost i
çĶ ³
. items
D ict
ĠS A
áŀ ĳ
.p age
ĠT itle
ë² Ī
Ð¸ Ð½Ñĭ
ĠE ste
Ġwar ning
Ġsm ile
Ġvalid ation
il ities
Ġlov es
Ġn erv
ĠÐ´ Ð°Ð²
ĠM ich
ap ers
Ð¾Ñģ Ð¿
B uy
Ġcon form
Ġbel ief
ip er
ay ed
Ġz ak
ÙĦ ÙĤ
Ġwe aring
load ing
.s w
Ġh r
ĠCON DIT
Ġun f
att ed
ĠD VD
L M
Äį i
à² Ń
ĠDeuts ch
ny ch
( arr
ĠÐ´ ÐµÐ½ÑĮ
Ð¸ Ð¶
Ð¼ Ð¾ÑĤÑĢ
.n ot
áĥĺáĥ ¨
l ife
×Ļ× Ĵ
Ø¯ Ø§Ùħ
Ġdis h
Ġsubs crib
Ġcomp te
ĠØ§ÙĦÙħ ØŃ
ĠÙĨÛģ ÛĮÚº
áĥĺáĥ ĸ
à¸Ķ à¸´à¸ķ
Ġhat te
w el
enn y
ĠS pec
ĠDon 't
ĠJ on
Ġtr itur
ĉf inal
Ġu ur
ç¥ ¨
Ġperson a
Ġenc ounter
- V
Ġinform aciÃ³n
15 7
ĠAd min
Ġse i
> ;Ċ
Ġre produ
@ g
Ġest ud
Ð· Ðµ
ì ¤ĳ
Ġv as
×¡ ×ĺ
F amily
à¥ģ à¤¤
Ġt ik
Ġà¤¬ à¤¾à¤¦
Ġy ellow
trans form
z ien
w m
Ġevery day
ĠH al
ĠB ath
lim it
ĠSe ction
Ġnot ed
Ġdam it
Ïģ Îµ
éĹ »
ach es
Ġb rown
Ġun able
ä¼ Ĭ
Ġstat s
Ġåľ ¨
L eg
à²¾à²° à³Ĩ
Ġn ine
à²¾à² µ
Ġb out
Ġlist ener
ĠáĥĶ áĥ¡
Ġpercent age
Ġp aar
Ġfact s
- j
ĠD aily
an Ã§a
Ġcl uster
Column s
ĠMex ico
enc er
ate urs
. Use
Ġà¥¤ ĊĊ
l ayer
ĠS K
ĠB ible
Ġle ts
Al so
ĠÐ² Ð¾Ð´
Ġbo at
ĠPol ice
ty pen
_t emplate
Ġ? Ċ
g os
Â ©
ĠSm all
oun ce
Ġmag ic
x ff
ÑģÑĤ ÑĢÑĥ
Ġb iz
Ġr outes
Ġche z
ĠF air
Ġm ik
Ġgl ob
Ġi ets
In tern
æĪĲ äºº
n al
ĠU ne
ÅŁ Ä±
Ô ±
Ð½Ðµ Ðµ
al am
à¶ ľ
(s ub
- o
Ġt all
ĉ T
à§ĩà¦ķ à§ĩ
id or
Ġte eth
Ħà¸£ à¸Ķà¸´à¸ķ
ber ry
Õ¡Õ¾ Õ¸ÖĢ
.S how
. ad
áŁĴáŀ ļáŀ
Ġz ij
ĠT ool
Ġà¨ ª
\ '
ĠR ay
ĉĊ ĉĊ
ĠÐ½ ÐµÐ¼
ĠH on
%%%% %%%%
Ġimpos sible
Ð Ĩ
.Log ger
ĠÐ¾Ð± Ð»Ð°
×ĳ ×¢
Ġs essions
ĠNe ed
_ options
ĠPh ys
Ġfr am
Ġcon cer
Ġ" </
à«įàª¯ à«ĭ
ĠR ights
ãĢĤ ï¼Į
ĠCont roller
ĉ ĠĠĠĠĠ
( Object
Ġcol leg
ĠF urther
à²¦ à³ģ
Ġf ellow
Ġge v
Ġpr ison
Ġlomb ok
ĠM E
Ġpres idente
Ġfrequ ency
C red
Ġì ¹
t ree
Ġres ist
en um
ĠÑĩ Ð°Ñģ
ĠInd ustr
im ately
Ã¡r ia
ä¸» ç®¡
Pro tocol
Ġ` ${
Ġdat etime
vari able
Ġett Ã¤
Ġcrow d
_f ilter
Ġ×ĳ ×¨
_ format
ÐµÐ½ ÑĤÐ°
ĠCh ris
( query
áĥĲáĥł áĥĺ
66 6
æĪ ¿
Ġí Į
Ġsn el
ĠÕ° Õ¡Õµ
ĠB reak
f etch
Ġcould n
ĠPro file
pe z
Ġsub mitted
. Parse
ent ities
å½©ç¥¨ å¹³åı°
Ġg enu
ÙĤ Ø§ÙĦ
, B
Ġmat ters
ĠCon nection
.sub string
Ġnorm ally
áĢ ²
Ġwe alth
à¹ī à¸Ń
Ġsp an
S O
anc a
Ġemot ional
ĠM ail
Ġoper ate
æĿ ¡
S ample
Ġ×ŀ ×ª
à¤¿à¤ Ł
on te
Û Ī
ifi ers
Ġsub se
ey e
T ON
Ġvie le
pp ing
s d
TH ER
A IN
Ġà¦ ĺ
ĠV en
B en
pli ers
! !ĊĊ
ig keit
Or gan
Ġko ji
Ġco ast
Ġh ogy
ĠÑģ ÑĤÐ¾
ĠÕ ¦
ĠTR UE
Ġgar age
æİ¨ èįĲ
ÙĪ Ø´
å Ħ
ĠÐº ÑĢ
ĠIh re
Ġvo y
ab en
å¼Ģå¥ĸ ç»ĵæŀľ
in em
Ġmass asje
ëĬ ¥
ĠÑĩ ÐµÐ¼
_col umn
ĠÑĤ Ð°Ð¼
el de
ĠEx press
OD ULE
ãĥ ¥
web pack
ĠF A
íĥ Ģ
Ġ| =
Ġg ast
Ġrel atively
ĠÚ© Úĵ
Ġpap ers
£áĥ ļ
or ry
Ġmo is
Ġcl ip
ÑĪ Ñĭ
Ġa ra
Ġur ban
Ġsubs cription
Ġim per
( address
Ġb ang
B usiness
.con nect
è¿ ŀ
G reat
Ġn Ã¥
Ġinstit ution
fÃ¼ hr
ock er
Ġn unca
Ø² Ø§Ø±
- primary
ck en
Ġà´¨ à´Ł
Ex port
fo x
ë¬ ¼
j os
Ġscient ific
Ġ ike
_f rame
Ġg ap
. RE
ĠÎ± Ïħ
ĠT al
Ġmin imal
F oot
à±įà° ¸
ĠÃ© p
c art
v ia
à³įà² µ
ĠC ru
ÑĢ Ð¾Ð±
Ļ à§įà¦
ÙĦ Ø§Øª
- icon
ak ed
Ġselect or
Ġes pec
Ġn uestra
on ia
( image
D ER
ema akt
à¸Ļ à¸µà¹ī
ÙĤ Ø·
Ġren ew
am ine
- header
ĠÐ¼ Ð°ÑĢ
ĠWe ight
Ġout standing
Ġ×ĳ ×©
" github
ç»ı å½©ç¥¨
ĠTr aining
'] ))
Ġv et
à¥ģà¤ ĸ
h ere
Ġparticip ate
ÑĤ Ðº
Ġrout ine
ĠÐ³ Ð¾Ð»
à´ ļàµįà´ļ
ĠIm port
iment os
è ¼
Check ed
int age
B ag
ment ation
ĠJ ac
Ġk el
20 6
(st art
æķ° æį®
ĠÑģÐ¿ Ðµ
ĠÙĬ Ø¹
_ argument
U nd
/ LICENSE
âĢĻ ex
Ġk ok
/ ${
Ġmil k
ĠÐº Ð°
Ġcircum stances
20 8
Ġe ing
r ijk
âĢĻ .
ven ir
ä¸ ¤
ast i
ç ħ
Ġach ter
urs ing
ÐµÐ½ Ð½Ñı
Ġliqu id
ç§ į
pe ction
à¤ ıà¤ķà¥ĭ
æ ħ
à´¿à´ļàµįà´ļ àµģ
h ov
Ġclos er
Ġdel ight
àª¿ àª²
è½ ¬
ìŀ Ħ
_ port
- min
,Ċ //
ol en
áº£ i
Ġt iny
à¥ĭ à¤²
Gener al
ar ry
Ġspirit ual
In f
.be ans
à§ĭ à¦Ĺ
Ġfest ival
ĠáĥĹ áĥĲáĥķ
Ġshe ll
Û ²
ft en
Î½ Î·
ly ph
ĠAn other
Ġp ills
stit ution
Ġverschill ende
ĠÐ· Ð´
Ġch apter
[ Ċ
Col ors
Ġhealth care
ĠI B
Ġà¤¸ à¥įà¤¥
Ġ- *
Ġup coming
rupt ed
S witch
Ġredis tribute
ĠB ang
Ġcontrol s
cre dit
Ġcons ists
F D
Ġ}Ċ //
m ember
à´ §
Ġas sembly
Ġcas inos
( out
Ã¡ nd
Ġt ienen
(d b
P od
àª¾àª £
/ api
Ġcount y
Us uario
Ġsort ed
à²¾à² ¯
M ag
Ġdep ends
.s ession
ĠIN T
áĢ ®
ĠÏĢ Îµ
bl ank
Ġik i
: n
le i
_ op
Ġst roke
Ġw x
] );ĊĊ
} ",
typen ame
Ġar ts
: -
Ġcloth es
as ile
ä¹ ¦
à«įàª¯ à«ģàªĤ
Ġassess ment
ĠT ab
iss ing
Ġp ov
Ġn hi
à®¿à®ķ à¯įà®ķ
Ġpr Ã©c
êµ Ĳ
Ġ×ĵ ×¢×¨
Ġn en
à²¿à²Ĥ à²¦
ĠPr ime
Ġsp Ã©c
Ã ļ
ĠÐ² ÑĸÐ´
Ġcop ies
Const raints
ĠT err
Ġemploy ment
ig s
Ch anges
éĶ ĭ
00 8
Ġprefer red
im u
he el
Õ¸ÖĤÕ ½
ol y
Ġà¦¨ à¦¾
àµįà´ ¦
ÅĽ Äĩ
_n ames
Ġant icip
ĠP u
Ðº Ð¾Ð³Ð¾
Ġà° ²
Ġrelig ious
Ġ' ',
Ġà¤ķà¤¾à¤° à¥įà¤¯
Ġch ocolate
Ġmag azine
æľį åĬ¡
Ġk ang
ä» ĺ
5 50
à´¿à´² àµĨ
Ġz wei
ĠG uid
Ġà¦ §
Ġà¤ľ à¥Ģ
ĠØ§ Ø¨
F P
Ġæ Ģ
ĠJ u
à¦ ·
ĠR T
Ġm ond
ĠU SE
Ġmes es
ĠÐ°Ð² ÑĤÐ¾Ð¼
Ġcrit ic
_ header
Ġflex ible
Ġt elling
Ġhost ing
ĠAr ts
Ġd ipl
Ġmembers hip
Ġ[ -
Ġlist ening
ĠN ous
ÙĤ Ø±
Re cent
ia Ã§Ã£o
x d
ĠĠĠĠĊ ĠĠĠĠĊ
select or
Ġig ual
Ġth a
ĠA udio
Ġperson nes
at y
Ġob st
Ġh urt
ĠAcadem y
Pl us
ĠS W
es tr
Ġë¶ Ģ
Õ °
à§ģ à¦ķ
Ġlik ed
Ðº Ð»ÑİÑĩ
â ĨĴ
ĠR am
ĠE th
Ġw i
Art icle
ĠÙĪØ§ÙĦ Ùħ
ç Ĺ
Ġsil ver
Ġagr ic
/ >
à´ķàµįà´ķ àµį
Ġsh ower
Pr ivate
Æ° Æ¡
Ġhappen ing
ik in
à¥ĭ à¤Ł
for ward
ro gen
à³ģ à²¤à³įà²¤
Ġoccur red
ID E
Ġmatch ing
Ġext end
Ġnetwork s
Ġo x
Ġp ied
Ġde po
åħ ī
à°Ĥà° ¡
Ð² Ð°ÑĤÑĮ
Ġpo is
Ġcar a
Ġt et
_IN FO
Ġad j
à°Ĥà° ²à±ĭ
áĥĲáĥ ĸ
Ġtrack ing
Ġinter act
! ");Ċ
Ġre form
Ġng Æ°á»Ŀi
] ))
Ġde be
_ ind
ĠÐ²Ð¾Ð· Ð¼Ð¾Ð¶
Ġfun k
ĠM adrid
ÒŃ Ð°
le z
Ġak o
Ġmoet en
ÑĢÐ° Ð±Ð¾ÑĤ
d ays
}Ċ //
.m e
Ġf ic
ĠÐº Ó©ÑĢ
En v
m ek
Ġboy s
Ġaut re
Ġo re
Ð´Ð° Ð¼
he alth
Ġchalleng ing
Ø®Øª ÙĦÙģ
T ip
Ġse ine
ĠìĹ Ĩ
à¸§ à¸±à¸Ļ
cre ment
Ġh uis
Ġtok ens
Ø³Øª Ø®
c oll
2 13
Ġr ust
cre d
Ġcho osing
ĠS M
pro gram
Ġpod em
ition ally
à¹Ģà¸ Ĺ
Ã¡c il
Ġcirc uit
ĠTr ust
á» ·
IN K
IC ATION
ĠF ilter
Ġl ak
m ath
ĠÐ¿ÑĢÐµÐ´ ÑģÑĤÐ°Ð²
Ġbuild ings
ĳ Ĳ
Ġaffili ate
Õ¸ÖĤÕ©ÕµÕ¸ÖĤÕ¶ Õ¨
Ġcual quier
ar row
p es
), čĊ
Ġfeature d
ĠØ¨ ØŃ
Serial izer
Ġcorrect ly
ĠCONDIT IONS
Ġm und
ĠÚ©ÛĮ Ø§
Ġhous es
å¢ ŀ
Ġà²ħ à²µ
ÐµÐ½Ð¸ Ñİ
f u
_N O
ĠL anguage
ĠD raw
16 9
ĠRich ard
æ¬ ¾
Ġme j
S ound
unt u
ĠN ord
L D
ac ious
Ġconduct ed
Ġmer ge
Ð¸Ñģ Ð¸
Ġg Ã¼
- ÑĤÐ¾
ĠPh one
2 11
Ġt ul
ĠC y
ãĥ £
Ġom dat
Ġag es
ë§ ¤
íŀ Ī
ĠZ o
Ġìķ Ĭ
Ġwid ely
book s
F ill
ĠØ¨ ÙĬ
qu ote
Ø§Ùģ Ø©
×ł ×Ļ×Ŀ
à§įà¦ ®
. val
à° ¹
y ing
Ġà¦¤ à¦¾à¦°
Ġk ita
¾³ éĹ¨
Ġb rows
ac ias
Ġpost er
.s leep
à±ģà°² à±ģ
, s
Ø· Ø±
n os
Ġt ing
Ġn acional
×Ĳ ×ª
ĠÐ¾Ñģ Ð½Ð¾Ð²
ĠD ur
Ġsh r
_IN T
Ġdis appoint
Ġc af
è¯ ¢
au er
_ values
l ayout
Ġobserv ed
ĠÐ± Ð°Ð»
3 10
B asic
cla imer
Ġke v
. The
Ġestim ated
ĠÙĦ ÙĪ
Ġw rap
_ json
Sl ot
Â ¡
Õ §
ÄĻ d
ĠChild ren
is u
Ġleg end
ĠÐ¼ Ðµ
Ġdon n
Ġres ort
ĠR ot
Ċ ĠĠĠĠĠĠĠĠĊ
Ġrecogn ized
Ġz org
Ġin vent
IEL D
. values
Ġme Ã°
Ġt ai
Ġl ifestyle
æ ļ
Ġmin ha
Ġde leted
_v ersion
å¸ Ī
ĠKing dom
ĠØª Ø´
.l bl
Ġconsist ent
Ð°Ð½ ÑĤ
Ġre cruit
ĠÙĤ Ø¨ÙĦ
++ ++
ĠØ§ÙĦ Ø²
S napshot
ĠÐ¼ Ð°ÑĪ
ê¸ Ģ
à¹ī à¸Ńà¸ĩ
I ch
ĠBy te
G O
Ġí Ķ
int s
Ġsy nt
vis ible
Ġtime out
it ra
l ah
ific ial
Ġappoint ment
ĠL ie
Ġgrow n
pect s
log ger
Ġexpl ained
Ġwrit ers
ĠJ oe
èĬ ±
Ġtr ends
ĠÑĤ Ò¯
ĠS us
à«ĩàª Ł
_N UM
16 7
Ġí ı
ched uler
t ail
ãĤ ı
ĠÎ¸ Î±
ĠUS D
et ta
_r ate
ĠØ± Ûģ
Ġap are
Ġcol lected
wo ord
ĠÃ¡ rea
Ġfunction al
c v
Ġw ave
Ġwor st
umbn ail
Ġà² ļ
ä¿ ®
ÑĢÐµÐ´ ÐµÐ»
Ġho Ê»
oll en
_ err
Ñĺ Ð°
Ñħ Ð°
ĠÑĤ Ñĥ
own ed
ick y
ĠF ord
å¤ ĩ
ĠM atch
Ġh oy
p ing
LE D
ĠI F
Ġtax es
Ġà¤ķ à¥ģà¤
C trl
Ġos lo
St ud
Ġfac ing
ÑĢÐ° Ñī
ĠÕ°Õ¡Õ´ Õ¡ÖĢ
ĠPro v
Ġauthor ity
Ġol an
Ġencontr ar
Ġà¤ľ à¤¾à¤¨
Ġs aving
à®¿à® µ
è Ń
ter y
Ġ' _
ĠCon f
Ġhers elf
Ġman ip
à¦ ¡
ro d
p adding
ĠCarol ina
sh a
ĠáĥĲáĥ ĵ
ad an
ĠCorpor ation
Ġm am
áĥĺ áĥĺáĥ¡
Ð² Ð¾
IC K
ĠLe ad
Ġà¨ ®
Ġcont ained
[ (
ĠA qu
;ĊĊ //
Ġas p
Th row
Ġresult ing
Ð°Ð½ Ð¸Ð¸
åĽ ¢
ĠP erm
ĠT u
ĠáĥłáĥĿáĥĽ áĥĶáĥļ
Ġg ym
Ġne i
_ K
éĤ Ģ
çľ ģ
Ġin ici
à¤¨ à¥į
C ourse
Ð¼ Ð°ÑĤ
Ġw alls
Ġgr ant
ach a
Col lect
se x
ĠD ating
Ġcir cul
.com p
Ġfr ustr
æķ ´
ism iss
à¸ ĺ
ĠT ools
ĠÐ¼ Ð¸Ð»
Æ°á»Ŀ ng
Ġpet it
ãĢĤ ãĢĤ
åĩ Ĩ
Ġw ake
ĉĉĉĉĉĉĉĉ ĉĉĉ
Õ¡Õ »
ie ke
Ð¾ÑĢ Ð¾ÑĪ
åħįè´¹ è§Ĥçľĭ
( de
ile t
Ġà¦¬ à§įà¦¯
Ġ×Ķ ×ł
ĠC ath
Ġy og
Ġmy s
Ġad a
Õ¡Õ¶ Õ¡Õ¯
ni que
à¹Ģà¸ ķ
ĠìŀĪ ëĭ¤
. IOException
Ġsche duled
W ho
Ġinvest ors
cess o
ĠÙģ Ùī
Ġjust ice
ĠIt alian
Ġinvestig ation
à¥įà¤ ¹
Ġr iver
og rap
Ġeu ros
Ġvo ir
O ld
Ġdiscuss ed
] (
p ay
ug al
Ġàª Ł
ĠM ike
à¹Ħ à¸Ĺà¸¢
Ġà¤ī à¤¨à¥įà¤¹
. response
×Ļ× Ĺ
ĠÑģ Ð´ÐµÐ»
id ays
_ ASS
à¥įà¤ Ľ
ĠØ¨ ÛĮ
Ð¸ ÒĽ
gr y
m Ã¤
ĠSu pp
à¤¾à¤° à¤¾
.n ow
s u
Ġca us
Ġless ons
res ource
Ġc ob
ĠÐº Ð°Ñĩ
à¤Ĺ à¥Ģ
Ġto ch
.f actory
_f r
Ġwith draw
àª¿ àªµ
.m inecraft
Ġdanger ous
M obile
k h
in iz
== '
ä¸į åį¡
Ð¾Ñģ Ðº
Ġv Ã©
ient ation
.se curity
anne er
å¤§ å¥ĸ
å¹ ¿
ÈĽ i
Ġsupp lement
Ġdel le
Ġcontr ast
ĠBAS IS
ĠH am
ĠK E
à¤¾à¤ ¡
qu ential
Ġáĥĺ áĥĽ
#! /
o is
Ġeng agement
Ġstat ements
Ð° ÐµÑĤÑģÑı
ĠP ack
- le
Ġmiss ed
Ġmur der
Ġopp os
Ġform ed
Ġimplement ed
à¥Ĥ à¤°
Ġv ille
ĠTh rough
à¤ ĺ
ĠE asy
Ġphilos oph
ID TH
Ġconse gu
Ġform ula
Ġco al
Ġimpro vement
Tr igger
UN CTION
ĠJohn son
Ġbe er
ë¥ ´
Ġsup plies
_ST ATUS
_T IME
Ð² Ñĭ
f b
Ġax ios
ĠB ody
ra ine
ÑģÑĤ ÑĢÐ°
) ?
Ġsurround ing
ĠÐ¸ Ñģ
Ġexecut ive
Ġdr am
re as
Ġpl anned
' aut
å§ ĭ
ÄŁ i
ch ester
à¸¸ à¸ķ
à¤¸ à¥įà¤¥
IS S
Ġ ];Ċ
a que
Ð´Ñĭ Ò£
ĠK h
Ġad apter
à®Ļ à¯įà®ķ
Ġcent ro
Ġadv oc
Î» Îµ
Ġà²¸ à²Ĥ
Ġz eg
ĠJe ff
Ġk ir
Ġne ue
[ assembly
Ġ×ŀ ×¡
. Int
az y
Ġst orm
ĠØŃ ÙĬØ«
ÙĪØ± Øª
ĠÐµ Ðµ
à¶Ń à·Ĭ
Ġt ang
Ġs Ã¼
à¤°à¥įà¤ µ
u ce
ul as
Ġre ar
17 4
ÐµÑĢ Ð¶
< I
Ġbel ong
ond s
àµģà´ ³
n ic
Ġ Å
in na
.G raph
ach ten
ĠL iving
à¥ģ à¤®
àªµ à«Ģ
D I
Ġz ona
ĠF ern
Ġpou vez
ØŃ ÙĨ
-t ype
L ive
23 4
- be
Ġnov o
Ġf ake
Ġmin er
à¤¤ à¥įà¤¤
ĠF uture
() [
Ġmark ed
.S h
Ġexp lic
à¸ ĭ
.n l
Ġl is
Ġup grade
Ġà¦ıà¦¬ à¦Ĥ
avor ite
Ð¾ Ð¸ÑĤ
ĠJ os
Ġreport ing
(" ");Ċ
rior ity
à®¾ à®°à¯į
Ġdes k
Ġf ault
ĠCons ult
M IN
at ique
Ġw an
ĉ v
Ġ iv
à¤Ĥ à¤¡
ĠP ed
áŁ Ĥ
å¿ ħ
ĠÑįÑĤ Ð¾Ð³Ð¾
ĠC redit
Ġrob ot
Ġple ased
Ġà¤² à¤¾à¤Ĺ
80 8
áĢĦ áĢº
Ġà²®à²¾à² ¡
Ġsch n
áĢ ļ
ud d
key s
P H
w idget
ĠCh ief
_ html
Ġ×¤ Ö¼
@g mail
Ġb w
_B U
Ġele ktr
äºĶ åĪĨå½©
Ġo lar
_de vice
Ġdatas et
or able
à²¾à² ¦
. Status
Ġt Ã¡
èĤ ¡
! (
ĠA I
ih an
ĠÐº Ð°Ð¼
Ġcr ash
. Response
ĠØ¨Ø§ Ø´
od en
_h ash
Ġh ate
the me
Ġrap port
Ch ain
br id
ph ones
kom men
ĠH ost
Ð³ Ñĥ
Ġbet ting
Ġre cht
ĠÕ Ħ
_ entry
ĠSol ution
Ġìĺ ¤
Ġex ecution
èģĶ ç³»
Ġstand s
Ġf oc
6 50
Or iginal
Ġaddress es
Ġp atch
à¸Ľ à¸£à¸°
Ġpost ing
Z ero
tra ction
Ġme at
( player
Err ors
Ġplus ieurs
ëł Ī
ĠÕ´ Õ¡Õ½
Ð½ Ð°Ð»
ĠCan adian
Ġdeb ate
_F L
( E
IRE CT
n em
Acc ording
Ġal c
à¦ Ľà§ĩ
Ġp em
ĠE L
Ġl lam
Ġ×Ĳ ×ķ
Ġcont ro
Õ¡Õ¶ Öģ
ĠÏĦÎ¿ Î½
ĠC riteria
Ġmen y
ĠÐ¿ÐµÑĢ ÐµÐ´
17 3
ĠL ittle
ĠáĢ ¡
W indows
ĠSt ation
Ġpre g
( H
od at
Ġm att
Ġman e
ist ent
, int
Ġgen re
ĠFin ancial
Ġà¤¤ à¥įà¤¯
Ġc atalog
ĠS ide
Ġch ief
N avigation
Ġher o
Ġres istance
à¦¿à¦ ¸
Ġr am
ag ination
ĠTr avel
Ġqual quer
.b uild
Ġy ok
à´¾à´ Ł
Ġà¤ªà¥įà¤° à¤¤
Ġs s
oc s
Ġrem ark
. IN
A ge
Ġin frastructure
Ġinc ident
Ġen emy
ast y
k un
-st yle
ĠSet tings
pl t
all enge
Ġa cknow
Ġah ora
ĠDr ive
Ġv ale
at tern
Ġcol on
ÐºÐ° Ñħ
ĠĠĠĠĠĠĠĠĠĠĠĠĠĠĠĠĠĠĠĠĠĠĠĠĠĠĠĠĠĠĠĠ ĠĠĠĠĠĠĠĠĠ
/b in
ãĥ ĩ
u at
ĠM ust
. q
ä¾ Ľ
à«įàª ²
æľ¬ éģĵ
Ġge Ã§
Ġguid elines
Ø§ÙĨ Ùĩ
ak y
âĢĶâĢĶ âĢĶâĢĶ
Ð± ÑĢ
ĠW o
_ Get
Ġw itness
r ange
ãĥ ĭ
ĠN Ã£o
ĠÐ²Ð¸Ð´ Ðµ
.S erial
ĠCom o
Ġch ances
> =
Sp an
Û į
Ġ×ķ ×ŀ
Ð°Ð½ Ð´Ð°
Ġcom erc
Ġà¤Ĺ à¤°à¥ĩ
ì° ¨
ip h
A w
Ñĸ Ñģ
Ġatt acks
Ġan che
ff en
ĉ gl
è° ĥ
.p anel
c uss
Ġont w
d ict
ĠO lymp
à¸Ń à¸Ńà¸Ļà¹Ħà¸¥à¸Ļà¹Į
B alance
ke ep
Ġhor se
Ġinstit utions
app en
Lo op
Î¿Ïħ ÏĤ
db c
ĠØ¹ ÙĨØ¯
TE ST
We ek
Ġe con
å¹ ¶
Ġreplac ed
Ġd rawing
at ra
ĠB ear
à¤¿à¤Ĥ à¤Ĺ
ĠÐ´ ÐµÐ¿
(' ../
Ġk em
ap ons
ĠÙ¾ ÛĮ
ĠBl u
J ohn
Äģ k
Ã¼ ber
ĠìŀĪ ëĬĶ
< li
ĠÐ· Ð½Ð°Ñĩ
i ÃŁ
ĠÄĳ á»Ļ
èµ ļ
ĠÐº Ð¾Ð³Ð´Ð°
ĠCh annel
_ email
ro ck
ÙĦØ§ ÙĤ
e o
C ursor
_w rite
Ex pr
Ġà¤¬ à¤¹
ç» Ļ
Ġso o
Ø¬ Ø©
er es
Ġreg ions
ix o
] )ĊĊ
Ġsuggest ed
ĠD IS
l ab
à¦² à§ĩ
ĠIn stead
Sh ader
Ġd Ã¶
w ill
Ġsche me
Ġm art
à¹Ģà¸ ¡
cel ona
áĢ ģ
Ġs ick
ge ben
.p assword
Ġmak a
ĠĠĠĠĠĠĠĠĠĠĠĠĠĠĠĠĠĠĠĠĠĠĠĠĠĠĠĠĠĠĠĠ ĠĠ
ĠSystem s
m ay
ĠF our
af i
Ø¬ ÙĦ
Ġcon nections
ĠYou ng
Per iod
Ġl am
Ġincre ases
ESS AGE
ä¼ ģ
ĠA le
ĠÙĩ Ø§
UN T
ĠTh ose
à¹ĩ à¸ļ
Ġgener ic
Õ¸Õ ½
ĠAustr alian
St age
Ġd re
ig ma
Ġturn ing
ĠÐ° Ð»Ð°
Ġrel acion
Ġr adius
Ġap pr
ĠÐ´ Ñĥ
Ġen umer
_f unction
ĠØ§ÙĦØ£ Ø³
Ġë§ Ī
-al ign
é£ İ
Ġt aught
k ap
. server
_ co
iz en
ĠT en
incip al
Ang le
ro ph
ĠA ge
Î» Î±
Ġac ord
ĠÐºÐ¾Ð½ ÑĤ
åħ ļ
Ġmul her
Ġk in
ov ers
h igh
ĠLin ux
us u
p ie
ĠÒĽ Ð¸Ð»Ð¸
Vol ume
p as
à¤° à¤¾
W as
ĠInitial ized
Ġcomp act
Ð¾Ð» Ð¸
ed or
_E Q
Ġn ic
_e lement
à¦ ı
Ġpack et
od igo
Ġà¤ķ à¤¿à¤¸
Ãł i
Ä±nd an
ĠO THER
Ġs ap
uch en
ĠV oor
à¶ļ à·Ĭ
ĠR os
Ġg b
Ġand a
ch arg
ĠJah ren
ateg oria
Ġcould n't
æ¯Ľ çīĩ
Ġà¹Ģà¸ ¥
Ã¤ re
ia h
Ġà¤Ń à¤¾à¤°
à¤¾à¤ £
et z
Ġar ms
[: ,
Ġlos ing
Ġlib ert
. ",
Ġwhen ever
ond ers
Ġà¦¸ à¦Ĥ
f ur
.pro duct
áº ±
äº Ľ
Ġexpect ations
} \
Ġnh á»¯ng
T YPE
F B
ĠM oney
ĠØ¯ ÙĪØ±
Ð¾ Ñŀ
raz il
Ġpass ing
Ġin struction
.f rame
al endar
Ġth orough
Ð°Ð¼ Ð°
Ġent reg
Ġin ches
ol is
ĠÑĥ Ñģ
Ġmonitor ing
er ed
Ð´ ÐµÐ½
il ly
Ġinsp ir
ĠOr iginal
Ġcha que
Ġk op
æľ ¨
er te
ëĶ Ķ
0 21
sc ore
st Ã¤nd
ÙĨ Ø§Ùħ
ar ian
_f ree
Ġfil ters
í ĽĦ
Ġstruct ures
Îº Îµ
ĠSh are
à§ĩà¦ ¤
ĠÐ² Ð·
ac io
Ġf eb
ag an
ĠdÃ© velop
L ibrary
Ġfun ny
C ountry
Ġun iform
J ava
.l ine
ess en
t p
Ġes a
ãĤ ¦
ÙĪØ± Ø¯
Õ« Õ¿
ING S
ĠdÃ© jÃł
ĠBer lin
ĉ add
Ġst or
å¤§ åħ¨
à·Ĵ à¶º
Ġb one
ĠÐ½Ð° ÑģÑĤ
Ġmus cle
ut ch
' čĊ
Õ Ģ
Ġocc urs
OP Y
AN N
à¦ķ à§ĩ
Ġhe cho
at ta
_pro duct
Ġpandem ic
Ã© ho
äºĮ åĮº
Ġvul ner
Ġìĸ ´
Ø« ÙĬØ±
Ġinform ed
Ġmag net
om men
fo ot
ĠÐ ¦
Ġe ens
< a
í Ĺ
¬ ¬
Ġà §
Ġade qu
Ġà¶ ħ
D a
Ġ ÑĸÐ½
ĠØ§ÙĦÙħ Ø¹
An other
Ùħ Ø§Ø±
Ġgu itar
ĠB al
Ġj ack
sc ale
.. ...
Ġgraph ics
ĠFr ont
Ġmet adata
Ġb old
çģ «
ĠB und
Ġdis able
20 7
Ġdisc ip
ĠÎ ¬
Ġse it
Ġcr ushing
æĺ¯ çľŁ
x b
è Į
ĠM ur
Ġair port
S pecial
C he
Des ign
.F ind
æĵ į
Ġk ah
ĉ err
ĠEl le
ĊĊĊĊ ĊĊĊĊ
Ġo tra
le ur
éĤĢ è¯·
åĪ Ļ
Ġbet a
ĠM ut
åĲ ĳ
e ach
as tern
ĠC ourse
Ġweek ly
Ġp up
Ġj ij
ic iones
Ġris ks
Ġh ur
ĠÑĤ ÑĥÑĢ
Ġà¤µ à¤¹
áĥĿáĥ ª
Ġpeu vent
ĠSt aff
Ġj ours
Ġcl im
are st
Ġho og
Ġ×Ķ ×ĳ
ĠArt icle
ĠØª Ø§
Ġà¤ħà¤§ à¤¿à¤ķ
ĠvÃ¦ re
ĠB us
ĠSu ccess
g ment
Ex ists
w art
v d
ì ¤
Ġer u
¥ à«ĩ
âĹ ı
VAL ID
ex pr
Ġguid ance
Ġåį ļ
à«ĭ àª²
Ġdeb ut
.m atch
Ġposs ess
àª «
Å Ń
Ġpaint ing
. const
Õ¡ÖĢÕ ¿
áĢ Ĭ
à¤Ĺ à¥ĩ
ĠR io
ver ify
íı ¬
ed ere
à¤¾à¤ ĵ
tr ain
ra id
li as
Ðµ ÑĦ
ç« ŀ
Ð° ÑİÑĤ
áĥĲáĥ ĸáĥĶ
red ict
à¸ ĵ
ĠB UT
C u
r m
Initial ize
du ce
Ġb ow
et adata
B reak
ĠJ ones
Ġregul ations
ĠØ£ Ùħ
Ġ( -
Ġgr anted
Ġì Ľ
b ec
à¸ģ à¸£
Ġcont est
S I
E G
ĠØ³ Ø§ÙĦ
_d b
Ġus u
pre c
vel le
ĉ x
clar ation
Ġsh a
Ġ` `
ĠÏĥÏĦÎ· Î½
pl atform
2 14
Ġpl ain
Up per
Ð½ Ð´
uck y
ĠH il
Ġevalu ation
- related
ĠD id
j ek
Ð½Ð¸ Ñĩ
ĠVirgin ia
Ø§ÙĦ ÙĬØ©
Ġtable t
_t ag
Ġre action
Ġd ynam
d h
ĠR ub
ĠUs ed
Ġoffic er
AD ER
Ġbutton s
v Ã¤
Ġáĥ¨ áĥĶáĥ
Ġu ye
áº§ u
Ġpurch asing
Ġpack ages
Ġt Ã©lÃ©
IE W
ÙĪ Ùī
Ġsecond ary
Ø§ÙĦ Øª
ĠÐ· Ð°Ð½
Ġse ctions
te k
ĠPat r
ĠÑĢÐ° Ð¹
á» Į
Ġredu ction
à¸´ à¸¡
Ġag encies
. ",Ċ
Ġproble mas
Ġappe al
ges ch
Ġ×Ļ ×©
as o
O O
b ild
Ġexpos ure
ch annel
ĠÑĥ Ð²
n og
.se lected
ĠL IMIT
ex ecute
ĠD ictionary
ĠIh nen
Ġconflic t
ip a
Ġà¤ľ à¤¿à¤¸
ëħ ¸
. o
ĠÐ¶ ÐµÐ»
ï¼ ł
ore m
Ġfe aturing
Ġdes puÃ©s
t body
ĠÐ½ÑĥÐ¶ Ð½Ð¾
l ined
> "
s pec
.re pository
ãĥĥ ãĥĪ
åħ ħ
( q
go ogle
ĠReg ion
Ġass igned
âĢĻ r
â ĳ
å° Ķ
à´° àµģ
Ġku wa
Str ategy
ĠU hr
W arning
à°¿à°Ĥà° ¦à°¿
Ġperson nel
Ġà¸Ł à¸£à¸µ
ĠÎ £
ĠEngine ering
ÙħÙĬ Ø¹
å£ «
âĢĮ ÙĩØ§ÛĮ
. int
Ġpe que
Ġc Äĥ
Ġà¤¨ à¤¿à¤°à¥įà¤
} "
w end
Ġ×© ×ŀ
ĠR outer
Ġà¤ķà¤¹ à¤¾
ĠA ust
let es
Ġlux ury
Ġcan n
b ors
ĠH an
7 20
_t ypes
Ø± Ø³
E ven
im en
Ġresearch ers
Ġn al
Vis itor
å§ Ķ
Ġtr ace
Ãªn cias
èĻ İ
çĶµ è¯Ŀ
Ġv ou
Ġcra zy
Ġel imin
Ġo portun
ot he
ÉĻ d
ĠA ud
Ġrecogn ize
Ġacon te
Pr imary
ne k
à¹ī à¸²
Ġáĥ «
Å Ĩ
Ġadvent ure
br idge
ĠInd ones
Ġesc ape
Ġc n
Ġd p
ĠC C
à²¿à² µ
Ġ< -
Ġà¦¥ à§ĩà¦ķà§ĩ
av ad
ok ed
.App end
Ġd ra
Ø¹ Ø§Øª
che me
à´¿à´¨ àµįà´±àµĨ
Ġà¤ķà¥ģà¤ Ľ
à²¿à²¦à³įà²¦ à²¾à²°à³Ĩ
Ġm arg
Ġsuggest ions
Ġab use
.B ase
Ġshe l
Ġple asure
ĠëĤ ´
Ġer f
Ġposs ibility
ĠØ³ ÙĨ
cept or
Ġh its
ĠC i
Ġcontem porary
Ġanc ient
Ðµ ÐºÐ°
_ height
/ app
Ġdom estic
. edit
ĠWh ich
am h
ij f
Ġs ir
à¸¸ à¸Ķ
ÅĤ y
R aw
Ġes cr
r b
z Äħ
Ġf Ã¡cil
ot en
UN D
Ġfamil ia
Ġold u
ĠC ivil
.D ef
ĠF ast
og ram
Ð»Ñĥ ÑĥÑĢ
ĠS ep
Ġcamp us
Î Ŀ
à¨¾à¨ Ĥ
Øª Ø§Ø¨
c ustomer
ĠPol it
ER Y
Ġà® Ĵ
und i
èĪ ª
Ġindic ate
ĠÏĦÎ¿Ïħ ÏĤ
ĠÙĪ ÙĦ
Ġtim est
C lear
cl oud
Ġsuc ceed
à§ĩà¦ ĵ
ĠSp anish
ĠPr act
Ġm Ãºs
å¤ ±
åĨ Ľ
ĠØ´ ÙĬ
2 15
Ġd ik
Ġsal ary
Ø§Ø¦ ÛĮ
Ġdiv ision
Ġcompl aint
ar is
à°¿à° ²
Opt ional
Ġk ter
Ġach ie
Ã¶r t
Sh ared
Ġst retch
ivid ual
Ġ ÅĽ
ãĥ»ãĥ» ãĥ»
Ġprof essor
/ :
è¯ ķ
Ġk os
Ġevalu ate
Ġà² Ń
ĠL abor
Ġr ib
ĠFe atures
Ġperson ally
Ò³ Ð°
Ġpow der
.C heck
Ġ×ľ ×©
Sh ould
Ġon going
i Äį
æľ ¯
Ġnew sp
Enumer able
àµĩ à´°
Ġch icken
iddle ware
Ġr ail
. Q
( app
ĠÐ´ Ð¸
ub s
30 4
Ġà¤Ĺà¤°à¥įà¤ ¨
( view
à¥ģ à¤ķ
Ġd abei
- con
Ú Ļ
an os
ĠÑħ Ð¾ÑĤ
Ġp ont
Ġelig ible
Ġperman ent
Per cent
åİ Ĩ
ĠF arm
ĠM B
ĠÏĦ Î¹
ub ble
ĠM ade
Ġmount ain
àª¾àª° àª¾
- fl
Ġ×ĳ ×Ķ
Oper ator
();Ċ //
ĠI V
Ġover w
ent lich
ĠCon ference
Ġle ague
Ġcomb ine
Lat est
ĠM otor
ER C
Ġ áº¹
Ġa Ã§
Ġdeal ing
Ġre fr
Ġn iveau
ĠAr m
Ġà² Ī
ĠPa ulo
in ity
Ø± Ø§Øª
= -
d one
Ġconf ident
Ñĳ Ð½
il ation
ĠpÃºblic o
Ġàª¤ àª®
ab u
ĠÎ ¤
Ġne k
Ġ{ }ĊĊ
e q
Ġà²® à²¤à³įà²¤
å¤ļ å°ĳ
( User
Ġstat istics
ĠÕ¯ Õ¡ÖĢ
à°¾à° ¤
_m ask
ĠG ets
w aku
ĠB R
Ġheb t
- quality
à§įà¦ §
Ġb undle
( date
Ġelectr ical
( os
Õ¡Õµ Õ¶
ãĥ³ ãĥĪ
æ ½
Ġk en
ser tion
âĻĢ âĻĢ
Ġnod ig
y ll
ha ust
Ġin ventory
á»± c
Õ¥Õ ´
Ġver z
Ġo tras
Qu antity
oc om
check box
Ġ×ĳ ×ª
ak ter
Ġj ong
à¸¸à¸ķ à¸ļà¸Ńà¸¥
Ġa par
ĠS amsung
c en
d ating
ĠProf essional
Ġà¤¥ à¥Ģ
ĠÐº ÑĢÐ°
Ġ ä¹ħä¹ħ
ask a
w ert
.l ocal
ĠìĹ ¬
Ġpod cast
ot te
ic ode
Ġf ur
ur idad
Ġintegr ated
Ġres ume
Ã¢ y
() ){Ċ
r and
od ge
Ġlight ing
ĠVeg as
ĠCov id
Ð²Ð° ÐµÑĤ
Cl uster
/ bootstrap
Ġfig ures
àªĤ àª¤
à¤Ĺ à¤°
Ġo st
á» Ĺ
Ġacc eler
Ġk ana
Ġcomple ment
Ġterm inal
nav bar
Ġleg it
ĠR ES
FF ER
Ġf orth
à¸Ľ à¸£
z ed
ĠÑĥÐ¹ ÒĵÑĥÑĢ
RE AD
Fr amework
(" [
ĠÑĢ ÑĥÐ±
Ġr ug
Ġj ue
Ġlic ensed
áĥĲáĥ ¨
a as
.ed u
ac ia
Ġb ars
Ġdo it
order ed
Ġcorrespond ing
ï¼ļ Ċ
B log
pl ays
ig ue
ĠP osition
ë ¸
re land
Ġs ight
ĠT i
Ġnew ly
Ġv ide
Ġse o
Ġinter es
Ġdi abetes
à¤¨à¥įà¤ ¦
Fail ure
cont ains
æ² ³
ĠÑĥ Ð»
_CON T
ÅĻ ÃŃ
Ġwas h
l agen
Ġnh Æ°
Ġpres ents
cre ts
Ġl aptop
Øµ Ùģ
Ġì ¡°
ĠØ¨ ÙĪØ¯
Ġpr on
Ġáĥ¡áĥĲáĥ ¥
Ð² Ð°Ð»
A ug
Ġdo se
Ġcas ual
ĠEdit or
Ġguarante ed
. options
Ġ íķ´
à¦¾à¦ ģ
s es
ĠDel ivery
Ġarrang ement
Ø± Ùī
ãĤ »
Ġç ¬¬
Ġsent ence
ÃŃcul o
hal b
Ã¤ lt
à¹Ģà¸ Ľ
ĠTh ree
% ĊĊ
Ġinnov ation
Ġsu iv
ĠÐĿ Ð¾
F ixed
à¸ª à¸Ķ
Ġsh adow
Ð¼ ÐµÐ½ÑĤ
cho ice
ang el
Ġ# Ċ
- Type
Æ°Æ¡ ng
Ġth u
ug gest
áĤ Ķ
B uf
Ġlat en
ĠM ovie
ad el
ØŃ ÙĬ
Ã¡ ct
U nder
um o
ìĸ ĳ
ĠÐºÐ¾ÑĤÐ¾ÑĢ ÑĭÐ¹
Ġentrepr ene
Ġresult ado
åħŃ åĲĪ
Ġinsp iration
Ġshoot ing
Ø¯ Ø§Ø±
s ince
M AX
ĠS ound
ĠTe il
UT E
Ġfound ation
Ġf Ã¸r
ull a
ĠA y
ing ers
Ġsuff icient
ab ol
Red uc
Ġs endo
Ġbas ically
ìĹ Ń
ĠThat 's
Ġê ´Ģ
à°¿à°ķ à°¿
ĠHT TP
è ĳ
inter est
in ni
áĥĲáĥ ¤
_ default
çİ ¯
z ir
Ġph en
ain es
( Context
ere k
B ed
Ġn Ã³
Ø¹ ÙĪØ¯
', $
Ġê° ľ
ĠáĥĽ áĥĺáĥ¡
Õ«Õ ´
F ire
au pt
Ġfl av
ol Ã³g
ĠU t
] ).
Ġser ie
ic amente
ĠÐ¼ Ð¾Ð»
ĠÐ´ ÐµÐ¹ÑģÑĤÐ²
f Ã©r
Ġdim ension
c ourse
Ġjus qu
Par allel
Ġinput s
ous el
Ġh indi
Ä± s
Ġbox es
Ġ} ),Ċ
ĉ virtual
ĠT y
up dated
ĠØ§ÙĦÙĬ ÙĪÙħ
à©± à¨
Ġqu ed
Ġbott le
ĠB asic
ÙĪÙĨ ÙĪ
_ response
ĠH P
T ra
Ġappro val
st ock
R adio
.b oot
======== ====
on ce
Ġle ven
ĠF ol
enn es
ĠÐ¾ ÑĦ
Ġcollabor ation
ist ed
Ġw Ã¼r
hold ers
Ġsubject s
Stand ard
(n p
pl ant
à¸§ à¸¢
any ak
Ġcol le
ient ras
qu antity
Ġver g
Ġcir cle
ĠAl tern
èĲ ¥
om eter
V i
Ġí Ĩ
Ġáĥĺ áĥ§
_p assword
Ġend ing
Ġcontinu ing
ĠÕ§ ÖĢ
Ġfind s
.pre vent
ĠG ir
(l ong
Ġv rou
Ġtom orrow
_r ange
b ad
< input
Ġbeh and
Ġem ails
à¸µ à¸ģ
ĠØ´ Ø¯
à´Ļàµįà´Ļ à´³
ĠÐµ ÑīÐµ
ĠDo or
é¡ ¹
u est
ĠBr and
ar f
Ú Ń
ot ing
-t oggle
or no
b n
Ġh id
à´¾à´ ¸
pu esta
Õ¸ÖĤ ÖĢ
Ġin k
ĠD ir
éª Į
B ad
put nik
ĠØ± Ø³
nt own
à±įà° ļ
ĠåĲ į
Ġà¨ ľ
ĠAl ert
ĠHe ader
B ank
à´¿à´¨ àµį
Ð¸ Ð½Ð¾
Ġf aces
ĠÄĳ á»ĥ
ãĢĳãĢĲ ï¼Į
Ġ# [
ath an
] ["
b ine
áĥĲáĥ ĺ
âĢĻ ab
ĠA SS
ë² ķ
Ġmark er
< span
ĠÐ» ÑĥÑĩ
ĉ h
Ġà¸ Ĥ
Ñĥ Ð»Ñı
m ands
Ġd ice
Ġs Ã©rie
fl ix
ĠQual ity
ĠD ans
30 1
in ig
-l ike
M ovie
Enumer ator
l le
du x
erv ation
I K
Ġå ¼
ch os
Ġseg unda
s n
ĠÐ¼Ð°ÑĤ ÐµÑĢÐ¸
Ġcheck s
Ġmo o
il st
d x
ĠD ire
à² ·
Ġauthor ities
Ġn ivel
Ġst able
Ġkle ine
Ø¯ Ùī
. am
×ľ ×Ķ
'] [
Ġ×Ķ ×¡
Ġpr ima
ung an
ĠSe a
Ġb ias
Ð¸Ð½Ð¸ Ò£
ĠØ§ÙĦ Ùĩ
Ġequ ipo
Ġl ayers
æŀ ģ
èµĦ æºĲ
Ġel es
OUN T
Ġdeterm in
ĠH ay
çĶ »
Ġfavour ite
Ġst unning
ĠB at
d on
Ġd ictionary
Ġcal idad
Ġfair ly
ĠÎ ļ
A ir
ĠG O
Ġatmos phere
Ġpar c
Ġpart ie
à®¾à® ¤
Ġdec ir
T im
Ġt ube
H L
ĠF C
< br
Ġë ¯
Ġsub stit
Ġà¤ ĵ
Ġnie uw
Ġb acter
] :Ċ
all as
ĠG as
or iginal
ĠO ok
ĉĉĉ čĊ
Ġimmed iate
4 20
ĠR ose
Ġac qu
Ġc ake
Ġd ust
Ġpublic ation
Ġconv ersion
Ã¤ ft
Ġex tern
Ð¾ ÑĥÐ¿
×Ĵ ×¢
à´¨àµįà´¨ àµį
Ġexpress ed
Ġtrack s
Ġcon na
Ġle is
Ġa ve
à¦¤ à¦¿
Ø§Ø¯ ÙĬ
Ġpr zy
Ġco in
x i
g red
ĠØ§ÙĦ Ø§ÙĨ
ĠìĨ Į
Ġalg orithm
uh an
à°¿à° °
ĠK al
Ġ[ ],
_ left
Ġs is
ĠTr ib
ĠÐķ ÑģÐ»Ð¸
B T
Ġàª¸àª¾àª ¥à«ĩ
Ñı Ð¶
Ġt Ã¶
ĠÐ¾ Ð½Ð°
ë° ľ
Ġa ka
ath i
ĠÙĪØ§ÙĦ Øª
Ġl eng
Ġtr ained
L ines
Ġrel ief
Õ »
gy pt
Ġun ion
Õ¥Õ¬ Õ«
Ġpas se
Ġà¤° à¥Ĥà¤ª
Ġmes h
ĠS ets
Ġdel s
d im
Or igin
Ġaf in
ĠChar les
Ġtrans actions
Ð¸ÑĢ Ñĥ
Ġwur den
Ġà¤ Ĳ
Ġimpress ive
\ ":
le k
in f
. (
ĠGu ard
Ġolar ak
Ġìĥ Ŀ
Ġst em
ĠS at
à¤¿à¤ ª
Ùģ ÙĤ
ĠÕ¥ ÖĤ
Ġ ÑĺÐµ
ĠCh rome
Î¯Î± ÏĤ
ĠÐ± Ð°Ñģ
ĠÙħ Ø®
Ġfr ente
hem at
ĠÕ´ Õ¥Õ
Ġt ie
end i
( position
ĠAct ivity
Ġst yl
æ² »
el lect
ph an
_f unc
Ġext ent
ĠÃ¶ z
ir ma
Ø± ÙĤ
Ġoriginal ly
ĠáĥĲáĥ ¡
á»ģ n
ĠIn n
, c
. u
Ġakt iv
Ġfore ver
23 5
.f ill
è »
ØŃØ¯ Ø©
ĠS creen
.F r
ÏĥÎ· ÏĤ
Ġth á»ĥ
ĠÙĪ Ûģ
å¤ į
55 5
B atch
Ġas se
Ġà¤Ĩ à¤¹à¥ĩ
or p
2 32
c ip
åĩ ł
ĠÚ ī
Ġserious ly
Ð½Ð° Ð¹
ek o
Ġke er
Ġsyn chron
ĠHo pe
Ġfight ing
ĠSte p
Ġder ni
ih i
ĠG arden
p ower
ens us
à¯įà® ©
for cement
à¦¾à¦ §
_P R
-f riendly
Re q
Ġre z
B oot
_ {
ĠJack son
è¾ ¾
P ages
Ġobjet ivo
ĠÙĥ ÙħØ§
Ġrepresent ation
ynt ax
an ies
w al
. player
ìł Ģ
Ġà®ĩ à®°
Ġd ic
. uk
Ġæ Ń
Ġcert ificate
å¾ ·
(b ool
âĸ ¡
çĶ ±
åĪ «
à¤¾à¤ ·
23 3
Ġocc as
ĠØ§ Øª
è Ĺ
Ġany way
ANG E
Process or
Ġsurpr ised
Ġk enn
/ user
Ġeng age
Ġáĥ¨ áĥĶáĥ¡
Ġn ÃŃ
ow e
íĸĪ ëĭ¤
tr i
pr iv
à§Ģ à§Ł
Ġl assen
Ñ Ľ
CL UD
Ð· Ñĸ
Ġp ink
. action
Ã¢ m
Ġfeel ings
er l
ĉ name
à¯ģà® Ł
ĠFor ce
Ðµ ÑģÑĤÐ²Ð¾
ÃŃ cio
ĠÃľ ber
n as
h um
ĠE M
Ġa ur
un ique
ag ues
Ġme io
Æ°á»Ľ c
å·¥ ä½ľ
_C ODE
Ġ ella
.DE FAULT
ÙĤØ¯ Ùħ
ĠEN D
ĠØ£ Ø³
åº ĵ
Äį e
Ġcommon ly
Ġsever e
iel le
Ġsav ings
E en
ÙĬÙĨ Ø©
ĠIt aly
ä¹° å½©ç¥¨
ĠSt udio
Ġ Õ¡Õ´
ÓĻ Ñĭ
ĠÐ¼ Ð¾Ð´
Ġso il
Ġinter action
áŀ¶áŀ ĵ
ĠM ess
à¤Ĥ à¤¤
ab ar
og ether
=> {Ċ
Ġserv es
ĠÙĨ ÛĮ
Ġë§ Į
ĠØ³ Øª
am age
Ġbroad cast
Ġà¤¬ à¤¤
ari as
Ġlim its
ph en
IB LE
Ġcelebr ate
Ġbod ies
Ñĸ Ð»ÑĮ
ations hip
3 80
. activity
Ġperform ing
or ie
ĠT oy
Ø¶ Ø¹
åĮ »
Ġr ay
ĠCol umb
w ind
f ico
ĠÃ Ħ
Ġo a
ĠÐ½ Ð°Ð»
H R
§ à¹ĩà¸ļ
Ñģ Ð¾Ð²
ug gle
ĠIl legal
à¯ģà®¤ à¯įà®¤
Ġà´ ¦
Ġ' ''
Ġ×Ķ ×§
Ġm igration
ĠK le
×ķ× Ķ
Ġrecord ing
ãģĹ ãģ¦
ĠÑģ ÐµÐº
ĠØ³ ÛĮ
×ĸ ×Ķ
es k
) "
Ġe h
ĉ P
ĠE ffect
ĠGr und
Ġle k
_t he
Ġspecial ist
Post s
i ams
-- >Ċ
s ing
Ġcon trib
Ġc oding
Ġenter prise
Ãº de
à¯ģà® ®
Ġæ±Ł èĭı
ëį Ķ
à¹ī à¸ĩ
à¯ģà®³ à¯įà®³
ĠW enn
à°Ĥà° Ĺà°¾
uk i
Ġdef e
à°ª à±įà°ª
Ġcon ver
.annot ations
Ġto ler
Ġl bl
ĠÐ¾ Ð³
Ġinde ed
_ Y
ĠBuild ing
ĠK im
ĠD ialog
åı ¦
Ġk ost
ĠOpt ions
iz ard
( output
/j query
í ĭ
Ġrespons es
Ġaw areness
ÐµÐ½ Ð¾
Ġmin utos
_ option
.g ov
clos ure
st udent
ĠÐ¼ Ð¾
ĠØ¨ Ùħ
Ø´ ÙĨ
Ġrecommend ations
Ġà¦ ¡
ĠS ud
ort ed
ĠA ber
y u
Ġr Ã¡p
/m aterial
it age
Re act
Ġsh ops
orge ous
à¤ķ à¤¿à¤¨
Ġyoung er
U X
Ġk ort
A h
om er
Ġtit les
ĠV AL
ĠB ern
Ġequ ipped
Ġt ort
m aster
D estroy
Ġg ifts
Ġus ar
á»© c
m ask
ĠK an
ĠÃ© Ã©n
)) :Ċ
ĠB undle
} ;
Ġman aging
ĠP ra
ĠSt op
Ġbel ieved
Ġm im
22 3
Ġmys qli
Res olver
ÐµÐ½Ð¸ ÐµÐ¼
ĠAn s
Ġmed io
ĠÕ¡Õµ Õ¶
Ġclient es
ĠA pi
ÐºÐ° Ð¼Ð¸
ke iten
áĥĲáĥłáĥĹ áĥķáĥĶáĥļ
ĠC lear
ĠÐ¿ÑĢÐ¾Ð¸Ð· Ð²Ð¾Ð´
Ġret ro
ĠÐ² Ð°Ð¼
Ġport folio
_s core
Ø± ØŃ
à¥ģ à¤¸
Ġth in
ĠÑģÑĤ Ð°Ð½
Ø§Ø º
in ated
Ġdire kt
.Al ignment
read er
ĠÚ ģ
ê° ģ
Ġ ************************************************************************
r andom
Ġed ges
UR N
_T EXT
-d is
Ġm apping
àµĨ à´Ł
Ġintrodu ction
ÄĹ s
Ġk j
áºŃ n
Ġc idade
ĠX ML
25 2
ĠB ob
Ġà¤ļ à¤¾à¤¹
ĠFor um
-v ous
Ġamount s
àµįà´± àµįà´±
Ø´ Ø§Ø±
ĠI ran
un an
---- --
çĽ´ æĴŃ
Ġ?> "
æŀ Ĺ
ĠÐ±ÑĥÑĤ Ð»ÑĥÑĥÑĢ
ĠØŃ ÙĤ
ĠØ´ Ø¯Ùĩ
DE X
çĽ´ å±ŀ
AT OR
ĠL O
N g
ĠEst ate
r ie
Ġà¤°à¤¹ à¤¾
Ġnov a
sp ot
Ð½Ð¸ ÐºÐ¸
æ ¿Ģ
re ich
Ġp endant
ĠAir port
med iate
Ġnuc lear
áĥł áĥĿ
ek e
ĠCo ast
Ġáĥ ļ
ĠB ah
Ġob ra
Ġanx iety
Ġfunction ality
(t mp
Fe atures
Ġv ice
ĠP HP
Ġv l
Ð¾ Ð½Ñĭ
ĠØº ÙĬØ±
_b ox
b h
â Ŀ
ï ¾
u un
Ø±Ø¨ ÙĬØ©
S V
Ã½ m
. Input
Ġearn ed
Ġå½© ç»ıå½©ç¥¨
Ġdepo is
unn els
Ġë ¹Ħ
Ġm os
Ð¸ÑĢ Ð¸
ĠN ut
Ġnet t
W W
Ġrec ipes
br and
Ùħ Ø§ÛĮ
Ġê³ ł
Ġrefer red
per ature
Ġle ather
ans as
Ġáĥ§ áĥķáĥĶáĥļ
AR CH
_SE T
Cont rollers
Ġqu otes
ĠP os
×© ×Ķ
Ġdro pped
ĠAl le
ĠØ¨ Ø¹Ø¶
ĠM ach
Ġun os
ch ool
d ie
D en
ĉ j
Ġb áº¡n
Ġà¤¦ à¤¿à¤¯à¤¾
à¥įà¤ ¡
ÑĤ Ð°Ð½
M W
Ġdoll ar
Ġver der
DE D
à°¾à° Ł
Ġwork er
! .
it als
M O
post a
22 1
z ing
ug it
Ġcollection s
à¦¾à¦ ¶
. :
ab is
ĠÃ ŀ
cript ions
Ġprim arily
.S ervice
Ġcol oc
sc roll
í ĳľ
Ġme als
ĠSt orage
Al g
// Ċ
2 16
ĠCh air
Ġj áº¹
ãĤ ª
(e lement
Reg ular
Ġcont a
, j
ĉ G
P ref
Ġè ħ
à¤¨ à¤¿
ĠSp irit
u ut
Ð¾Ð¿ ÑĢÐ¾Ñģ
_ ON
Ġto x
Ð»Ð° Ð¹Ð½
V I
ud ar
Ġhy per
×ĵ ×¢×¨
Ġres idential
Ġattract ive
à¤¿à¤ ľ
ore t
ĠĠĠĠĠĠĠĠĠĠĠĠĠĠĠĠĠĠĠĠĠĠĠĠĠĠĠĠĠĠĠĠ ĠĠĠĠ
Ġp ant
ãĢĳãĢĲï¼Į ãĢĳãĢĲ
ĠT E
Ġgo ede
Ġ×¤ ×¨
Ġb ann
ĠÅŁ i
/ x
U ES
Ġman a
ĠK inder
gre en
è´ ¢
Ò¯ Ð¹
ak te
Ġsmart phone
Ġìľ ł
Ġles waku
Ġc ock
Ġindustr ies
Ġp ython
Ġand ers
å½©ç¥¨ å¤©å¤©
Ġz onder
us et
Ġv Ã¤l
-F i
ĠÙĦ ÙĬ
.st ream
ĠSc anner
Ġw allet
Ġà¤ķ à¤¾à¤®
Ġt ack
ĠR ect
ĠØ§ÙĦ Ø¢
ĠIm ages
S ec
i ostream
ĠMod ern
qu i
Ġl anguages
Ġcomb at
Ġprint ed
r ift
w all
×Ļ×Ļ× ĺ
Ġà¤¸ à¥Ģ
Ġmanufact urers
Ġhist oria
p in
Ġwe 'll
Ġm Ã©s
ext ension
Ġreput ation
Ġt rem
ĠÐ½ ÑĮ
_ J
Pe ople
f alls
Ġcamp o
tr ack
ens o
Ġc ategor
ĠÕ ª
Ġë° Ķ
Ġstream ing
if a
Ġà¦Ĩ à¦°
ĠTrans port
æ¨ ¡
ĠM D
he x
ĠF amil
à´¾à´ µ
23 1
à°¿à° ª
Ġs ino
Ġproduct os
éĤĢè¯· çłģ
Ġcon vent
ĠBook s
( img
ĠP enn
Ġtrans mission
ĠÐ¾Ñģ Ð¾Ð±
ĠD ark
Ð¼ Ñĸ
ĠÑģÐ»ÑĥÑĩ Ð°
àª¶ à«ĩ
Ġf uck
app ly
Ġut f
c ue
Ġcomun ic
In sets
Ġrelig ion
Ġmais on
ple tion
r Ã©
Ġs id
Ġgr ass
ĠÙĦ ÛĮ
Ġs ink
Ġsav oir
Ġtarget s
ĠN eg
ĠN iger
Ġgre w
[ c
if ik
ĠÃ¾ aÃ°
Ġm enc
à²° à³Ĩ
Ġem it
ĠR h
Ġqual itÃ©
ĠR on
Ð· Ð¸
ĠSt one
áŀ ĸ
Ġe fter
c ellent
Ġk ernel
áĥ£áĥ ľ
Ġben ch
ze ug
Ġwould n
isse ment
H orizontal
ĠðŁ ĺ
Ļà§įà¦ Ĺ
Ġconsider ation
Ġbil en
ĠÑĤ Ð°Ð±
á»ĭ a
.R em
ç ª
re port
Ġd orm
T ele
Ġg az
à± Ĥ
ĠP assword
illi ant
Õ¡ÖĢÕ ¯
Ã¡ k
ĠMon th
à¸§ à¸²à¸¡
ia o
Ġstat ist
à²° à³į
ĠØª Øª
Ġell os
ĠK at
quis ition
ĠØ¯ Ùĩ
Ġfore cast
Ġleb ih
ĠÕ¶ Õ¡ÕŃ
Ġmark s
S R
uk k
ĠÐ¾ÑĤ Ðº
ain less
ro it
Ġfir ms
Ġs f
. Client
Ġma f
3 45
Ã¨ ne
Ġme i
ij den
ĠÑĥ Ð¿
Ġp ipe
Ġ×Ķ ×¤
auf en
yg on
Ġpro pose
åħ ·
ä¸Ģ ä¸ª
à¦ Ĩ
à²¾à²Ĺ à²¿
ĠV ec
pe ar
.add ress
Ġs our
M em
Ġkom mer
åľ Ł
M ac
Ġj ourn
Ġd s
.c opy
è¨ ĺ
ĠÐĴ Ñĭ
Ġ×ķ ×Ĳ
_m enu
àªķ à«įàª
M ulti
Ġv ista
Ġk ho
Ùĥ ÙĬ
Ġl ange
Ġslow ly
er ies
Ġv inden
ix a
×ł ×ķ×ª
or ce
ĠÕ ®
} >
Ġrem ind
it ory
Ġ×Ķ ×Ĵ
': '
P ack
à¦¾à¦ ¯à¦¼
ĠR ad
T ake
ĠP ur
AG ES
Ã¢n cia
à¦¾à¦¦ à§ĩà¦°
Form atter
Ġàª¤à«ĩ àª®
Ġdevelop ers
à¦¾à¦ Ł
íĨ µ
Ġhab ÃŃa
Ġrepe at
. impl
Ġà®ļà¯Ĩ à®¯
. result
Ġb anks
Ġstr ip
Ġreturn ing
ri que
g as
Ġà¤¸ à¥ĭ
Ġv m
àª¾àª Ĺ
Ð½ Ð¾Ð¼Ñĥ
ult ip
Ø· ÙĨ
Ġcon tribute
y ar
$ ("#
ĠS quare
Ġautom atic
be an
ay ing
ap y
Ġh ole
r á»į
ic ional
Ġc c
Ġt Ã©
Ġintellig ence
Ġsome where
adu ate
Ø¬ Ùħ
ĠK ont
Ð³ Ð¾ÑĤÐ¾Ð²
Ġk ull
Ġprofes ional
ĠM ock
ĠØ² ÛĮ
= true
[ name
ĠCr usher
ĠP in
åı į
Ġtem porary
Ġcontrol led
Ġcharacter istics
ud es
elen ium
n l
Ġhum ans
ĠB ere
Ġkey board
Ġmar ca
ĠC lose
Ġj aw
Ġvi agra
ĠÑģÐ¿ Ð¾ÑģÐ¾Ð±
Ġêµ ¬
} }Ċ
Ġassoci ation
èĬ Ĥ
ĠExper ience
Ġleg s
ĠL ayout
Ġàª¤ à«ĭ
ĠO d
Ġg emaakt
Us age
ast ed
Ġto gg
ĠP ers
cul ator
Ðº ÑĤÐ¸
ĠÑĥÑĩ Ð°ÑģÑĤ
om p
ĠØ§ÙĦØ¹ ÙħÙĦ
Ġhop ing
_ ERR
L as
àª¾àª° à«Ģ
work s
Ġcre w
Ġs ant
Ġsor ry
Ġseg uir
à¸ ł
Ġa antal
Ùģ Ø¹
ĠC ell
Ð» Ð¾Ð¶
æ· ±
Ġimpro ving
S a
ĠT X
ĠØ¯ ÙĬ
ener al
ĠåĪĨ åĪĨå½©
Ġdis cr
Å¡ i
Ġà¦ī à¦ª
Ġobject ive
ĠÑĢ Ð¾Ð·
ab ul
ent ina
o ard
Ġab andon
Õµ Õ¡Õ¶
j Äħ
lim ited
30 3
çī Ľ
Ġre un
( \
Ġen n
_m ain
Ġjam ais
20 9
ĠW elt
ĠáĥĴ áĥĲáĥĵ
-x s
Ġr ien
_d f
Ġwe it
ãģĹ ãģŁ
à°¾à° Ĥà°
Ã¡n ÃŃ
Ġach ieved
Ġo z
ÐµÑģÑĤ Ð²Ð°
sh al
l ap
ĠER R
w ich
.H ash
ĠJ ersey
Ø§Ø¦ ÙĦ
Ġatt orney
ë° ĺ
ĠA li
ak at
ĠÄĳ Ã£
Ġro se
Ġopin ions
Ġgradu ate
ĠSc ot
an vas
Ġele m
Ø§ÙĨ ÙĬØ©
IT able
ĠW idget
p aper
Ġprodu k
ĠIn tegr
ã ħ
In ject
ì ¡
Ġpolit ics
ÑĪ Ð¸
Ġlow est
Ġsatisf ied
E F
Ġ ä¹Ĳ
p lic
(p age
ativ os
ENT ER
æİ Ĵ
Ġd aha
ãĥ ł
w ij
ĠB order
Const raint
Ġch ip
ĠMar ia
Ïģ Ïī
Ġpr akt
ious ly
Ġuns ere
ĠSil ver
Ġexp licit
Ġdut y
ĠPh otos
. Res
Act iv
Ġprepar ation
u ing
Ġacc um
nd a
0 80
Ġl ain
z ione
LO B
ĉ def
(s aved
Ø¯ Ø¯
Ġm ata
à¹ĥ à¸«
t ar
ĠĠĠĠĠĠĠĠĠĠĠĠĠĠĠĠ ĠĠĠĠĊ
ĠW el
Ê» i
Ġë Ķ
ë¥ ¸
/ "
ÙĪØ± ÛĮ
Ïģ Î·
Ì Ģ
àµģà´³ àµįà´³
t m
âĢľ The
Ġc ute
ĠØ§ Ø¹
tt a
Ġreal ized
Ġnt awm
> ()
.Model s
ÑĮ Ñı
ĠM ini
ier ra
ĠLim ited
éľ Ģ
Ġnouve au
Ð½ ÐµÑĢ
Ġh en
Ø± Ùħ
å®¢ æľį
ĠWill iams
Ġcl othing
St ation
ĠD rop
Ġà¤µà¤¿à¤ ¶
Ġthi ab
Ġtr ouver
.J son
v il
are m
G ui
Ð½Ð¸ Ðµ
Ġremov al
å¨±ä¹Ĳ å½©ç¥¨
åģ· æĭį
å®ī åħ¨
ul os
Ġt one
ĠN othing
×ķ×ł ×Ķ
k or
-d om
Ġan ge
_P ER
Ġg ab
ang i
tt i
Ġliter ature
Ġ×ľ ×¤
Ġr y
mas Ä±
Ġf Ã¥r
F act
ĠØ§ÙĦÙħ Ø³
j ack
ĠD NA
Ġag greg
ĠM atrix
( By
à¤¾à¤Ĥ à¤ļ
Ġre pository
à¦¿à¦ ¶
Ð° Ò³
åı Ī
á¹£ áº¹
[ p
un ta
Ġaren 't
ç¶ ²
Ġprogram ming
Ġcas os
.B undle
Ñı ÑĢ
Click ed
[ @
Øª Ø§
åħ «
éħ į
Øª ÛĴ
Ġek ki
è§Ħ å¾ĭ
ol u
à¦¿à¦ ¯à¦¼
Ġr ond
Ð¾ÑĢ Ð¾Ð²
ĠM erc
Ġmodel o
Ġdur able
Ġste eds
ĠØ§ÙĦØ£ Ùħ
ĠÄ ¯
om m
Ðº Ð¾Ð»
op ed
Ġt ÉĻ
Ġd ys
Õ¡Õ¶ Õ¸ÖĤÕ´
Ġp tr
g ra
Ġcomp art
# else
Ġdec ade
Ġunder st
Ġwalk ed
Ġbr idge
_l ock
Ġex ceed
Ġ×ŀ ×¢
Ġmeet ings
Ġmor al
ĠPl ant
ĠG B
Ġà®İ à®©
ert en
Ġpr icing
Ġà¨ ¤
ĠD ebug
Ġre de
Ex per
ĠÚ© Ùħ
i ad
rou pe
Ġorgan ized
Ġrequire ment
ĠT arget
Ġáĥ ĸ
Ġal um
ĠÕ«Õ¶ Õ¹
Ġson dern
ĠS uch
.st ere
åĢ į
Button s
ÑģÑĤÐ² Ðµ
rit t
à®µ à®°
Ġk au
Ð°Ð»ÑĮ Ð½Ð¾
w ed
ĠÐ´ Ð¾Ð¿
Ġr c
ar be
0 40
ĠØ ¸
qu ently
Ġáĥ£áĥ ľ
q at
å¤© åłĤ
Ġ" [
CLUD ING
Ġjud ge
Ġsig u
_ valid
Ġru im
.C OM
Ø³ Ø©
à¥ĭ à¤ķ
un al
ĠUn a
Ġsch olar
à¦¾à¦ Ĥ
Ġprime iro
Ø§Ø¨ ÙĦ
Ġur g
Ġn were
Ġas c
ĠÂ °
ĠáĥĲáĥ ¦
ĠÙĪ ÙĦØ§
à®¿à®¤ à¯įà®¤
Ġbere its
×ĲÖ· ×ł
Ġfl avor
åıĳ å¸ĥ
à¤² à¤¾à¤Ī
_s ource
ĠE T
ÑģÑĤ Ñĭ
ĠprÃ³ pr
à¦¨ à§ĩ
ĠMich igan
ka ar
Ø§ÙĨ ÙĪ
ap ore
ĠRe ading
n ames
ĠÐ½Ð° Ð¹
Ġp Ã¡g
ĠRe ce
èµ°åĬ¿ åĽ¾
Ġb ags
ĠBar celona
Ġpres ente
I SE
Ġm ile
Ġmo ist
w orth
.n ode
le urs
ced ure
y ard
Ġd ental
ĠÐ¿ÑĢ Ð¸Ð½
ĠStud ents
Ġpath s
.t otal
ĠÐ¿ÑĢÐ¾Ð± Ð»ÐµÐ¼
b ie
Ġb oss
Ð² Ð°ÑĤ
Ġsuggest s
Ð°Ñģ Ñĭ
ly n
Ġu Å¾
Ġid i
P res
Ġl um
âĶĢ âĶĢ
Rece ive
25 4
. play
Ġf lood
iet nam
Ġrec ycl
ĠK u
_t op
l h
Ì £
ĠmÃ¼ ssen
_ char
Ġhaven 't
or um
ĠÎ´ Î¹Î±
F ace
S prite
Man agement
te il
ress ed
Ac cept
i ation
à¤¾à¤ ĸ
ill as
Äį en
Ġæ ³
Ġv orm
Ġì Ĥ
Ð¾Ð± Ñī
ino is
ÙĪØ± ÙĬ
Ġconcer ning
z in
Ġbl ow
Ġ×ľ ×ĳ
.stere otype
Ġpremi Ã¨re
Ġáĥĺ áĥľ
T x
Ø¯ ÙĪ
Ġàª ĺ
) \
Ġlas er
m id
_m atrix
à±įà° ®
` ,Ċ
Õ¥Õ ¼
ĠM Ã©
Ġclos ing
l ary
âĢ ³
Ġoffic ers
Ġf its
Ġsp o
) ",
am ment
Ġà´ ¯
ÃŃ c
ap o
Ġà¸ ¢
Ġult imate
olog ÃŃa
p ic
ĠS peed
ĠÒ ±
OL UM
37 5
IT S
B ool
Re po
Ġequ ivalent
ê± ´
(t oken
Ġout ro
Ġp id
s crib
ĉ foreach
Ġal arm
k al
IR ST
RO UP
ut er
Ġbre ast
-- ;Ċ
' ex
Ġo vers
Ġexp enses
ÑĢÐ° Ð´
Ġsp el
Ġprincip les
Ġprocess ed
_T H
Ġd st
24 5
ag ar
Ne ed
Ùĥ Ø³
é¦Ļ æ¸¯
ho ver
áĥĹ áĥķáĥĺáĥ¡
24 6
Ġprodu its
Ġinst ances
à¨ µ
ru ck
Ġclick ing
ĠBro ad
ĠÑģ Ð¾ÑģÑĤÐ°Ð²
Ġde ploy
ec a
h yd
à¤°à¥įà¤ ®
ĠD A
.Graph ics
áĥĺáĥ¡ áĥ¢
Ġmort gage
(' <
il or
Ġà¤¸ à¤¹
Î¹ Î¬
Ġclient e
ĠUs ers
Ġche ese
ĠÎ ľ
_ AC
F G
Ġf ert
ĠT YPE
s in
Ġnecess arily
un ik
_ex ists
Ð² Ð°Ð½
ĠÃ¾ ess
ĠP ER
Ġcont en
Ġzw ischen
Ġ×Ĳ ×ķ×ª
à§ĩà¦ Ł
3 40
ĠMan ufact
Ġz am
ĠCap ital
Ob server
ĠS ky
à¤¯ à¥ĭà¤Ĺ
Ġ×ŀ ×Ļ×ĺ
qu Ã©
ĠØª ÙĬ
ent ed
ĠC ome
ĠColor ado
Ġontw ikk
-b y
Ò¿ Ñĭ
à¤¿à¤¯ à¥ĭ
Ú ı
- router
C at
à¤° à¥ĭ
Ġexpl an
.âĢĿ Ċ
ĠP AR
ÑĢÑĥ Ð·
Ġless on
Ġë ķĮ
Ġl ady
Ú ī
Ġl ava
Ġe ast
ĠÐ¾ÑĤ Ð½Ð¾
ĠAct iv
ay lor
à¹Ī à¸Ńà¸ĩ
Ġg allery
ĠJ S
ĠHar ry
II I
ÙĨ Ø³
Enc oding
ĠFinal ly
ĠÑĢ ÐµÐº
Ġdis posit
ĠH ou
pl ik
åħĪ éĶĭ
ĠÑģ ÑĥÐ´
ah oo
yn chron
} ")Ċ
Ġag ua
R ating
à²¡ à³Ĩ
Ġleg isl
ĠA sh
Ġer sten
ĠQu ick
æ ¢
ĠTh us
f ahr
ëŀ Į
ĠJe an
Bit map
clus ive
ĠB ij
Ġa vez
Ġin ch
Ġclos ely
i Ã£o
à´ ľ
bag ai
Ø§Ø °
ĠAs k
Ø¨ ØŃ
AD ING
_ OB
ĠÂ §
ÑĥÐ± Ð»Ð¸
ĠInst all
.ex ists
enc ing
- .
Pl atform
Ĥ ¹
drop down
æĸ° éĹ»
(s ource
st ellen
ë³ ¸
Ġ×Ĵ ×Ŀ
_RE S
ĠT ar
ĠEd ition
Ġinst al
Ġf printf
av atar
.app ly
Q UI
(" @
à¤Ĥ à¤¤à¥įà¤°
Î ĵ
Ġelect ron
ĠN y
dis abled
Ãł nh
ater n
Ġk uf
Ġ ....
Ġ} );čĊ
ĠÐ¶ Ð°
ĠÐ½ ÐµÑĤ
T imes
me e
Ġpriv ile
_ search
ĠĠĠĠĠĠĠĠĠĠĠĠĠĠĠĠĠĠĠĠĠĠĠĠĠĠĠĠĠĠĠĠ ĠĠĠĠĠĠĠĠĠĠĠĠĠĠĠĠĠĠĠĠĠĠĠĠĠĠĠ
anÃ§ ais
nt il
ĠØ§ÙĦØ¹ Ø§Ùħ
à¤¾à¤¨ à¤¾
st an
.d es
Õ¥Õ¶ ÖĦ
ik w
Ġst aan
ĠP ok
âĺħ âĺħ
Ġmet er
ĠSte ve
to o
Ġk ui
Ġland scape
áºŃ t
vol ume
ĠÑı ÐºÑĸ
c ountry
ĠÐ¢ Ð°Ðº
Im plement
Ġst abil
Ġk hi
H it
ib l
Ġtransport ation
ĠG PIO
ied ade
ak in
Ġen ables
Ġmin eral
Ġl ibr
ĠG T
Ġj ouw
9 78
Ġany more
F actor
ĠK itchen
Ġb arr
Ġà¤¸ à¤¾à¤®
26 4
ĠsÃ³ lo
Ġund ert
Ġà¸ ĸ
Øº Ùĩ
Ġn avigate
Ġle m
ĠÃ© v
ĠÐ¶ ÐµÐ½
ĠÑħ Ð¾ÑĢÐ¾ÑĪ
à®³ à¯į
å§ Ĳ
f ire
Äĥ ng
Ġdirect ed
Ġext reme
G uid
Ġr und
ĠSen ior
Ġstay ing
Ġleg is
ĠCON TR
> čĊčĊ
ĠÙĪ ÙĤØª
ĠÐ¼Ð¾Ð³ ÑĥÑĤ
EL L
Ġill ness
ĠI R
Ġ ÉĻ
æ²¡ æľī
Ġfyr ir
Ġì Ļ
ĠÕ ±
à¥ģ à¤µ
Ġà¤¸à¤® à¤¯
Ãª tes
ĠQue en
Ġb att
30 2
æĹ ©
(m y
Ò §
Ent ities
¢ ĭ
(s ql
æĪ ĸ
àµ ĥ
V el
XX XX
à¸ į
ĠN atural
Ġcap abilities
Ġà´ķ àµĭ
Ġalg uns
_ position
Ġk Ãµ
k ins
è¿ ½
Ġst a
rem ote
×ŀ ×¨
_ ip
ĠA th
Ġà¦ľ à¦¾à¦¨
Ġdream s
.cont roller
Ġn ang
\ ">
Ġconcept s
ĠMun icip
< double
Ð» ÐµÑĤ
Ġal ive
_h andler
de cl
ãĤ ¨
à§ĩà¦ ·
å¯ Ĩ
ĠÐ¿Ð¾Ð¼ Ð¾Ñī
Äĥ m
Ñĭ Ðº
Ġk uma
Ġluck y
Ġ ],
Ġrot ation
iel t
' Ã©t
ĠØ¯ Ø§Ø±
n ung
.C lose
ri ers
à¤¾à¤ ¶
.d ao
àª ¥
Ex it
n im
Fr iday
_ ad
__ ,
æ¥ Ń
Ġag ora
àµįà´ §
ex press
Ġáĥ¨ áĥĶ
Al s
Ġà¤ľ à¤¬
Ġvict ory
int on
ĠK it
Ú¯ Ø§Ùĩ
Â» .ĊĊ
" I
he w
Se conds
ĠØ¹ÙĦÙĬ Ùĩ
tr ag
Ġus uario
Ġil legal
àµģà´ ±
ĠP aper
Ġ" ")
Ġhom em
Ġp ep
Ġhe ading
_d im
Ġst ake
cre ens
Ġng o
ĠÐŃ ÑĤÐ¾
_t otal
Ġc erca
ĠI reland
Rem ote
Ġconsum ption
ĠÑĢÐ°Ñģ Ñģ
æĦ Ľ
Ġoppos ite
F etch
un st
(" ,
à¨¾à¨ °
ĠDE FAULT
ÑĥÐ½ Ðº
à¦ «
Ð½Ð¸ ÐºÐ¾Ð²
Ġpl ug
ĠÐ± ÑĸÑĢ
Õ½ Õ¿
C riterion
ĠIns urance
resent ation
Ġho je
Read y
du ction
/ a
.Form at
or f
ĠÑģ Ð¾ÑģÑĤ
< h
> ,Ċ
.T ool
Ġt Ãº
sh ips
IT EM
amp a
Ø¹ Ùħ
çļ ĩ
Ġj ar
Ġtijd ens
aj Äħ
ha us
Ġinvol ves
à²¿à² ²
ro b
Ġpotential ly
c em
Ġah á»¥
ĠT yp
ĠS chema
Ġcomput e
Ã´ i
Ġp Ã¤
Ġç ¦
åł ´
ĠP OST
am el
l ov
Õ¡ÖĢÕ ±
.Def ault
Ġmin im
ĠM embers
Ġline ar
Ġcomm ands
Ġ×Ĳ ×ĸ
Ġu ch
Ġà´ ±
ÐŁ ÑĢ
ow ers
Ġou tras
Ġor a
ĠSh ipping
f p
_ST ATE
ĠD ou
Ð½Ñĭ Ð½
ĠÐ¿ÑĢÐ¾ ÑĦ
Ġë° ı
Ġcommun icate
Ġmod ules
åľ ĸ
âĢĻ Ã©t
à´¿à´¨ àµįà´¨
Ġà¤¯ à¥ĩ
ĠÑĥ Ð±
la ub
Ã³r io
G roups
_l oss
Re lease
im ientos
str ip
T oggle
à¨ ª
à¸ļ à¸²à¸Ĺ
40 3
r in
ĠK ong
C opyright
Ġà¤ľ à¤¨
áĥĹ áĥĲáĥľ
ĠÐ¼ÐµÐ½ Ñı
Ġhe av
ĠOh io
ç« ¯
ĠJ ane
æĸ¹ æ³ķ
W R
Ġt ex
Ġs á»ĳ
k ov
); //
ĠÐ»Ñİ Ð´
.draw able
Ġincred ibly
ÑĦ ÑĦ
Ð°Ð»Ñĭ ÒĽ
err ing
éĿ ŀ
is in
.f loor
ĠÐŁ ÑĢÐ¸
Cal endar
Ġà¤¬ à¥Ģ
pl er
Ġdec ent
Ġaccess ories
Ġdies es
ivers ary
Ġadd r
ro v
Ġjava fx
à§įà¦ ²
itor ies
Ġfl uid
Ġ×Ķ ×Ķ
50 9
Ġest ava
éĻ Ĩ
Ġg ore
Ġ Æ
ìĦ ¤
ĠdÃ© f
Ġsw i
Ġch unk
ĠM ann
Ġb orrow
Ġd un
Ġadvant ages
ĠQu estion
ĺ Ĳ
ir y
Ġâ Ħ
ĠV in
Ð° Ð²Ð°
Ġg li
.F ore
ine q
Ġ" ${
Ġstrateg ic
& #
at te
Ġsem i
pl ugins
âĢĻ am
Ġlie u
isch er
_c urrent
Ġ Ù¹
Ġs lee
at if
éĢ ł
str ument
_ END
p ed
Ġgener ator
ot ed
ust e
it led
et ry
Ġregard less
Ġdim ensions
Null able
man ager
Ġanim ated
b oy
Ġtut orial
ĠìĦ ł
[ _
h op
ĠH ij
Ġtrans lation
Ad visor
ĠVis it
ĠÙ ¼
åĭ ķ
S n
à¯ģà® ±
àª Ĩ
Ġincl u
ĠÐ² Ð°Ñģ
.user name
Ġàª¸ àªĤ
Ġ) {Ċ
Ġn ights
ë¯ ¼
or ne
param eters
Ġarchitect ure
Ġnot ify
Auth entication
cont ents
ĠCom puter
== "
aut om
Ġà° ¹
Ġë° ©
ĠR ating
Ġincre ment
Ú© Ùĩ
Ġw arn
Ġf ishing
ĠQ t
b age
ĠìĹ °
Ġr ural
pt s
ru ption
( to
b its
ĠZe aland
áĥĿáĥĳ áĥĲ
Ñĥ Ðº
[] []
Ð¸ÑĤÐµÐ»ÑĮ Ð½Ð¾
Ð¼ Ð°Ð½
Ġs Ãº
ÐºÑĤ ÐµÑĢ
"] ["
_p art
Ġc ry
Ġn r
An notation
ĠSte el
Ġins ight
le b
Ġatt ach
Ġop ens
. ge
Ġsur ve
ĠExecut ive
ãĥ ĳ
t id
ì² ľ
Ġm uri
Ġàª¶ àªķ
he ading
Ġà¤µ à¥ĩ
Ġenc oding
Ġ} }</
z ahl
ĠC over
æ¯ ı
* ,
Ġsoll te
ĠTerm s
×ķ× ĸ
ĠÎ± ÏĢÎ¿
áŀ ¼
/ pro
Ð¾Ð²Ð°Ð½ Ð¸Ðµ
Ġs ync
ĠB aby
u um
ìĿ´ ëĭ¤
ĠS ab
uff le
čĊ //
B el
Ġà¹Ģà¸ ģà¸¡
Ġàª ¡
zer os
ĠAs ian
.c sv
Ġàª¹àª¤ à«Ģ
ĠìĿ ĺ
Ġb un
ĠP ero
Ġin fect
ĠÑĤÑĢ ÐµÐ±
Ġf inger
ien cia
F eb
ĠÎ ®
à¤¿à¤ ĸ
-b ottom
sub ject
ag h
Class es
ĠOb servable
n an
ÑĮ Ð°
ĠP il
Ġem br
à¦ĸ à¦¨
ĠR u
ig ne
Ġpul led
Ġpr ze
Ġan terior
ĠW ie
Ġnar row
d ist
Ñĸ ÑĤ
ĠR ole
ĠprÃ©s ent
29 0
ĠĠĠĠĠĠĠĠĠĠĠĠĠĠĠĠĠĠĠĠĠĠĠĠĠĠĠĠĠĠĠĠ ĠĠĠĠĠĠ
áŁ Ħ
_f iles
k on
å½± è§Ĩ
Ġde ÄŁ
ĠÐ´Ð° Ð¶Ðµ
ĉ console
el ay
Ġexist ence
00 9
à· ľ
ĠAg ain
_b uf
ĠApp ro
T ax
ĠÐ° ÑĢÐ°
Ġk Äģ
ours es
ĠÔ µ
ĠEx cel
Ġch ap
çł Ķ
Å¾ i
_h andle
E mp
Ġè ī
Ġ×¢ ×¨
Ġpropos al
à¦ ¯
Ġrepe ated
iz ada
ĠEn joy
us uario
ìĨ į
z es
av id
Ġprodu cing
w orld
ĠÚ Ī
Ġmuch os
_V ERSION
p ubl
Ġopt imal
Ġex ports
Ġz oom
[ s
_ attr
g it
.A ct
ĠØŃ Ø³
.c lick
Ġvot es
Ġnatu url
Ġpar l
¹ æŀľ
Ġinform atie
à¤¢ à¤¼
ÐµÐ³ ÐµÐ½
Ġà¦ª à§įà§°
à«ĭàª ¡
Ġout come
Ġed iting
S K
Ġexpos ed
pl o
P LE
ÑĢ Ð¸ÑĤ
åľ¨çº¿ æĴŃæĶ¾
lic her
Ġfile d
N Y
Ġs eller
Ġa val
an imation
ìł Ĳ
valu ation
Ġb az
Ġproces o
Ġr ice
Ġprocess o
Ġbreak ing
Ð² ÐµÐ´
Ġex terior
Ġcoun sel
Ã¼ z
Ġa unque
ĠH im
ĠH old
down load
æ¼ Ķ
Ġí ĸ
iz ers
Ġle er
ĠSou thern
Ġaccompl ish
Ġw are
> ().
Ġà² ī
ĠE ST
ĠIde as
() {čĊ
âĢľ We
×ķ ×ķ×¢
Ġj i
$ $
un j
Ġà¤Ĩ à¤ľ
ĠÕ į
Ġ×¤ Ö¿
Õ¸Õ ¬
edd ed
ĠD ream
Ġall erg
Ġà¹ģ à¸¥à¸°
Ġdes e
Ġblog s
qu ina
à¤¾à¤ĵ à¤Ĥ
à° ¬
Ã©rie ur
LO C
Ġgr inding
fl ags
au en
Ġà¤¹à¥ģà¤ ı
Ġpr endre
áŁ Ķ
ĠN A
Õ¾ Õ¥Õ¬
Ġdevelop er
Ġz we
ĠAnt on
ĠìĬ ¤
é¢Ħ æµĭ
Ġb arn
Ġm aps
ĠMus lim
c ers
ê² ©
eng en
-> {
Ġs park
Ġse Ã±
at om
Ġnue va
- or
ĠÕ¸ ÖĢÕ
ĠÐ¾Ð¿ ÑĢÐµÐ´ÐµÐ»
lo om
Ġcert ified
M onday
ĠAr my
ĠP ick
Ġsex o
ĠC T
áĥĿáĥĳ áĥĺáĥ¡
Ġer ot
Ġp k
Ġen em
Ġk ep
ĉ a
z as
à§įà¦ ¨
ĠNS String
Ġcommun ications
Ġca using
ĠIS O
ĠElect ric
ound ed
Ñ Ļ
Ġgu er
Ġfound ed
Ġprom otion
ĠW ait
C e
Ã¹ ng
Ġg ad
èĭ ±
Ð³ Ñĭ
ĠÐ° Ð¶
Ñĸ Ð»Ñĸ
Ġth reshold
å¸ ¦
Ġd ados
ĠConfig uration
ign et
$ ('#
ĠØ¬ Ø§ÙĨ
={ '
} '
æĿ Ģ
j ekt
Ġà¶ ¯
â ķ
àª¤ à«Ģ
Ġst uck
ĠArch ives
Ã¤ d
×ĳ ×Ķ
à®² à¯įà®²
ä½ľ èĢħ
Ġsatisf action
Ġpen al
m c
cr umb
Ġk we
ĠÑĤ Ð¾ÑĢ
Ġob s
ĠPro vid
à²ķà³įà² ·
Ġeff et
Ġge ven
âĸ ł
(' \
des cribe
Ġà¤²à¥ĩ à¤ķà¤¿à¤¨
Ġà¤ Ŀ
ĠE V
() {
ĠÑıÐ² Ð»ÑıÐµÑĤÑģÑı
Ġà²®à²¤à³įà²¤ à³ģ
p ak
ĠC amera
Ġest able
ĠM icro
Ġpop ul
T urn
Ġp w
ĠS TR
ÑģÐºÐ¸ Ñħ
ĉ unsigned
in ery
Ġrespect ively
áĥĶáĥł áĥĺ
i q
çĶ¨ æĪ·
èĩª æĭį
mark s
je un
å¼ ķ
ĠĠĠĠ ĊĊ
.L ENGTH
Ø¦ Ø©
u ze
Ġf ais
ĠB B
ĠÑĤ Ð°ÑĢ
() ),
Ġwa ard
Ã¡ il
ark er
ä¸ĢåĮº äºĮåĮº
Ġl ies
b ow
à´® àµįà´®
Ø¬ Ø¨
ra ch
×© ×Ļ×Ŀ
ike un
Ġpun to
Ġin fection
ib ern
ÑĢ Ð¾Ð½
j am
Ġh ak
Ġh osp
Ã¤hr end
M o
Ø² ÛĮ
( GL
_ right
Ġprodu cer
à¦¨ à¦¾
Ġt act
á»ĳ i
Ġsome what
ail ing
ĠGr an
Ġresult ados
Ġsustain able
is ine
Ġà¤ªà¥įà¤° à¤¦
ĠÂ ¡
ĠÑĥ Ð·
Ñı Ñģ
re o
_set tings
Ġr as
ĠW inter
à°¿à° ®
ÑĢ ÐµÑĤ
Ġà´ª à´°
Ġo ma
.m ove
Us ed
ĠrÃ© al
ç ¿
Ġb owl
Ġlet z
Ġdiagn ostic
.m ethod
ĉ default
f te
ĉ D
à§Ģ à¦°
2 18
Ġsens itive
Ġg all
/j avascript
Ġc ig
Ø¹ Ø§
âĢ ª
Ġ ,Ċ
ĠJah re
ÖĢ Õ¡
à²¾à² ®
Ġà° Ń
àµģà´¤ àµįà´¤
Ġbon ne
Ġqu anto
ĉ str
h oud
ĠF ox
ä¸ °
Ġà´ Ĺ
ĠEX P
åľ¨ åĵª
ĠG ra
- name
Ġsp oke
Ġim pression
ĠD ub
ĠI ter
ĠÐ¼ Ð°Ð»
ĠØ® Ø·
ĠÕ£ Õ¸ÖĢÕ®
ĠØ³Ø± Ùĩ
Ġperm ite
ĠDon ald
-b utton
24 2
-s cale
( options
é£ ŀ
Ġpersonal ity
fin ished
Ġatr av
ĠW indow
ĠÐ± Ð°Ð½
_ API
Ġre vel
à¹Ī à¸²à¸Ļ
Ġt ons
Ġàª ¯
Gener ated
Ġc abe
po ch
Ġg ig
íķ© ëĭĪëĭ¤
yn n
ĠÐ¿ÑĢÐ¾Ð³ ÑĢÐ°Ð¼
az ioni
Ġda zu
ĠD R
Com mun
Ġìķ Ī
Ġy ar
Ê» o
S am
ĠS ometimes
Ġav ons
Ġy er
.back ground
Ġà¤ľ à¤¾
M en
App ro
íĮ Į
à¦¾à¦¬ à§ĩ
ĠáĥĲáĥ łáĥ
ĠM ulti
quir y
. gr
çĽ ĺ
Ġpro xy
Ġm end
à°¾à° ķ
ĠÙĪ Ø¹
×Ļ× ĸ
àª ı
() ))Ċ
crypt ed
Ð¸ Ð¾Ð½
Ġsau ce
Ġobvious ly
ï¼ģ ï¼ģ
ĠV a
ew ise
Ġd ina
_de v
30 5
Ġpop ula
Ġ ç½ĳ
ĠGeorg ia
.d escription
ĠR og
D one
ÐµÑĢ ÐµÐ´
Ġà§ °
Ġrest ore
it te
ĠP H
Ô¥Ñģ Ð½Ñĭ
n own
à¸« à¸Ļ
Ġdes ktop
.graph ics
ab ric
ĠÃ ĩ
less ly
comm un
Ð°Ð· Ñĭ
Ġs os
/ '
ĠáĥĲáĥ ¥
b f
Ġden n
åĶ ®
.t v
Un known
e ed
Ġnou velle
Reg istration
Ġwer ken
Ġkind eren
( pos
Ñı Ñī
P K
Ġor den
Ġutil ize
ĠÂ» ,
Ġest imate
y tt
d m
Ġm old
az on
Ġident ifier
Ġbe aring
y c
an f
Ã» t
Ġconven ience
A Z
/ .
g em
Ġel kaar
Ġmem ories
ĠC rist
Ġà¤ķà¤° à¤¤à¥ĩ
v ik
ie j
ĠF er
à¤¾à¤ «
Ð³ Ð¾Ð²
ĠF R
Ġp ounds
ish i
Ġàª¸ à«ģ
ĠA wards
.log ging
.log in
Ġenjoy ing
Ġexp ansion
Ġev il
ĠØŃ ØªÙī
Ġpu zz
Ïĩ ÎµÎ¹
å¦Ĥ ä½ķ
_P L
à¸± à¸Ķ
V EL
Ġeleg ant
ĠL ock
Ġf iction
Ġact s
Ġhistor ic
Ġ( );Ċ
Ġass ignment
Ġtalk s
Ġs co
ĠÑĢ Ñĭ
ĠÒĽ Ò±
×ľ ×ĺ
Id entity
ĠØ§ Ø¬
Ġje u
. row
0 30
.st op
ne ed
×Ĺ ×ĵ
IC ENSE
ĠP T
Pop up
ĠS ho
Ð´ÐµÑĢ Ð¶
ĠEx change
z ung
ss ue
Method s
b ek
Ġr icht
ĠSt adt
Ġlif etime
Ġsudden ly
= ${
ĠTh row
Ġyour s
he iro
- weight
ĠK ap
Ô¥ ÑĪ
C ESS
# [
.J Label
ĠS ummer
ĠKE Y
ÑĢ ÐµÐ½
Ġà¦ķà¦° à¦¾
à¤¸ à¤¾
Ġs Ã¸
Ġl ij
Ġmatt ress
ĠIndones ia
? âĢĿĊĊ
Ġà¤® à¤¨
Ġapply ing
Ġs oph
dr av
ĠÑĢÐ°Ð±Ð¾ÑĤ Ñĭ
ct rl
ĠTh ink
à«ĭàª Ł
Act or
ener ator
ere z
uff ix
Ġround ed
Ġrestr ictions
D ays
Ġenf ants
Ġc Ã´ng
Ð¸ Ñİ
Ġk art
option al
Ġcompat ible
Ġà¤ķ à¥Ī
Ġprof iles
Ġà¹ ĥ
Ä± lÄ±
Ġà¤¬ à¤¾à¤¤
RE G
Ġout comes
ĠPac ific
Ġ×Ľ ×Ļ
Ġhead s
ĠáĥĲáĥ ®
Ġprint ing
Ð» Ð¾Ð²
ĠHe art
ĠL ot
Ġp airs
Ġf Ã¸
Ex pl
_t arget
Ġutil s
íĨ ł
std io
et ten
Ġdifficult y
Ġâ Ĺ
Ġs og
Ġç ¾
Ġæ µ
ash a
Ġwe 've
ĠÐŁ Ð¾
Ð¾ÑĤÑĢ ÐµÐ±
/ common
Ġs od
ĠÐ° Ð³
Ġo ven
Ġé Ŀ
b ay
ëĵ ±
S u
à´¾à´° àµį
ĉf mt
( parent
_s ign
Ġman agers
ĠDe vice
av al
3 70
ia al
à¹Ħ à¸Ķà¹ī
er ver
Ø§ÙĦ Ø©
ĠF riend
ĠDe us
80 2
Ġ ort
Ġs q
Ġdes tr
Ġé »
. route
ĉ M
Ġpro hib
Ġas i
ĠÐ¸ ÑĤ
Ã§ on
Ġnatur ally
Ġtimest amp
à¹ī à¸²à¸Ļ
ĠÐ° ÑģÑĤ
à§įà¦ ļ
unn el
ÐµÐ½ÑĤ Ð¾Ð²
ĠÑĩÐµÑĢ ÐµÐ·
Ã³ ri
) (((
Ġpro st
A mer
eng ers
k le
Ġpare ce
Õ¥ ÖĦ
Ø§Ø¨ ÙĤ
ist i
Ġpe er
Ø£ Ø³
ĠÐ· Ð°ÑĤ
Ġnull able
_re quire
Û ³
àµĩà´ ·
ĠÙĪ ÛĮ
ers ch
Ġutil ity
Ġintegr ation
Ġc ord
uck s
(b uf
à¤¾à¤ ł
us al
Ġn ab
Ġred es
áĥķ áĥļ
à¤¾à¤¤ à¥įà¤°
åĩ »
Ġwould n't
ĠK ev
å ¡
ĠTr ade
ĠìĦ ľ
Ġprec io
Ġstr uggle
ĠIntern al
Ex ecution
Ġge e
] ))Ċ
×Ľ ×ķ×ľ
av an
Ġbro ker
Øµ Ø¯
j al
Ã¡ri as
Ġown ership
æĪĳ ä»¬
i Ã«
is as
Ġtele fon
è¯ Ń
ÃŃst icas
AN C
cl osed
Ġx a
N ative
Ġp ig
N OT
Ġpas ado
R IGHT
U AL
is ka
n c
¦ Ĥ
Ġv ere
.b r
Ġrec ib
ĠÐ° ÒĽ
Î½ Îµ
Ġindic ates
Ġsp re
Ġwork shop
ĠMount ain
ĠEvent s
B rowser
ĠD ump
.F rom
CP P
S om
àª¾àª ¹
Ġarg v
Y ST
à¥Ĥ à¤²
ĠRes ources
à²Ł à³įà²Ł
. th
Us ing
at on
0 33
Ġc d
A W
Ġcr ush
ĠEx ample
Ñį Ð¼
Ad v
C ategories
ĠId ent
Ġcos as
Ġarr ival
Ġfal ta
Ġbr ush
à¦ ģ
24 1
ĠÐ¸ ÑģÐº
ĠZ us
ĠB razil
38 4
Ġr in
Ġs unt
Ġnos so
. ;
Ġàªķ àª¾àª°
à³ ĥ
áŀ Ļ
ab eth
Ġcover ing
cy cle
Seg ment
ĠK rist
v os
Ġdis trib
ple t
ĠF u
Ð¹ ÑĤÐµ
Ġj unto
Ġtrans late
Ġdise ases
à¤°à¥įà¤ ¤
M r
Ġc res
ĠfrÃ¥ n
Ġaf raid
Ġtreat ments
Ġfr ag
ĠUp dated
iz ona
ce p
ĠAll ah
at able
Ġà° Ł
Õ¸ Öģ
2 17
à²¾à² Ĥ
-m enu
.A ut
.pro ject
Ò «
ĉ type
Ð» ÐµÑĢ
hell o
_ ->
C U
; "
ck er
Cont ents
Ġ' {
.S c
ĠK re
Ġdire ctions
ĠMar c
Ġder ived
Ġzur Ã¼ck
Ð½ ÐµÑĤ
form a
ĠÐ² Ð¾Ð¿ÑĢÐ¾Ñģ
40 9
.m ock
Ġpro por
ĠÃ§ ok
ap or
Ġfis cal
íĺ Ħ
ãĥ ĵ
Ġl ing
Op acity
ĠSp a
pl a
ter a
ĠSe ason
ĠA RE
Öī ĊĊ
Ġà¤¥ à¥ĩ
Ġscre ens
Ġg au
Ġdrink ing
In ventory
Can vas
Ã¡ z
Ġis set
æŃ ¥
.S ub
44 4
Ġpack aging
n els
Ġalgun os
Ġrespect ive
ĠT el
22 6
Å¡ a
( Long
ë² Ħ
çĽ Ľ
×ķ× ļ
Ġtogg le
N I
à¦Ł à¦¾
Ġsl ide
Ð Ļ
(f ilename
ĠS ir
Comp are
.B uilder
Ġrecher che
å® ¤
Ã©r ation
Ġg ing
all o
ĠTem plate
= false
Ġlang s
à¤¾à¤² à¤¾
ia ÅĤ
f ang
ĠT amb
8 50
Ġdr ama
Ġexpl os
Ġneg oti
Ġìĭ ł
Ġse ats
50 1
Br anch
25 1
Ġinj uries
mod ules
×ĲÖ¸ ×¨
Ġà¸ Ŀ
åł ±
urr y
Ġq a
ĠØ§ÙĦ Ùī
ãĢĳ ĊĊ
ĠÐ¼ Ð°Ð³
Äģ s
Ġà¸ Ĭ
Ġor al
Ġà¸§ à¸±à¸Ļ
P o
led en
Î¸ Îµ
Ġrat ings
3 12
à¦ľ à¦¨
Ġcompr ar
22 8
ARN ING
is wa
ÙĪ Ø§Ø±
av am
( Color
- %
-d anger
è´ ¨
. Char
R ank
×ľ ×¢
Ġl Ã©g
Ġ> >>
il ik
, i
ĠE S
ist re
ex cept
âĢĻ on
up o
out ine
ì ´
Ġredu cing
ĠHand le
Ġb ene
s ent
Ġexception al
Ġwer eld
27 5
ĠE gypt
Ġmach t
_m odule
2 19
Ġhum or
ĠÙĩ Ø±
Ġlaug h
Äĩ i
Ġch un
er ge
bit r
Ġevery where
Ġp ole
iv amente
Ġb unch
ĠT ri
' },Ċ
.C urrent
EN ER
ov al
Æ¡ n
unn able
S pe
Ð¼ Ð¾
U K
ĠÐ½Ðµ ÑģÐº
uer do
ĉ continue
.M AX
< List
Ġsuff ering
Ġt b
ĠBon us
ĠØ¯ Ø³Øª
ĠÐ¼ ÐµÐ¶
pos ed
áĥł áĥĲáĥĽ
Ð½Ð¾ÑģÑĤÑĮ Ñİ
ĠÎ´ ÎµÎ½
Ġå ĩ
ĠB oot
ĠC ash
Ġab ort
p df
Ġsub t
I p
Ġelectric ity
Ġincreasing ly
Ġmat r
ï¼ ķ
ĠV el
m ir
em u
ĠÐ¼ Ð½Ð¾Ð³Ð¾
b ud
- container
r icht
âĢĿ ãĢĤ
ç®¡ çĲĨ
d omain
en ch
Ø§Ø¯ ÛĮ
ĠC P
Ġeff ic
ÑĤ Ð¾Ð²
ign ore
ĠÙĪ Ùĩ
ĠØ§ÙĦÙħ Ø¬
á»Ŀ i
( log
30 6
Ġserv icio
Hot el
Ġcare ful
_ arr
Ġult imately
roll ing
Ã´ le
] );čĊ
à´¾à´ķ àµįà´ķ
P ixel
Tool s
Ġu ku
id an
G S
ad ed
ial es
ĠSt ack
re ement
kt ober
ç¨ ³
à¦¿à¦ Ľ
n ak
.h ash
ĠM O
à§įà¦ ¦
:: ::
áĥł áĥĺ
Ġac quire
ê° Ĳ
-g enerated
Ġdo b
/ test
24 3
ĠCho ose
ĠB ir
M s
Ġdir ig
áĥĲáĥ ¬
lig t
ock ets
_c all
Ġr ip
. âĢľ
Ġ äºº
ĠpolÃŃt ica
à¦¾à¦ ļ
Ġad emÃ¡s
Dep th
Ġe ks
Ġàªµ àª§
×ķ ×ķ×Ĳ
ĠD b
Ġf en
em an
!! !ĊĊ
Ġsa at
Ġ Äĩe
ec ycle
ĠÐ¶ Ð°Ð½Ð°
Ġact ing
ĠÐ¶ Ð¸Ð²
Sc an
ĠAdministr ation
ÙĪ Ø¶
________________ ________________
Ġmere ka
Ġsur f
anc ell
ĠC ro
:: $
ĠRes ort
ĠT reat
Ġd agen
ÑıÑĤ ÐµÐ»ÑĮ
Ġd ial
ĠHol lywood
à¸ķ à¸£
ĠPl atform
ĠÑģ ÐµÐ¼
áĥĲáĥ ¦
Ġfr anch
Ġm ood
çĽ Ł
Ġr ak
ĠP f
Ġign ored
âĢ «
Ġèħ ¾è®¯
_ as
the ad
ĠvÃŃ de
ir ty
** čĊ
ĠW ould
g enerated
_de lete
ĠÑģ Ð°Ð»
. IS
H ey
/ B
_L IST
Ġfor got
ĠâĨĴ ĊĊ
Ġ" )
Ġre ly
ĠnÃ© cess
Ġk ak
Ð»Ð° Ñħ
ĠDr iver
Ġman ier
Mill is
Ġco ordin
Ġc Ã¡
s ome
An chor
ibil idad
ãĢĢãĢĢ ãĢĢ
Ġg ag
Ð¸Ð½ Ñĥ
Ñĩ Ð°Ñģ
n ier
: +
ĠĠĠĠĠĠĠ Ċ
Ã¼ s
22 9
ov an
Ġe o
ob i
Ġhel per
Ġg orgeous
4 10
ig ing
Ser ies
d ialog
Ã² n
Ġ* =
ĠS y
et c
å· Ŀ
æ ©
ÑĢ Ð¾Ð¿
ÃŃ v
ĠÏĦÎ¹ ÏĤ
Ġze er
áĥĲáĥ Ŀ
w riter
andid ate
ot ros
çĪ ½
ĠRe quired
( J
_f lag
ĠPhil ipp
an ut
Ġfi xture
ç¬ ĳ
ĠUn s
Õ¡ÖĢÕ £
Ġemb argo
g ens
Ġex haust
Ġdraw n
- white
Ú Ĭ
Ġme est
hand ler
Ġre volution
Ġf are
voor beeld
Ġag gress
Mut able
Ñį Ñħ
is ms
24 4
av ity
Ġbu iten
Ġsent ido
ĠMedic ine
E A
ĠÐ¾Ð± Ñī
ver tex
T D
Ø§ÙĨ ÙĪÙĨ
Ġwat ched
Ġof ere
event s
; </
ĠSt an
Ġbl end
Ġcomb in
ĠÐ² ÐµÐ´
? !
ok i
erial ize
or ig
- il
(b ase
.res et
Ġ: )
å ª
Ġz ie
Ġint Ã©
l age
. pos
ĠÐ¿ÑĢÐ¾ÑģÑĤ Ð¾
- me
Ġbl ind
C amp
×¨ ×Ļ×Ŀ
Ġw ins
Ġcarry ing
à®³ à¯įà®³
å½ ¢
ĠG olf
Ãĥ O
ĠKore a
Ġcomplic ated
on ne
æł ¡
ÙĨ Ùĩ
Ð¼ Ðµ
Ġmet tre
Ġm itt
ĠP aint
ache lor
sh ape
Ġopt s
s b
Ġn ossa
Ġcert ific
ĠBe h
ĠÐ¼ Ð¸Ð½Ð¸
ic ular
in valid
." "
Ġl ug
ĠB an
çħ §
l uss
Ġin m
b ara
Ġbuy ers
Ġstre ets
Ġva ak
éĴ Ł
Ġver tex
aj es
ĠCon se
Ġ' 'Ċ
ra h
Ġcommit tee
ï¼Ł Ċ
z k
â ħ
Ġpat r
ĠÑħ Ð¸ÑĤÐ°Ð¹
Ġy an
. root
ĠÙĩ ÙĨØ§
ĠY et
ĠDeutsch land
P red
á»ĩ t
éĺ Ł
Ġrefer ences
Ġinter active
à´² àµįà´²
Se q
à³įà² ª
çĶ· äºº
ĠCl in
Ġrepresent ing
Ġmy sql
ĠS her
ĠL earning
-b ox
Ġdr iven
ĠÑĤ Ðµ
s al
24 7
Ġex ec
Ġd ual
åı ²
ue le
P in
Ġ ä¸Ń
ÐµÑĤ Ð¾
h ir
Ġne uen
ç¡ ®
IS H
[] ,
à§įà¦ ķ
' i
×ĺ ×¢×¨
ĠDiv ision
Mark er
Ġ: -
size of
ĠR ent
Com o
Ġhe ating
Ġkom mt
ar in
ĠÐ£ ÐºÑĢÐ°
Ġl Ã©
v it
lie ÃŁ
Ġkw al
Ġexpl ains
ĠBuffer ed
- class
r ay
2 99
à¥ĥ à¤¤
Ġsup pliers
iz ations
Ġok ay
_n ext
Ch rist
ĠÙĨ Ø´
ãĥ¼ ãĤ¹
at Ã©g
Ġs ve
Ġlog ged
ĠØ§ ÙĨØ¯
_pro cess
ĠK ur
Ġdo ctors
Ġconfig ur
ĠÐŀ Ð±
Ġse ks
Ø§ Ûģ
/ e
Ġà¤ ł
à¤° à¤£
âĻ ¥
âĢ¦âĢ¦ âĢ¦âĢ¦
Ø¹ ÙħØ§ÙĦ
ĠÑĢ Ð¾Ð´
Ġr iv
ERV ICE
ud en
olog ist
âĻ ª
ĠÐ¿Ð¾Ñģ Ð»ÐµÐ´
con firm
Ġcou p
Vert ical
Ġph ones
is d
ĉ ret
Ġoff ices
Ø§ÛĮ ÛĮ
Ġo cean
Ġma akt
Ġback up
Û Ĩ
Ġp p
Ġdeal er
Ġstay ed
6 40
Ñĸ Ð¿
oll ar
ab h
ĠR ender
(t itle
ĠM ove
Ġlib re
an ng
p air
Ġsw ap
: {
j oni
mer ge
//////////////////////////////// ////////////////////////////////
w atch
is y
Ä ¼
×ŀ ×ķ
Ġtrust ed
Ġfind ings
AN K
Ġrec uper
ĠÙĦÙĦ Ùħ
ä½ ı
vert heless
ell ite
4 40
$ .
à¸· à¹Īà¸Ń
Õ¾ Õ¸ÖĤÕ´
à²ķà³įà²ķ à³Ĩ
Ġhoriz ontal
Î Ľ
ac les
à¤ª à¤¾à¤²
Ġse ct
Ġfr ames
Ġt ien
Ġm ate
M achine
Ġtrans f
ĠÃºlt imo
Ġsp ots
×ŀ ×ª
Ġver l
ĠProf essor
âĢ ı
is ions
Ġ Åŀ
Ġpou co
Ġ ï
(" ./
ãĢį ĊĊ
j ed
Ġent ert
ĠA st
in th
p el
à° §
Ġopp on
ãģ °
Ġàª §
âĢĭ ĊĊ
Ð¸ Ð´Ð°
" \
S ender
Ġp ocket
åĽ½ å®¶
Ġjoin ing
. order
Ġap pli
yn a
ĠAd am
ÐµÐ½ Ð½ÑĭÑħ
lar Ä±n
à¨ Ĺ
Ġwire less
æĭ ī
Ġcontact s
.t ab
ĠÐ± ÐµÑģÐ¿
Ġret ain
Re quire
ĠAdd itionally
Ġtro is
Ġtw enty
nd e
Ġj ard
ĠEn s
Ġint ellect
Ġincor rect
Fr ont
Ġdest in
ĠØ§ÙĦØ¹ Ø§ÙĦÙħ
Ġwe il
. im
Ġd ub
Ġsup plier
ĠD iet
à° £
> {{
cul o
[ idx
ÑĨ ÑĨÐ°
Ġ( ((
ol le
Ġà¨ ħ
ach en
": {Ċ
à¤¦ à¥Ģ
Ġ ä¸ĩ
ĠSaf ety
Foot er
. ',Ċ
çĽ¸ åħ³
( Date
d al
à§ģà¦ ·
D OM
å¯ Į
Ð°Ð· Ð°
comp at
n ut
ĠáĥĲáĥ ľ
Ġ( {Ċ
Ġent ering
Õ¶ Õ¸ÖĤÕ´
ãĥ Ł
ÃŃ lia
ĠM odule
ĠF loor
Ġle an
ĠÕ¸ÖĤ Õ¶
L ow
H er
Ġáĥ¡áĥĲáĥ ®
s r
D ist
Ġun expected
en able
ä¼ ¦
ĠE ver
_ queue
res ources
Ġ Òĵ
à¤ķ à¤¿
Ġf otos
Ke ep
Ġad mit
Ð¸ÑĢ Ð¾Ð²Ð°ÑĤÑĮ
Ġcor onavirus
åĨħ å®¹
ibil ities
Õ¡Õ¶ Õ¤
P ush
ä¹ ±
Ġprime ira
à²¨ à³Ĩ
Ġbelang rijk
C ast
Ġhand les
sp ir
itud es
ĠDie go
âĢĿ Ċ
t ot
ĠO nt
ĠM itt
Ġat iv
as tr
in ning
Ġas ide
p rom
t w
EM ENT
ĠGold en
re v
. LE
ĠCal endar
f Ã¼r
Ġd ost
Â ª
cry ption
ĠBe i
Ġé ĺ
Ġtalk ed
ute ur
M icrosoft
l á»į
æĸ ½
col lect
ĠÑį ÑĤÐ¸
w anda
m ouse
Ðº ÓĻ
Ġchar set
åĲ Ħ
Ġwe et
ĠÐ· Ð²
ĠAr be
il an
Out let
ÐµÑĢ Ðµ
_p red
Ġrespons abil
Ġì µľ
ãĥ Ķ
Ġà¤ħ à¤¬
×ł ×¡
Ġpe ak
ĠF Ã¼r
Ġcal c
ĠF eder
Ð°ÑĢ Ð´
à¦¸ à§įà¦¥
ĠPriv acy
ĠØ¨ Ø§Ø±
Ġscen ario
ØŃ ÙĨØ©
Ġst ages
Î¸ Î·
Ġâ ĺ
Ġcalcul ated
Ġeng aged
: ",
Ġre vol
23 8
Ġapproach es
à³įà² ¥
Ġfall s
Ġà¶ ±
se k
P ERT
and ra
Ġann Ã©es
ĠS ec
ì² Ń
æ° Ĺ
Ġèī ²
Ġ×Ķ ×¦
Ġdu as
ĠS cript
Î ¡
gh an
ĠF loat
Ġoverw hel
rodu ction
Ġà¤ķ à¥įà¤·
u as
Ġauthent ic
Ð¼ ÐµÑģÑĤ
Al though
ĠÑĤ ÓĻ
_ thread
æķ Ī
ãĢĤ âĢĿĊĊ
Ġd ijo
.n umber
Ġaccommod ation
áĢ ¶
. it
F ER
ä¸į èĥ½
Ġy oga
Ñģ Ñĥ
Ġ ie
Ġg ross
icul um
Ġgent le
0 18
.d o
Ġà¹Ģà¸¥ à¹Īà¸Ļ
k ill
Ġel abor
ĉ de
Ġ' ')
Ġà² ¯
ĠS av
ĠSt ill
ĠØ§ ØŃ
ĠÃ¡ r
Ġd uplic
Ġfac ile
Ø² Ø©
ÉĻ y
Dr ag
Ġge le
ĠWith out
se a
Ġpod emos
ĠÑĤ Ð¸Ð¿
aw an
ĠN ick
à§§ à§
Ġwill en
Ġh vor
AR S
Ġn Ãły
ĠW ars
Ġess ays
ĠI ra
S em
.d atabase
ĉg oto
Õ¶ Õ¥Õ¬
l anguage
à¤® à¥ĩà¤Ĥ
Ã¨ l
s st
Ġë¬ ´
ier o
àµįà´ ¸
ab ad
ĠØ§ÙĦÙħ Ø´
Ġà®ķ à¯Ĭ
ĠÃ¾ vÃŃ
Ġmind er
Ġtr oub
ìĭ ¬
26 5
pos ite
p n
ĠØ³ Ø§ÙĨ
Ð¾ÑĢ Ð¸Ð¸
Ġà²µ à²¿à²
Ġ×ľ ×Ĺ
ig est
. port
âĺ Ĩ
th on
Ġv un
Ġfl ower
' on
if ting
B ot
") ).
ëª ©
Sl ider
place holder
Ġco ord
ĠØ§ Ø±
_ if
Ð»Ð¸ Ð²
ĠH ong
ĠìŀĪ ìĬµëĭĪëĭ¤
Ġlist ings
ĠN ation
il u
Ġwonder ing
çł´ è§£
åı ĺ
Ġæ ¾³éĹ¨
à´¿à´ª àµįà´ª
iel s
To ast
_b l
Ġre ven
Se cret
Ġch amb
ar ity
Ġdol or
Th ursday
ĠPh ot
Th ree
æĹ Ĺ
ann ya
Ġal to
ä¸Ń å¿ĥ
Ġdecre ase
à¸´ à¹Ģà¸
sh ops
_F AIL
ĠÐ³ Ð´Ðµ
Ġa uc
. reg
(T AG
ĠRed is
ÙĪÙĨ Ø¯
Set up
as Ä±
ĠÐ¾Ð½ Ð»Ð°Ð¹Ð½
Ġrece iver
Ġn oss
Ġrec ursos
ĠÐ¿ÑĢ Ð¾Ð´Ñĥ
ÙĦØ§ Ùģ
ĠÐ²Ñĭ Ð±
_ ph
Ġm ise
ĉĉĉ ĠĠĠ
on ces
us age
B inary
Ġ×Ĳ ×ł
_P ARAM
ĠCon tract
Trans ition
àª¾àª ķ
ĠcÃ³ mo
ann en
il m
Ġhe ute
Ġle af
?? ??
ĠY e
ç§ ģ
Ġq Ã«
(r s
S rc
Ġis instance
Ð¾ÑĤ Ð¾ÑĢ
S chedule
(c ount
Ġà¦¤ à¦¿à¦¨
ä¸ī çº§
Ġà¤° à¤¹à¥Ģ
æ° Ķ
Ind icator
Ġp ixel
Ġole h
Ġorgan isation
_var s
Ġconfig ure
Ġk ons
( set
. ac
è¶ħ ç¢°
. active
urr ing
Ġgreat ly
ott ed
å® ģ
sh ire
Ġoldu ÄŁ
< User
ĠØ³ Ø§
pro v
ĠD EL
_ OUT
Ġ×ŀ ×§
Ġt ired
Ġà¦ª à¦¾à¦°
T uesday
æĺ¯ ä»Ģä¹Ī
. ru
ï¼ī ï¼Į
ĠStud y
ĠSw itch
Ä ¯
à§ĩà¦ ®
ĠC opy
à¤¿à¤ ¹
Ġ Õ¡Õ¾
Î¹Îº ÏĮ
b ig
text area
ĉ F
Ġ×¢ ×¡
ador as
Ġs ama
Ġdis tribut
ìķ ½
áĥ£áĥ Ľ
Ġde z
Ġsh ots
ĠS ort
ÑģÐºÐ° Ñı
pon der
\ Database
U C
Ġc argo
Ġpre ced
Ġd Ã³
_m ut
Õ¡Õ´ Õ¢
ĠGal axy
oun ge
áŁĴáŀ ĵ
Ġà¸ľ à¸¥
æĢ» ä»£
Ġresid ence
trans action
ĠÕ¿ Õ¡ÖĢ
ĠÕ¥ÖĢÕ ¯
Ġc iv
ãĥ §
p ayment
os it
Re ply
Ġl ief
ĠN orm
é£ Ł
ĠMi ami
. Start
. Empty
Ġng ok
Ġall en
ĠÐĶ Ð»Ñı
im iz
( client
ĠĊĊ Ċ
el ry
Ġou ter
B i
ut u
æŃ£ è§Ħ
op es
) =
O F
à¦¦ à§ĩà¦°
Ġvez es
w ear
Ġclaim ed
.in stance
Ġte kn
Ġrecogn ition
Ã¼r lich
ĠB L
Ġinitial ly
Ġq q
Ġm Ã¶glich
Ñĸ Ðº
ido res
en ye
U A
Ġr av
ÑĥÑĢ Ñĭ
Ġ ic
fl utter
à º
Ġimpro v
ust ers
ä¸Ģ æľ¬éģĵ
_ rows
ig ation
èĦ ĳ
Ġ×© ×Ĳ
Pro d
/ D
ä½¿ çĶ¨
ĠEm ployee
em ed
Ġlib er
Ġtravel ing
Ġde le
ÙģØ¶ ÙĦ
Ġal ias
Ġal Ã©m
OK EN
ĠÐļ Ð°Ðº
.t ag
( W
Run ner
Ġà´ Ł
ge le
( min
Ġvict im
Ġcent ers
ĠØ§ÙĦÙħ Ø³Øª
_m atch
Ġen vi
Ġbr illiant
erc ise
Ñĥ ÒĽ
Ġat ual
Ġface book
ãĢģ ãĢĮ
Ġprov inc
à¦¿à¦ Ł
/ L
Ø¨ Ø§Øª
ãĥ Ŀ
Ġc un
ĠA gr
Ġà®µ à®°
ĠG ob
Ġå¿ «
Ġë Ħ
Ġbed rooms
ê² ĥ
à¦¿à¦ ®
Ġst ations
ĠT alk
ĠØ§ÙĦÙħ Øµ
Ġå¤©å¤©ä¸Ńå½©ç¥¨ æĢİä¹Ī
Ġinvol ving
Ġlaw yer
---- -
Ó© Ð³
5 20
C ould
Ġd or
w alk
Un ity
Ñı Ñħ
Ä± ÄŁÄ±
Ġ åħ¨
íķ ¨
ÑįÑĤ Ð¾Ð¼Ñĥ
Ġin ject
ĠÐº Ð»Ð¸
- per
oc Ãª
Ã³ t
ĠÑĨ Ð²ÐµÑĤ
R Y
} ,čĊ
Ġh ors
Ġle uk
- date
Ġìļ °
Ġb rit
à®¿à® ´
con v
Ġsy nd
g les
Ġbast ante
Ã¢ t
Ġton ight
Ġwe apons
Loc ale
ÑĸÐ½ Ð´Ðµ
_ api
éĶ Ģ
ĠÑĥ ÑģÑĤÐ°Ð½Ð¾Ð²
Ġm ientras
ĠL ess
àª¾àª Ī
umin um
ĠÅ¡ to
ĠÐ¿Ð» Ð°Ð½
×Ľ ×Ł
Ġbu en
ĠPro blem
ĠÐ²Ñģ ÐµÐ³Ð¾
à´ŀ àµįà´ŀ
- for
ff ic
ĠY a
up per
ail ure
Ã¢ ce
ĠJose ph
. čĊčĊ
ĠJ am
Õ«Õ »
Ġak u
é ¤
ster dam
Ġkun ye
ĠAg ency
à°¾à° ®
Typ ography
Ġcl s
Ġb os
Ġpers oon
U na
ert as
ĉ ĠĠĠĠĠĠĠĠĠĠĠ
åĲįçĦ¡ãģĹ ãģķãĤĵ
E V
end as
M embers
ĠÎ Ķ
ĠB ild
âĸ¡ âĸ¡
ua Ã§Ã£o
Î± Ïĥ
à° Ń
Ġaddition ally
Ġspe aker
Ġke in
ig es
àª¾àª ³
Ġcab in
p refix
_d escription
Ġhe x
Ġj et
, d
Ġsw imming
22 7
Ġalong side
Ġc od
Ġserv ers
ograp her
ĠDe ad
in cluding
Ġdef ect
am ic
/ data
Ġconst itu
Ġf ÃŃs
_ open
) {ĊĊ
ĠR s
Ġfall ing
Ð´Ð° Ð¹
` `
ĠEsp aÃ±a
ä» ½
ÃŃ ch
ĠØ§ÙĦØ§ Ø³Øª
ĠÕ¡Õ¼ Õ¡Õ»
Ġcon front
Ġk ud
con tract
Del ay
ëĤ ľ
} "Ċ
ĠT ouch
Ġinv ite
ĠðŁ ĻĤ
ĠForm at
à¤Ĥ à¤ļ
^ ^
èİ ·
Ġstr ange
åķĨ åĵģ
ĠÐ³ Ð¾Ð²Ð¾ÑĢ
W ednesday
M oney
Ġo ss
3 15
ĠØ¯ ÙĪÙĦ
Ġor ange
Ġf im
ĠÐº ÑĥÑĢ
Ġn es
empl ates
×ľ ×§
tt es
g end
Ġh err
ĠH aving
Ġsurpr ising
ĉ u
à¸¹ à¹ī
Ä Ŀ
Ġh ast
Te ch
Ġbelie ves
Ġcom port
Ġt ule
à¸Ħ à¸§à¸²à¸¡
Pre view
Ã¨ le
Ġ$ (".
à¦ Ļà§įà¦Ĺ
ĠÐ¿ Ð°Ð´
ĠK ir
ĠB ag
com plete
áºŃ p
_re place
ĉĉĉĉĉ Ċ
ĉ list
E ste
Ġversch ied
Ġsim ples
- id
Ġzo ek
Ġtrans formation
Ġinv ited
Ġpro port
[ [
ans a
24 8
ï¼ Ķ
3 25
PL IED
Le ave
f ono
ÙĦØ§ ØŃ
Ġst up
x ima
Ø¹ ÙĬØ©
comm it
Ġd Ã¡
.C lick
Valid ate
çĨ Ł
Ġun g
Ġà¤® à¥ĭ
ÐµÑģÑĤ Ð¸
à¦¾à¦ ĵ
Enc oder
Rot ation
ĠN FL
fe ature
ĠD AM
ĠJust ice
ÖĢÕ ¤
r adio
Ġsal ud
us ia
em ployee
23 6
ĠÚ© Ø´
ew er
ĠÐ¸Ð½ÑĦ Ð¾ÑĢÐ¼Ð°
Ġpap el
ĠÙĬ ÙĤ
ĠÙĥ Ø¨
() );
con vert
Ġst ub
ĠD J
Ø¬ Ø¯
* ĊĊ
à°¾à°² à±ģ
Ġent ities
Ġc aut
32 1
Ġ ï¼Ī
ÙĪØ¬ ÙĪØ¯
ĠáĥĽáĥĲáĥ Ĵ
connect ed
ÙĪ Øµ
- lo
- ,
ĠB uch
Ġáĥ ¯
Ñĥ ÑĢÑĥ
Ġperson ne
ĠNE W
ah oma
Ġdis appe
Ġl ake
ung u
Ġà°¤ à±Ĩà°²
áĥļ áĥĶáĥĳ
++ )čĊ
Ġmej ores
Ð¾Ñĩ Ð½Ð¾
Ġg leich
ĠM emory
Ġliter ally
Ġun us
ĠMe an
Ġexem ple
Ġp ace
Ġor ang
ĠK am
ĠÄ Į
Ġdem o
ĠH it
Ð¸ ÐµÐ¼
Ġç¦ ı
ì »
pl ain
. children
(ex pected
ge ven
f ound
'=> $
__ Ċ
_c md
Ñį Ð´
ge v
25 3
åĲ ¦
Ġcon clusion
(M ath
é ²
Ġm ieux
Î¿ Î¹
Ġun w
4 30
Ġne ither
ĠSp ain
ies e
ĠJew ish
Ġtext o
tra ctions
h ad
Ġevent o
.A b
Ġz eker
_l ast
Ġl uz
Ø· ÙĬ
íĺ ķ
ĠÑĤ Ò¯ÑĢ
com fort
Ġd la
LOB AL
ĠTH REE
Ġpass age
ut ed
Ġë° ľ
k im
Ill uminate
Ġa ver
_S et
Ġfe cha
ash es
S plit
26 2
Ġview ing
à¥Į à¤°
Ġi edere
ĠØ§ Ø®Øª
Ġcre f
ĉĉĉ Ġ
Ġcur so
Ġens uring
Ġë¬ ¸
arch y
cont re
Ġp ai
Ð¾ÑĤ Ð°
24 9
ĠRest aurant
áĥķ áĥĶáĥ
End point
Ġenth usi
ĠÎ¿ Î¹
.l oc
C ent
Ġde uts
f an
Ð¾Ð³ Ð°
Ġà¤Ĺ à¤Ī
à¥Ī à¤¨
Ġb ass
Ph ys
Ġst y
ĠÙ¾ Ø§Ú©
Ġs out
u Å¾
ĠP sych
Work er
Ġstud ied
ÐµÐ· Ð¸Ð´
ĠK ids
Ġe volution
Ġaqu ÃŃ
ĠØ¢ Ù¾
×ķ×¨ ×Ķ
F X
ĠAl t
vis ions
åĨ ł
BO OL
Ġm est
Ġtran qu
Ġme ets
ÃŁ er
Ġvec es
ĠIn valid
Ġb ord
Ġfem in
Ġport e
à´¾à´ Ĥ
ĠH arr
Ġen qu
Ġà´ Ń
Ġse iner
erg en
Ġcap s
Ġí ģ
à²¨ à³į
ser ies
-------- --
ħ è¯»
ĠRE G
å®ĺæĸ¹ ç½ĳç«Ļ
.col umn
à§ĩà¦Ľ à§ĩà¦¨
ĠD ays
up iter
è® ®
ĠIn form
(st atus
Ġb ull
à´¿à´ ¸
ĠEst a
off ee
AT URE
ĠÐ±Ð¸Ð» ÓĻÐ½
é¦ĸ é¡µ
_T EST
Ġkey word
Ġà´Ĵ à´°àµģ
ĠÎµ Î½
. St
ot ive
c iones
ĠÐº Ð²
Ġfot ograf
Ġin cent
allow een
Ġprefer ences
æĸĩ ç«ł
Ġwrit es
ters ch
Ġreve al
Ġpos ible
Ġn ick
rit able
Ġverd ade
Ġwir k
yn th
ĠÐ¾ ÑģÑĤ
Ġ ion
Ġà¦¥ à¦¾à¦ķ
ĠW ikipedia
/ $
Ġmeas ured
eb en
Ġcrypt o
Ġbr asile
_ work
ĠR ap
_ service
OS S
Ġrob ust
ĠÐĿ Ðµ
×ĵ ×Ļ×Ŀ
Ġrapid ly
ĠW elcome
ĠH R
ĠM ode
Ġw rapper
ĠáĥĲáĥł áĥĺáĥ¡
Cl ip
Ġo w
Ġtr ash
Ġà´ «
ì ¸
U IL
ĠView s
Ġmaint aining
Ġà¦ľà¦¨ à§įà¦¯
Ġ×ŀ ×Ĺ
ĠL ux
Ġhac ia
Ġl ands
Ò± Ð»
Ex ecute
ve h
Ġ_ .
iet et
ĠÎ¼ ÎŃ
å¤§ å°ı
à±ģà° °
å° ¼
Ø§ÛĮ Ø¯
. attr
r ik
ĠÐ¸ ÑĢ
ĠN orthern
ĠmÃºs ica
ĠP ython
ĠSt ad
ĠAnal ysis
Ø¨ Ø§
ÏĥÎµÎ¹ ÏĤ
') :Ċ
ol ine
âĸ Ī
={ (
\ r
Ġa ange
ex ion
à¸´ à¸ĩ
Ġmed ication
ĠÐĺ Ð½
Al pha
Ġcr u
Ġå ·
Ġt ale
Ġpack ed
# a
Ġr ising
ëĵ ł
Â° C
ÑĨÐ¸ Ð°Ð»
Ø±ÙĪ Ø¹
ĠÎµ Îº
Ġkrij gen
: event
ĠÑĦ Ð°Ðº
Ġk ra
Ð¾Ð¶ Ðµ
×ķ×ª ×¨
cre ation
5 10
ÙĪØ§ ÙĤ
è Ľ
f ica
Ġà¤¦à¥ĩ à¤¶
Ġa quest
ÑĨ ÐµÐ½
ĠIN TO
ĠCath olic
post s
ĠÙħ Ø®ØªÙĦÙģ
Ġà´ħ à´µ
ĠÐ¼ ÑĥÐ¶
link s
);ĊĊ //
P D
Ġmed i
Ġhol idays
; }Ċ
Ġv raag
×Ĺ ×ª
Ġm Ãł
ĠM om
Com par
and el
ust ri
.g nu
Ġdest ac
ä¼Ĭ äºº
H o
Ġko j
à¸Ļ à¸±à¸Ļ
.Se lected
pons ive
.V ector
Ġo y
us k
à¨ £
Ġre k
ĠÑį Ð»ÐµÐºÑĤ
z lich
Ġm Ã£
res so
Ġprop ag
Ġcert ification
Ġven ue
ĉ out
ĠReg ional
Ġih n
s ur
æīĭæľº çīĪ
Ġgew oon
T ipo
(type of
è° ±
×Ļ×ł ×Ĵ
Ġmer ely
ÐµÑĢ Ð²
ix in
Ġmill ones
Ġh int
ĠÑħ ÑĥÐ´
g ue
ĠSu ite
ĠCons ider
ac ular
Re views
×Ľ ×ª
ĠEst ados
Ġvra iment
Gener ic
ĠQu estions
Ġalleg ed
ĠHol y
Ġx s
Ġnj Ã«
Ġple asant
ĠÐº Ð°Ð»
Ġj aren
ÙĤ ÛĮ
, m
_re cord
Ġintrodu ce
F IN
è¯Ħ è®º
Ġk od
ĠÑĥ ÑĤ
è®° å½ķ
Ġparticip ation
Ġb ole
Ä± ÄŁ
Ġ- >Ċ
op ts
EN C
Ò¯ Ð·
Ġy ards
£áĥ ļáĥĺ
Ġag enda
çİ© æ³ķ
.res olve
Ġliv re
0 60
Ġlov ing
Ġfocus es
Ġh art
-d own
áĥĲáĥ ĳ
.t oken
ĠResult s
Ġse b
28 8
d atabase
aw i
Ġunderst ood
ab c
_d esc
ER O
' b
Ġ×Ĳ Ö¸
Ġg raag
Link s
_C HECK
z d
Ġ-- -
à³ģ à²¦
M ount
Øª ÙħØ§
Ġsup plied
Ġca usa
Ġpar allel
- ind
Ġ*/ĊĊ /
à¸£ à¸±à¸ļ
ĠPar se
Ġà¤¸à¤° à¤ķà¤¾à¤°
ĠV ietnam
Ġtr ata
on ed
Ġp ir
Ġt ied
D u
ORD ER
b ury
×ł ×ª
t ant
att ach
ĠR ange
li que
Ġof t
ar ters
ÛĮ Ø³
åĪ Ŀ
k men
M as
è¾ ĳ
Ġer re
net work
Ġ'' 'Ċ
Ġhe aling
entr ies
Ġab und
w eni
ar ma
ĠW is
_c ategory
Ġatt ended
b ums
Ġcon tribution
Ġm ari
Ġdem ande
Ã§ ar
@ Component
Ġnuest ros
23 7
/ T
ÙĨ Ø¹
_ helper
Ġt arde
Ġ{ ...
Ġà¤ªà¤¹ à¤²à¥ĩ
van ia
Util ity
av at
Ġdescrib es
Ġ{ /*
áŀ ¾
(b uffer
oy a
_ def
P ut
ÙĨ Ø¬
ĠÐ¸ Ð°
Ġh il
Ġde el
Ġà²¨ à³Ģ
ĠÐ´ ÐµÐ²
ÐµÑĢ ÑĤ
ÃŃt ulo
Ø® Ùĩ
à´ İ
ĠS ong
Ġre ste
Ã¸ y
D uring
Ġreg el
Ġv ess
.cl oud
Ġse q
, a
_DE BUG
Ġt weet
Ġà®ª à¯ĭ
i embre
à¥įà¤Ł à¥įà¤°
iet ies
×ĳ ×Ł
yr ics
à«įàª ¥
ĠK ol
_ arg
O cc
Ġbro ke
ĠÑģÐ² ÑıÐ·
Ġthous and
Ġch est
N amed
Ġaccord ance
_FL AG
Ġé «ĺ
Book s
à°Ł à±įà°Ł
± àµįà´±
Ġ×ĳ ×Ĺ
Ġm int
l ÉĻr
. div
.ex p
Ġme ine
Ġou ght
W at
st i
ĠJ obs
å¼ ł
or re
ä¹ ī
RE QUEST
u pt
ĠÑģÐµÐ± Ñı
Ġunser er
Ġe fic
ä¸Ģ çº§
U nique
ĠÐº Ð°Ð½
ter min
Â» ĊĊ
iam o
cd n
ier re
st re
Ð¼Ð¸ Ð½Ð¸
Reduc er
ĠĠĠĠĠĠĠĠĠĠĠĠĠĠĠĠĠĠĠĠĠĠĠĠĠĠĠĠĠĠĠĠ ĠĠĠĠĠĠĠĠĠĠĠĠĠ
& nbsp
Ġpr ide
Ġindic ated
up plier
param eter
ut ar
Ġfrequ ent
Ø¦ ÙĬ
T imestamp
u esto
e it
Ġproduct o
ĠÐ· Ð°ÑĢ
Ġj orn
åĥ ı
Ġn im
Ġb ills
Ð¸Ð´ ÓĻ
h om
Ġl ou
è® ©
Ġg Ã¥
$ data
åģ ľ
à²¾à² ¸
.Error f
Ġwe apon
_B ASE
ĠEn c
Ġin fer
Ġde leg
Ġà¤ª à¤¨à¤¿
sm arty
Ġce ux
Ġè Ģ
Ġd ÉĻ
ĠC OPY
ĠP i
che m
Ġx i
/ en
Ġmaint ained
Ġmer ch
ĠP ayment
Ġre serve
.c enter
ç´ ¢
à¤¬ à¤°
9 50
enc il
" .Ċ
à¨ ľ
ĉ R
Ġport al
ĠBel g
Ġn ah
Sm all
, .
ĠB os
æĽ´ æĸ°
Ġins ights
Del ta
Publ ished
column s
Ġáĥł áĥĿáĥĴ
Ġe ka
Act ual
ĠÐ¼Ð½ Ð¾Ð³
ĠsÃ© cur
Ġdrink s
Ex ist
ĠL ICENSE
à´£ à´Ĥ
ĠJ oh
@ Test
ĠK er
h te
M al
ater al
à§° à§ģ
r x
âĢĻ ĊĊ
ĠÕ¡Õµ Õ½
W A
W T
help ers
Ġpl at
N ombre
b orn
ĠW E
F oto
ĠÐ¿ Ð¾Ð»ÑĮÐ·
Ġar c
ĠO cc
, C
àµģà´ ª
æĺ ¥
, t
id el
Ġstrong er
Ġbr on
è «
( label
Ġk ant
ĠÃ į
Ġfra ud
ĠÑĥ ÑĢ
irth day
Ġdies en
Ġà°ļà±ĩà° ¸
ous es
. no
he ther
Øº ÙĬØ±
j um
_s l
ond o
y z
(d is
tag on
Ġcal m
Ð¸Ð½ Ð³
Ġ" ");Ċ
ĠíĨ µ
ĠØ§ÙĦØ£ ÙĪÙĦ
-in fo
os er
Ġtrav ers
Ġrepresent ative
Ùĩ Ø¨
Ġtrad em
let a
ĠP E
Ġpes o
Ġdec imal
30 8
_b tn
Ġt á»«
å£ °
ato es
Ġsp a
Ġcomput ers
look ing
Ġo ps
press ed
23 9
ĠÙĨ ÙĤ
ĠQ UE
g ua
_ one
p d
Ġaward ed
ĠLe ft
ĠFl ash
ĠE VENT
/ in
ØŃ ÙĤ
ÑħÐ¾Ð´ Ð¸ÑĤ
.sc ene
Ġæ±Łèĭı å¿«
ÐĿ Ð°
S ocial
H ex
Ġb anyak
Ġë ħ
Ñį ÑįÑĢ
ĠK ent
Ġf j
ĠØª Ø³
æŀ Ĳ
Ġneut ral
ìŀħ ëĭĪëĭ¤
Ġc ogn
Ġp x
Ġmechan ism
Ġche f
è± ¡
l int
Ġhard er
à²Ĥ à²¬
ĠE mb
Ġf og
ĠÎŃ Î½Î±
d z
lection s
Ġpre f
ite z
Ġzus ammen
Ġspec ify
")) ;čĊ
And roid
ĠSol utions
T HE
Ġret irement
(: ,
Ġà² Ĵ
Ġmunicip al
ini ÅĪ
ct l
M R
Ġsyn th
he art
ill ion
T L
Ġart ificial
à«įàª ª
é º
Ð°Ð· Ð°ÒĽ
E in
áĥĲáĥĵ áĥĴ
ut y
è§ ģ
ĠW ant
_ iter
Ġà´ª àµĭ
_c ache
ĠPer fect
Ġw p
_O FF
Ġcl imb
in herit
Ġer h
H ub
gg reg
Ġn it
Ġnews letter
Ú© Ø±
-d r
Ġs Ã¤
Ġc urs
is ement
à§ĩ à§Ł
ind ÉĻ
ĠáĥĹ áĥ¥
ibern ate
ĠM inn
Ġho of
ĠB ased
pis ode
Ġnum ero
ĠS ans
à°ķà±įà° ķ
Ġæ ²
ĠB ell
Ġt es
LO AD
.ex it
ĠA uch
_AT TR
Ġwant ing
ung er
ĠM ol
Ġkn ock
omb res
ĠÐ±Ð¾Ð»ÑĮ ÑĪÐµ
Ú Į
ĠUS ER
Ġsk r
D iff
å½± éŁ³
D an
G reen
/ F
ĠÙħØ« ÙĦ
Ġvol unt
ult ura
ĠT s
ow el
an st
W ir
ĠE rr
OUN D
Ġbenef icial
à®² à¯Ī
ach d
det ails
Ġscen es
] -
_AD D
ĠS ul
ĠN AS
à¤ļ à¥įà¤ļ
Ġm r
å Ĥ
ep och
ĠA venue
Ã« t
å½©ç¥¨ å¨±ä¹Ĳ
_t ree
Ġde ber
/ P
_ le
Ġsm oke
Ñĥ ÑİÑĤ
Â ½
ĠEx am
áĥĺáĥĵ áĥĲáĥľ
Ġ- ĊĊ
em ony
De cl
.X tra
ouw en
Ġà¹Ģà¸ Ħà¸£à¸Ķà¸´à¸ķ
(" -
áĥĿáĥ Ĺ
Ġj ako
ĠPer formance
Ġin e
ĠD iam
he ast
Ġpl a
Graph ics
l io
Ġl j
Ġbe gr
ĠÑī Ð¾
Ġpar ce
Ð¾ Ò³
ab al
Ġl ens
Ġfl ights
ĠM IN
ze ich
Ġaw ards
Ġbed s
Ġgraph ic
Ġst ellen
Ġm ature
ens chaft
es en
ãĥ¼ ãĥ«
_D IS
à´ «
Ð·Ñĭ Ð²Ð°
Ð± Ðµ
uit en
Ġphot ography
_t ask
ĠÑģ ÐºÐ°Ð·
.f ield
Ġg h
.s vg
Ġg ate
ĠM uch
ĠÚ© Ø§ÙĨ
Ġesk orte
ste ps
ä»¥ ä¸Ĭ
. No
Ġphr ase
ĠÐ²Ñģ ÐµÑħ
ĠR Ã©
L ife
Ġn au
ue b
è¼ ī
ĠpaÃŃs es
al c
ê² °
Ġsp ir
/ img
áĢ ¾
Ġein mal
Ġd á»¥
Ġn est
li ament
à®¾à® ³
Ġpou voir
ÐµÐ½ Ð½ÑĭÐµ
Ġa rom
ank en
ar u
Ġë§ Ĳ
Ġstrong ly
ĠG ive
à°ļ à±įà°ļ
ĠB ot
Ġsc ored
ĠØ£ÙĨ Ùĩ
ĠÚ©Ø± ÙĨÛĴ
ĠV irtual
- col
ro c
ĠH appy
Ġ×Ĳ ×¨
ate ful
av g
Ø§Øµ Ø©
in ating
æŃ ¢
Ġm idd
not ations
arg ar
au ff
h h
ĠÑģÑĤ Ð¾ÑĢ
Ġegg s
_M IN
~~~~ ~~~~
pro of
.t ask
Ġt issue
Ġar te
Ġë¯ ¸
s ender
áĥ£áĥ Ĺ
mark et
INS ERT
ul se
j ak
ĠĠĠĠĠĠĠĠĠĠĠĠĠĠĠĠĠĠĠĠĠĠĠĠĠĠĠĠĠĠĠĠ ĠĠĠĠĠĠĠĠ
Ġdem ands
ay i
, (
sv g
ir cular
Ġamen ities
ĠD Ã©
az er
ĠSen ate
Ġs Ã©r
ĠØ§ÙĦØ³ ÙĬ
p res
at tributes
Ġunivers ities
Ġjed en
ĠH ab
3 11
Ġà¦® à¦¾à¦¨
Ġof icial
Ġsim ult
Ġsh arp
ĉ J
Ġun lock
ĠWh ats
×© ×ª
Ġtyp ename
at ial
_ Z
Ġcu id
en ers
.... ..
Ġlah ko
Supp ress
Ġ" :
ĠØ³ ÙĪ
_ encode
st off
Ġp end
Mon itor
Ġfr uits
.L oad
am y
ĠV it
áĢķ áĢ«
Ð¾Ñģ ÑĥÐ´
Ġa er
ĠTrans form
Ġde pression
Ġsich er
Ġel ke
Ġp f
. pr
.Aut owired
ìļ ¸
k em
ĠHot els
P icture
Ġam igos
ch Ã©
Ġpe qu
- ci
Ġí ĥ
Ġprec ision
à°Ĥà°¦ à°¿
ĠC SS
ÉĻ ri
Ġsel v
ĠÙĪ ÙħÙĨ
/ st
leg a
Ġthrow n
ĉ string
Ġatt itude
ou vr
ĠSecret ary
åı· çłģ
_W R
èģ Į
(N ULL
Ø§ ÙĬ
W ords
ĠÎ± Î½Î±
.b lock
() )čĊ
Ġest amos
Ġentr ance
k ip
Ġrepresent ed
( color
H a
Ġà° ¶
Ext ensions
Ñĸ Ð¹
/ (
ĠPrem ium
iffer ent
Ġr ated
ĠÑĥÑģÐ» Ð¾Ð²
Ġg it
Ġc nt
Ø§Ø¨ Ø©
.s uccess
yy yy
Ġk omb
cc iones
Ġlegis lation
ra is
Ġle y
. le
Ð¸ÑĤ Ñĭ
Ġmuch as
View s
Ġserv icios
ãĥ Ĭ
ĠC hem
Ġscient ists
à¦ ł
ĠÐłÐ¾ÑģÑģ Ð¸Ð¸
ĠTr av
_st ep
à²² à³ģ
Ġgot ten
F ood
pons es
Ġìĭ ¤
ÏģÎ¹ Ïĥ
Ġ" __
×¢ ×ŀ
0 15
Ġà²® à³ģ
Ġb ild
Ġm ars
áĥ ¯
ÑģÐ» ÐµÐ´
Ġà¤Ĺ à¤°
ĠWork s
Ñĥ Ð³
in teger
å¾ Į
Ġid s
ç» ľ
Ġstudy ing
ĠC ette
For ce
as hed
' "
Add ed
ĠR ome
ĠÐº ÑĢÐ°Ñģ
Ġmenj adi
Ġg ost
å¤§ é¦Ļèķī
ĠAd vent
32 7
_RE QUEST
áŀ ļáŀ
Ġneg oc
Ġs ched
Ġwet en
ÙĦÙĬ Ùħ
Ø² ÙĦ
Ġb Ã©
ĠPro gress
Ġst ap
ul in
à¦¿à¦¤ à§ĩ
ape ut
ĠPart ner
.An chor
it ative
An n
ĠØ£Ùĥ Ø«Ø±
ÙĪ Ø©
ning en
Ġà¤ħ à¤µ
Ġæ °
_ items
Ġ- Ċ
ÖĦ Õ«
3 16
ect ors
ĠÑĨ ÐµÐ»
Ġla id
d Ä±r
àµĩà´ ¶
Ġt udi
Ġa che
ĠStud ies
Ġm um
Ġtele phone
à±ģà° Ĺ
Ġse es
Ġëı Ħ
at ten
Ġdam aged
Not es
_ Ċ
ĠM eta
à¥ĩ à¤¤
ï¼Į åľ¨
èª ª
ĠY OUR
Ġj en
Ġt ape
ĠÐ¿ Ð¾Ð½
×¢ ×¡
è´ ¦
ĠÐ´ Ð¾ÑĢ
l ijke
Ġfor me
ak se
( U
Ïģ Ïİ
. Content
Ġquest o
il de
Ġk ug
Ġen se
Ġp ec
ĠLIMIT ED
Ġà°¸ à°Ĥà°
ĉ my
Ġà¤ ĳ
.Ċ //Ċ//
ĠÐ·Ð° ÑıÐ²
par ation
Ġmi xture
Rece iver
D om
x ico
Ġà¤¸à¤ķ à¤¤à¥ĩ
sh ift
Ġà¤µ à¤°à¥įà¤·
: .
A verage
iv ia
S ame
çĽ Ī
ĠM IT
de p
3 90
ĠÑĢÐµÐ· ÑĥÐ»ÑĮÑĤ
am is
ĠØªÚ¾ Ø§
Ġæ ŀ
R atio
Ġp iano
Ġcolleg es
Ġper ÃŃ
_P ORT
ĠFin ance
Ġpro min
V e
Ġg eg
-b ack
Ġp oc
ad amente
Ġ! Ċ
ÑĨ Ð¸Ð¹
ãģĭ ãĤī
qar poq
Ġr áº¹
Ġtrail er
Ġl ol
å¤ ®
ĠE P
ĠÕ¶ Õ¡
S unday
ĠÑĤ ÐµÐ¿
" {
_ const
Ġearn ings
ĠÙĬ ØªÙħ
Ġin hib
ĠD ol
Ã¥ de
_ [
Ġ{ },Ċ
Cho ice
Ġih m
.out put
ĠM ai
ĠNet flix
Ġcomp osition
ĠìĤ¬ ìļ©
çº ¦
Ġexperien cia
ĠÄĳ áº¿n
Ġpurch ases
ĠF ILE
Ġbo ards
ĠÙħ Ø¨
í Ĥ
.se cond
_t emp
à¹Ģà¸ ģ
à¸ª à¸¥à¹ĩà¸Ńà¸ķ
ĠK i
Ġ ))
( Request
à¸²à¸ °
s f
h ok
ov ing
of a
ib u
arr en
Ġtem plates
ER N
cre ase
Ġbl ir
ÙĨØ¯ Ùĩ
Ġst ood
call back
Ġm h
ini um
Õ¡Õ¦ Õ´
k v
ĊĊ ĊĊĊ
tain ment
æ® µ
ĠW riting
ĠPort ugal
ĠSing apore
Ġv ita
Ġn ursing
ĠR etr
ĠX X
ãĢĤ âĢľ
à´¿à´ķàµįà´ķ àµģà´¨àµįà´¨
Ġsel on
è¦ ĭ
ĠF oto
Ġs áº½
à²¸ à³į
Ġh á»į
Ġpres cription
.s ign
Ð°ÑĤ Ð°ÑĢ
S afe
Ġbeh alf
get s
es ar
.m enu
ĠP ool
Ġà¦¦ à§ĩà¦ĸ
re ll
ĠÐ² Ð°Ð¶
Ġàª® àª³
v ue
Ġd ensity
à¤¾à¤® à¤¾
. Contains
Ġr ic
io x
ĠMic hel
Ð¾Ð½ Ñĥ
ĠÃ ´
ene z
Ġ×ŀ ×¦
Ġp ets
serv ation
Ġeuro pe
p á»į
×¢ ×ķ×ª
Ø®Ø± Ùī
Ġphen omen
ĠO x
âĢĿ çļĦ
") );ĊĊ
áĥĲáĥ Ĵ
. Open
art o
Ġl oyal
Ã¡t ico
Ġanal ys
Ġà¤ª à¤¾à¤°
Ġsk a
=" +
à´¾ àµ¼
Ð¸Ð¼ Ð°
ke un
ust a
ÐºÐ¸ Ð½
.c n
AD O
ul ous
Ġsh irt
ĠEqu ipment
ĠN ative
f mt
à¤¿à¤ ·
æ¼ «
ĠT EST
el and
Ġcur ve
ĠSch w
it zer
Ġm ongoose
il ia
pt on
={ "
ĠÃ Ģ
Ġgen o
Ġamb iente
amm ar
Ġtr ips
ard i
vari ant
en ix
æĤ ¨
Load ed
r er
() )ĊĊ
Ġ* ,
.R ows
Ġdet te
Ġconfirm ation
Ġih ren
Ġcu isine
Ġclub s
fl ate
ĠÑĥ Ð³
@ Request
ne go
Ġmeasure ment
Ġj enter
ĠChar acter
ile y
App ly
ĠAr izona
Ġà¤® à¥Īà¤Ĥ
Ġprepar ing
( z
Ġgi ant
n Ã½
ĠBe ing
ES C
à¤¿à¤ķ à¤¾
t te
ĠF el
Ġsar eng
ê »
ĠÒ³ Ð°Ð¼
¶ Į
ĠPrem ier
.f e
_CON FIG
æĺ ¾
k ken
ĠÐ´Ð¾Ðº ÑĥÐ¼
Ġf ost
Ġt ick
est one
Ġk ami
Ġà¤ķà¥ĭ à¤Ī
> ĊĊĊ
ĠIm m
Ġv err
Ð½ Ð°ÑĤ
äº «
Un s
Ġbes oin
ĠMon o
ouch er
Ġproyect o
0 50
ë ĳĲ
åı ¤
Ïģ ÎŃ
ĉ L
ui Ã§Ã£o
Arg uments
ĠR ou
Ã¼ ÅŁ
ĠÚ ı
Ġste ht
Ġs atu
Ġà¤ļ à¤²
ĠÐ¶ ÑĭÐ»
ĠV A
. plot
Add itional
ink s
Ġfac ulty
ic ide
Ġpass er
Ġem ple
Ġconf ort
r ong
esc ape
ock ey
fo is
Ġap a
_m anager
.s lice
Ġqu it
áĥĲáĥłáĥ Ľ
_W IDTH
Ġpel os
Ġt la
Ġpow ers
Ġå° ı
à²¾à² ľ
ĠMag azine
Ġlarg ely
Ġattempt s
Ġconcentr ation
30 7
Ġh ack
áŀ ħ
Ġemploy ed
Ġenh ancement
Ù ĵ
ĠHen ry
b ah
Ġbl i
Ġon click
ĠThe me
ĠInd ep
S ent
_ command
ì² ĺ
ib o
Ġsk i
Ġma e
-h our
s ocket
Ġcon vey
Ġint ense
Ġbe an
à®©à¯įà®± à¯ģ
comp are
Ġbel le
à¦ķ à¦¾à¦°
Ġc p
ver n
Ġevery body
ip per
iet e
met ic
ï¼Į ä¸į
Ġcompens ation
read crumb
ĠJSON Object
_M ODULE
Ġtrans par
ĠØŃ Ø¯
Ġcy cl
Ġà¤Ń à¤ıà¤ķà¥ĭ
. img
ÙĪÙħ Ø§Øª
Ġtrans parent
se q
Ġ æĹ¥
H ouse
gr und
ë° °
Ġam p
ĠÐ¼ÐµÐ½ ÐµÐ½
z ial
Ġpl ata
it us
Ġstr ike
Or ders
à¤µ à¤¾
All oc
F acebook
Ġacord o
; j
w ir
ĠTor onto
( ref
Ð»Ñĭ ÒĽ
ĠDies e
av il
Ã©n Ã©
Ð· Ñı
0 13
} );
Ġb ob
trans late
Ð½Ð° Ð´
k re
X Y
æĪĲ åĬŁ
Ġst ability
qu o
D L
ĠL ang
op ic
( isset
lect ric
. ")Ċ
Ġder iv
Ú© Ú¾
Ġfoc using
................ ................
ì ½Ķ
Ð°ÒĽ ÓĻÐ°
Ġg ained
OUR CE
ng a
ĠÙĤ Ø§ÙĦ
iert o
t pl
Ġ(! $
_in stance
f el
h m
ĠS eb
ĠC os
Ġpar agraph
Ġst om
Ð¾Ð¼ ÐµÐ½
Ġkom mun
Ġcel ui
å ³
ĠN ob
% s
ĠÐ½ Ð¸Ñħ
l p
Ġ×¤ ×Ĳ×¨
ĠUn fortunately
Ð¾Ð½ ÑĤ
Ġintegr ity
Ġgenu ine
( com
Ġ×Ĳ×Ļ× ļ
Ġà´ª à´±
Ġl ambda
.s ource
< tr
W ater
à¤¥ à¤¾
qu oi
ï¿½ï¿½ ï¿½ï¿½
à´¾à´ ®
ĠÐ¿ÑĢ Ð¸Ñĩ
Ġperform ances
.A d
_e qual
IT ION
ĠÙĬ ÙĪÙħ
y dd
ĠT aylor
Ġpre view
ĠO t
Ġhost ed
Ġto oth
ç® Ģ
Ġtak o
Ġà¤ĺ à¤°
Ġre cept
Ġy u
ĠE mer
Ġkom men
Ġf akt
Ġunder lying
Ġl oud
ĠH ero
Cho ose
ãĥ Ģ
Ġap Ã³s
ĠÐĲ Ð»
sh are
Ġin her
od b
non atomic
ĠNot ification
Ġse eds
ĠVill age
' y
Ġalg u
àª¸ à«įàª¤
Ġa ims
ĠdÃ©velop p
Ø±ÛĮ Ú©
Ġ×Ķ ×Ľ
rot ation
ĠÐ±Ñĭ Ð»Ð°
Ġst o
Beh aviour
Ġclass room
Ġperiod s
ĉĉĉĉĉĉĉĉ ĉĉĉĉ
Ġperm itted
ĠØŃ Ú©
ac ement
Ð³ ÑĮÑĭ
ĠÐ² Ð¿
.to ol
Ġco ordinates
ĠÐ¼ Ð½Ðµ
u Ã§Ã£o
Ex cel
Ġac quired
g ui
m ont
Ġres ident
Ġp izza
! ,
Ġpregn ancy
ĠASS ERT
la ÅŁ
ĠStr uct
àª¨ à«ģàªĤ
×¢ ×ĵ
fig ure
ĠPak istan
ull u
Ġsal a
**************** ********
Ġz d
à° Ĺà°¾
à¥ĩ à¤ľ
Ġà¹Ģà¸ §à¹ĩà¸ļ
Õ¡Õµ Õ«
Ðº ÑĥÑĢ
Ġà®¨ à®Ł
w at
Ġm ange
ĠÐº ÐµÑĢ
Ġcent r
Ġfr anc
Ġdef end
oll a
S W
ĠW a
ce u
_ server
Ġë ©
ÐµÑĢ Ñĭ
ĠMaj or
: /
ĠL arge
Ġp ending
è¡¨ ç¤º
Ġcontinu ous
Ð¸ Ñī
Ġà¤ħà¤ª à¤¨à¥Ģ
Ġder nier
.vis it
àª¾àª¨ àª¾
ĠM ind
à´¿à´² àµįà´²
Ġdiscount s
ĠÑĥ Ð¼
t ags
Ġà¤¦ à¥Ģ
Ã© k
Î¼ Î¬
Ùĩ ÙĦ
Ġ ici
Ġìŀ ħ
Ex ternal
Ġëı Ļ
à®¤à¯įà®¤ à®¿à®²à¯į
st ation
] }
Ø§Ø¦ ÙĬØ©
iz abeth
Ġreview ed
Ġm x
Ġcontro vers
Ã¶ ff
n Ã¡
ol er
Ġcou pon
Ġà¤ķà¤° à¥ĩà¤Ĥ
Trans port
ëĭ ĺ
ì§ ģ
ĠRem ember
Ġse per
Ġintern acional
pi pe
={ {Ċ
×Ļ×Ļ Ö·
Th an
Gu ard
Ġf lying
ĠL ew
ĠS tra
×Ļ×© ×ĺ
Ġmir ror
doc s
Ð¾Ð¶ Ð´
Ġcard i
ĠBund es
ĠÕ Ĩ
Ġhop es
Ġf ed
Dep end
Ġexam ine
_by tes
Ġka o
yl vania
ĠA kt
Ð° Ô¥
Ex pected
ps on
à¥ĭà¤Ĥ à¤¨à¥ĩ
Ġexpand ed
Ġcon du
ĠÐ¢ Ð¾
an es
ĠAr beit
ĠS V
Ex pect
Ġej emplo
< >
. Tr
IS IBLE
C ircle
Ġprod utos
Ġf d
Ġdemonstr ate
S el
ver al
Ġbuy er
ĠÒ¯ Ñĩ
ac ent
Ġàª ĵ
Ġìĺ Ī
Ġk im
yd ney
ĠB urn
Ġstock s
Ġinter pre
Ġfem me
Ġd rei
.tr im
Ġno se
Ġ ĉĉ
Top ic
S aturday
à¹Ī à¸§
re tt
éĵ ¶
.in ternal
ĠprÃ³ ximo
cr iter
Ð¾Ð»ÑĮ ÑĪ
Ġthem es
l iga
Ġdis cre
.S erv
Ġse asons
Ġ(! (
_STR ING
Ó© Ð¼
Ġt are
ion a
Ġrom antic
/ k
ÙĨ Ø§Ø¡
à«įàª° à«Ģ
Ġi Å¡
-n ative
Ġperson n
Ġint ention
ĠG reg
à¤ª à¥įà¤°
comm end
Ġp int
Ġjed och
Ġb anc
ĠM and
Ġeng ines
Ġh ore
B F
áĢĢ áĢ¹
Ã© is
Ġa ang
r us
à¤µ à¤¨
_f ields
Ġpet ite
à¨ Ł
Ġà¹Ħ à¸¡à¹Ī
ĠEn try
Ġà¹ Ģ
g ov
vari ables
ĠìĦ ¸
Ġp og
F un
Ġ×ķ ×ĳ
35 6
ãĤ §
_s ession
Do es
Ġap plies
Ġprodu ces
Author ization
Ġsou vent
M usic
% ï¼Į
Look ing
_ASS ERT
ĠL iter
Ø§Ø¦ ÛĴ
ãģ Ń
ĠIra q
atter y
_F ORM
ëį ĺ
Ġseg Ãºn
Ġob ten
Ġ ï¿½
Ġim mun
Ġàª¹ à«ĭàª
D X
Ã© ro
=" _
ĠM oon
àª¾àª ĩ
_ load
Ġhab er
T ex
à¨ ¼
Ġáĥ£áĥľ áĥĵáĥĲ
Ġdes per
Ġc sv
ĠH u
± ¼
à²Ĺà²³ à³ģ
_SH ORT
ĠØ® ÙĪØ§
al ias
ĠSh ared
: self
ath a
in son
ĠA CT
Ġn ge
z ym
ĠIn nov
Task s
ĠL ady
Ġya ÅŁ
Ġeng aging
áĥĲáĥłáĥ ĵ
Ġaccount ing
}} </
. el
à«įàª ®
Ġcot ton
Ġpued es
ener ation
ĠF ant
Ã¨ r
éĿĴ éĿĴ
N ET
Ġnem en
Ġn Ã¤r
U i
T odo
áŀ ļ
Õ¸ÖĤ Öģ
or igin
æī į
ul an
unt os
Ġihr er
0 14
à¹ĥ à¸Ļ
m itting
Î¹Îº Î®
Ġ ]);Ċ
ĠBlu etooth
ĠÕ¡Õ ·
Ġbe b
ĠT ok
tes y
äº§ åĵģ
ens ing
25 7
ĠáĥĽ áĥ®
Ġair craft
Gr ad
Ġh aut
Ġshould er
igh bor
Ġab ilities
ĠC it
Ġà¤Ĩ à¤µ
Rece ived
se y
.C ore
Ð»Ð° ÑĪ
m obile
Ġc ement
áģ Ĭ
Ġlat ter
ĠAg ent
vert ices
ĠBr idge
Ġwer en
Ġc fg
Ġà¦ªà§įà¦° à¦¤
ar Ä±
Ġ[... ]ĊĊ
ce eds
.A ll
¸ è¿Ĳ
Ġb rowse
ĠE ins
.Print ln
am it
Ġs Äħ
ĠÐ½Ðµ Ðº
Ġvr agen
Ġ×Ķ ×Ļ×Ĳ
à¶ ¶
Ġbuck et
ĠE ine
Ġsur t
ĠJ uan
Ġdiv ided
Ġcomp aÃ±
.com mons
Ð° Ð¸
ĠEnt re
Ġsign ing
Øµ Ø©
Ġe book
Ġconsc ious
ÑĸÐ½Ñĸ Ò£
éĿł è°±
ĠK unden
Ġç¾ İ
RE EN
met ric
Ġs abe
Ġìĺ ģ
Ġ' __
ĠÐº Ð»Ð°Ñģ
ig d
Ġar qu
/s rc
ĠP ackage
_M ASK
ĉ RT
Ġdr ie
Ġseg uridad
Ġc rian
ĠC M
Cons umer
à¥Ģ à¤²
à¤ķ à¤¾à¤°à¥Ģ
ĠÙĪ Ùĥ
ĠA j
Ġtemper atures
or ph
B ill
Ġelse if
Ġj uego
dir name
Ġdis put
Ġlad ies
DU CT
ĠS afe
f ly
ĠG row
ĠC ODE
ĠB C
F ee
ter e
Ġé ĵ
- la
áĥĶáĥĳ áĥĲáĥ¡
mi ÅŁ
S en
k ind
Ð¾Ð½ Ð´
ê° ķ
Ġ# {
25 8
ĠV ideos
-h idden
st Ã¼t
ĠT ai
Ġà¦ª à§°
B ased
ç¨ İ
Ġbel t
åį ĩ
Ġhigh lights
Ġb ibli
Ðº ÐµÐ½
Ġ ï¼Į
ant ie
ita ire
Ġf ails
n ar
d est
. ST
ĠOff icer
ĠG eld
ĠÑĩ Ð¸Ñģ
ĠT ips
Ġtr Ãªs
ĠÑģÐ¾ Ð¾Ð±Ñī
N eg
Ø±Ø§ Ø¬
ĠÐ²ÑĭÑģ Ð¾Ðº
à¤Ĥ à¤Ł
<? >
ap is
; ">
ĠÐº Ð°Ð±
Ġi i
ÙĪÙĦ ÙĪ
æ² Ļ
Ġdetect ed
Ġconvert ed
Ġmo Å¾
ĠG allery
Ġà¦ıà¦ķ à¦Łà¦¿
Ġin struct
Ġgr ace
Ġre cl
Se parator
Ð½Ð¸ ÑĨ
Ġ} }>Ċ
at ik
Ġbit coin
ĠV PN
Me asure
I ER
_e q
Ġodd s
- input
c urr
En tries
Ð¾ÑĤ Ð²ÐµÑĤ
N P
Ġterr ible
ĠTh ings
Ø¨ ÛĮ
ĠÑģ ÑĬ
Ġup ang
Ġdet ection
det ail
ail and
d in
Im p
Ġcompl iment
ĠC PU
; ">Ċ
we ather
ĠO FF
ĠPr im
ĠO wn
Ġa te
Ġg le
26 1
ab ling
C lean
ĠProte ction
[...]
