{"!":0,"\"":1,"#":2,"$":3,"%":4,"&":5,"'":6,"(":7,")":8,"*":9,"+":10,",":11,"-":12,".":13,"/":14,"0":15,"1":16,"2":17,"3":18,"4":19,"5":20,"6":21,"7":22,"8":23,"9":24,":":25,";":26,"<":27,"=":28,">":29,"?":30,"@":31,"A":32,"B":33,"C":34,"D":35,"E":36,"F":37,"G":38,"H":39,"I":40,"J":41,"K":42,"L":43,"M":44,"N":45,"O":46,"P":47,"Q":48,"R":49,"S":50,"T":51,"U":52,"V":53,"W":54,"X":55,"Y":56,"Z":57,"[":58,"\\":59,"]":60,"^":61,"_":62,"`":63,"a":64,"b":65,"c":66,"d":67,"e":68,"f":69,"g":70,"h":71,"i":72,"j":73,"k":74,"l":75,"m":76,"n":77,"o":78,"p":79,"q":80,"r":81,"s":82,"t":83,"u":84,"v":85,"w":86,"x":87,"y":88,"z":89,"{":90,"|":91,"}":92,"~":93,"¡":94,"¢":95,"£":96,"¤":97,"¥":98,"¦":99,"§":100,"¨":101,"©":102,"ª":103,"«":104,"¬":105,"®":106,"¯":107,"°":108,"±":109,"²":110,"³":111,"´":112,"µ":113,"¶":114,"·":115,"¸":116,"¹":117,"º":118,"»":119,"¼":120,"½":121,"¾":122,"¿":123,"À":124,"Á":125,"Â":126,"Ã":127,"Ä":128,"Å":129,"Æ":130,"Ç":131,"È":132,"É":133,"Ê":134,"Ë":135,"Ì":136,"Í":137,"Î":138,"Ï":139,"Ð":140,"Ñ":141,"Ò":142,"Ó":143,"Ô":144,"Õ":145,"Ö":146,"×":147,"Ø":148,"Ù":149,"Ú":150,"Û":151,"Ü":152,"Ý":153,"Þ":154,"ß":155,"à":156,"á":157,"â":158,"ã":159,"ä":160,"å":161,"æ":162,"ç":163,"è":164,"é":165,"ê":166,"ë":167,"ì":168,"í":169,"î":170,"ï":171,"ð":172,"ñ":173,"ò":174,"ó":175,"ô":176,"õ":177,"ö":178,"÷":179,"ø":180,"ù":181,"ú":182,"û":183,"ü":184,"ý":185,"þ":186,"ÿ":187,"Ā":188,"ā":189,"Ă":190,"ă":191,"Ą":192,"ą":193,"Ć":194,"ć":195,"Ĉ":196,"ĉ":197,"Ċ":198,"ċ":199,"Č":200,"č":201,"Ď":202,"ď":203,"Đ":204,"đ":205,"Ē":206,"ē":207,"Ĕ":208,"ĕ":209,"Ė":210,"ė":211,"Ę":212,"ę":213,"Ě":214,"ě":215,"Ĝ":216,"ĝ":217,"Ğ":218,"ğ":219,"Ġ":220,"ġ":221,"Ģ":222,"ģ":223,"Ĥ":224,"ĥ":225,"Ħ":226,"ħ":227,"Ĩ":228,"ĩ":229,"Ī":230,"ī":231,"Ĭ":232,"ĭ":233,"Į":234,"į":235,"İ":236,"ı":237,"Ĳ":238,"ĳ":239,"Ĵ":240,"ĵ":241,"Ķ":242,"ķ":243,"ĸ":244,"Ĺ":245,"ĺ":246,"Ļ":247,"ļ":248,"Ľ":249,"ľ":250,"Ŀ":251,"ŀ":252,"Ł":253,"ł":254,"Ń":255,"ĠĠ":256,"ĠĠĠĠ":257,"in":258,"er":259,"Ġt":260,"Ġa":261,"en":262,"on":263,"re":264,"Ġs":265,"at":266,"or":267,"es":268,"ĠĠĠĠĠĠĠĠ":269,"an":270,"ĠĠĠ":271,"Ġd":272,"he":273,"Ġc":274,"Ġp":275,"is":276,"ar":277,"it":278,"ĊĊ":279,"al":280,"à¤":281,"le":282,"ou":283,"Ġm":284,"Ġf":285,"Ġw":286,"Ġb":287,"as":288,"ing":289,"Ġthe":290,"ic":291,"et":292,"Ġo":293,"ion":294,"ed":295,"el":296,"Ġn":297,"ro":298,"ent":299,"ĠÐ":300,"nd":301,"st":302,"áĥ":303,"Ð°":304,"Ġl":305,"Ġin":306,";Ċ":307,"ct":308,"ĠĠĠĠĠĠĠ":309,"om":310,"il":311,"Ġh":312,"am":313,"Ġ=":314,"id":315,"Ġto":316,"Ð¾":317,"âĢ":318,"Ġe":319,"Ø§":320,"im":321,"Ġre":322,"Ġv":323,"ad":324,"Ġth":325,"Ġand":326,"Ðµ":327,"Ġof":328,"Ġg":329,"ur":330,"Ð¸":331,"ch":332,"Ġà":333,"Ġde":334,"ĉĉ":335,"ĠS":336,"Ġu":337,"ÑĤ":338,"ut":339,"ol":340,"Ð½":341,"Ġy":342,"ig":343,"se":344,"ÑĢ":345,"ot":346,"em":347,"ag":348,"iv":349,"Ġ(":350,"qu":351,"ĠĠĠĠĠĠĠĠĠĠĠ":352,"ĠT":353,"Ġ{":354,"ĠA":355,"ay":356,"ĠI":357,"à¥":358,"ac":359,"à¦":360,"ul":361,");Ċ":362,"ĠC":363,".ĊĊ":364,"os":365,"if":366,"Ġà¤":367,"od":368,"Ñģ":369,"čĊ":370,"tr":371,"Ġk":372,"un":373,"ÙĦ":374,"--":375,"est":376,"Ã©":377,"ab":378,"ate":379,"ir":380,"à¸":381,"Ġis":382,"Ð»":383,"ow":384,"us":385,"à´":386,"ation":387,"Ġ}":388,"ĠØ":389,"ort":390,"ĠM":391,"Ġ\"":392,"//":393,"um":394,"Ġfor":395,"ie":396,"àª":397,"ĠP":398,"ter":399,"ce":400,"our":401,"Ġon":402,"ap":403,"th":404,"Ġ{Ċ":405,"Ġcon":406,"av":407,"ĠĠĠĠĠĠĠĠĠĠĠĠĠĠĠĠ":408,"ers":409,"**":410,"te":411,",Ċ":412,"Ġbe":413,"Ùħ":414,"ĠD":415,"()":416,"ÙĪ":417,"ĠB":418,"end":419,"Ġst":420,"ist":421,"ak":422,"ly":423,"pe":424,"Ġ*":425,"ÙĨ":426,"and":427,"Ġr":428,"à²":429,"res":430,"ub":431,"oc":432,"Ø±":433,"Ġal":434,"à°":435,"ess":436,"ith":437,"âĢĻ":438,"Ð¾Ð":439,"Ġpro":440,"Ġj":441,"Ñĥ":442,"ÙĬ":443,"ame":444,"ver":445,")Ċ":446,"port":447,"Ġan":448,"Ã¡":449,"Ã¤":450,"ĠL":451,"Ġcom":452,"Ġne":453,"ĠF":454,"20":455,"ass":456,"ĠE":457,"Ġse":458,"lic":459,"ĠR":460,"Ġ'":461,"Ðº":462,"Ġ×":463,"Ġ<":464,"Ñĭ":465,"ue":466,"op":467,"out":468,"Ġen":469,"ht":470,"Ġwh":471,"Ġas":472,"à®":473,"Ġqu":474,"ction":475,"ãĢ":476,"age":477,"ĠN":478,"og":479,"Ġit":480,"Ġyou":481,"iz":482,"Ġwith":483,"Ġthat":484,"..":485,"ĠW":486,"ĠH":487,"ip":488,"Ð´":489,"ex":490,"int":491,"ill":492,"ant":493,"urn":494,"Ġthis":495,"ĠØ§":496,"art":497,"Ġtr":498,"ĠG":499,"Ð¼":500,"Ġhe":501,";ĊĊ":502,"Ġor":503,"00":504,"Ġle":505,"ĠĠĠĠĠĠĠĠĠĠĠĠĠĠĠ":506,"ik":507,"ment":508,"à§":509,"ore":510,"rom":511,"ere":512,"Ġex":513,"ine":514,"àµ":515,"ang":516,"Øª":517,"----":518,"à¤¾":519,"Ð²":520,"ind":521,"get":522,">Ċ":523,"ain":524,"ok":525,"ib":526,"ud":527,"pl":528,"turn":529,"ĠĠĠĠĠ":530,"Ã³":531,"ĠO":532,"Ġ-":533,"ect":534,"ia":535,"ity":536,"Ġun":537,"Ġif":538,"Ùĩ":539,"Ġat":540,"ÛĮ":541,"con":542,"per":543,"Ñı":544,"á»":545,"ata":546,"Ø¯":547,"Ġ$":548,"Ġch":549,"Ġpr":550,"orm":551,"ack":552,"Ġare":553,"ile":554,"pt":555,"ÃŃ":556,"Ġla":557,".Ċ":558,"ĠâĢ":559,"==":560,"import":561,"able":562,"ial":563,"ost":564,"cl":565,"ies":566,"Ġcl":567,"(\"":568,"ov":569,"ust":570,"Ġà¦":571,"Ã¼":572,"Ã¶":573,"à«":574,"Ġi":575,"ult":576,"ave":577,"nt":578,"Ġz":579,"=\"":580,"Ġwe":581,"ld":582,"ight":583,"ublic":584,"ive":585,"all":586,"áĥĲ":587,"act":588,"ĠØ§ÙĦ":589,"ï¼":590,"Ġfrom":591,"Ã¥":592,"Ġsu":593,"ire":594,"****":595,"ell":596,"ard":597,"×Ļ":598,"ser":599,"tring":600,"ĠU":601,"Ġ//":602,"ice":603,"ord":604,"ãģ":605,"Ġ}Ċ":606,"Ġàª":607,"ff":608,"->":609,";čĊ":610,"ne":611,"Ä±":612,"de":613,"ra":614,"ÑĮ":615,"ans":616,"ide":617,"ase":618,"Õ¡":619,"Ġnew":620,"Ġdo":621,"Ġreturn":622,"ĠThe":623,"ä¸":624,"Ġnot":625,"ĉĉĉĉ":626,"ure":627,"à¥ĩ":628,"ast":629,"ob":630,"ĠV":631,"à¤°":632,"Ġpl":633,"Ġyour":634,"Ð·":635,"Ġáĥ":636,"In":637,"pr":638,"com":639,".s":640,"Ġsh":641,"ime":642,"ĠJ":643,"are":644,"ont":645,"Ġar":646,"à¯":647,"ĠÐ¿":648,"ype":649,"Ġel":650,"ite":651,"Ø³":652,"×ķ":653,"pp":654,"å¤":655,"Ġby":656,"Ø¨":657,"ĠK":658,"Ġ+":659,"à±":660,"Ġque":661,"iew":662,"ail":663,"Ñĩ":664,"Ġcan":665,"Ð¿":666,"201":667,"Ġme":668,"ĠÑģ":669,"à³":670,"áĥĲáĥ":671,"\",":672,"Ġwas":673,"àµį":674,"ace":675,"ode":676,"Ġint":677,"ach":678,"Ġhave":679,"ll":680,"ij":681,"à¥į":682,"Ð³":683,"ge":684,"elf":685,"Ġpar":686,"Ġad":687,"áĥĺ":688,"str":689,"one":690,"rou":691,"Ġab":692,"âĢĿ":693,"Ġres":694,"St":695,"ens":696,"Ùģ":697,"du":698,"ĠĠĠĠĠĠĠĠĠĠĠĠĠĠĠĠĠĠĠ":699,"form":700,"ĠÕ":701,"10":702,"ich":703,"Ã§":704,"ong":705,"('":706,"Ã°":707,"Ãł":708,"Õ¡Õ":709,"cc":710,"xt":711,"Ġ:":712,"Ø©":713,"ÑĢÐ°":714,"Ø¹":715,"pon":716,"Ġget":717,"ber":718,"Ð¹":719,"Re":720,"à¤¾à¤":721,"Ġall":722,"Ġ[":723,"Ñħ":724,"ath":725,"io":726,"Î±":727,"ject":728,"Ġte":729,"ĠIn":730,"Ġdes":731,"Ñĸ":732,"ign":733,":Ċ":734,"alue":735,"ork":736,"ve":737,"Ġwill":738,"}Ċ":739,"();Ċ":740,").":741,"::":742,"ĠÐ²":743,"Ġclass":744,"{Ċ":745,"lo":746,"ome":747,"ĠTh":748,"ÑģÑĤ":749,"ize":750,"Ġpublic":751,"ĠÙħ":752,"au":753,"ull":754,"å½":755,"ions":756,"Ð±":757,"Ġ}ĊĊ":758,"Ġ@":759,"×Ļ×":760,"der":761,"ook":762,"--------":763,"ÑĪ":764,"Ġus":765,"ance":766,"ould":767,"ĠÐ½":768,"ãĥ":769,"Ġim":770,"__":771,"put":772,"ient":773,"äº":774,".get":775,"ÐµÐ½":776,"Ġper":777,"Ġvo":778,"ext":779,"ated":780,"Äį":781,"ÙĤ":782,"yst":783,"ous":784,"à¤¿":785,"so":786,"',":787,"ãĢĤ":788,"ple":789,"×ķ×":790,"Ú©":791,"erv":792,"ĠĊ":793,"áĥĶ":794,"à¹":795,"par":796,"à¦¾":797,"cr":798,"ress":799,"Ġà´":800,"ck":801,"âĢĻs":802,"áº":803,"Ġì":804,"ert":805,"ey":806,"ount":807,"</":808,"ma":809,"Ġgo":810,"à¥įà¤":811,"Å¡":812,"Ġso":813,"ake":814,"ary":815,"ĠÐ¸":816,"up":817,"vent":818,"ory":819,"Ġ/":820,"å½©":821,"Î¿":822,"pro":823,"ÏĦ":824,"Ã£":825,"ft":826,"Ġ&":827,"ĠÐº":828,"Ġdis":829,"ear":830,"Ġma":831,"àµįà´":832,"ĉĉĉ":833,"ÓĻ":834,"unction":835,"Ġcont":836,"err":837,"_t":838,"ystem":839,"à¥Ģ":840,"Ð°Ð½":841,"Ġout":842,"row":843,"Ġund":844,"ãĤ":845,"ug":846,"ien":847,"Ġà¤ķ":848,"ah":849,"ual":850,"this":851,"ock":852,"Ġhas":853,"we":854,"fer":855,"áĥĶáĥ":856,"áĢ":857,"19":858,"Ġet":859,"Ġno":860,");ĊĊ":861,"div":862,"Ġem":863,"Name":864,"ĠY":865,"ER":866,"å¤©":867,"ition":868,"Ġup":869,"Ùĥ":870,"Ġ=>":871,"ri":872,"Ġman":873,"Î¹":874,"ery":875,"Ġpre":876,"##":877,"Ġes":878,"ĠÐ±":879,"Ġsa":880,"ink":881,"eng":882,"ĠÐ´":883,"àª¾":884,"'s":885,"ek":886,"Ġ.":887,"ĠÙĪ":888,"Ġbut":889,"Ġà°":890,"Îµ":891,"ng":892,"Ġest":893,"cre":894,"ound":895,"gr":896,"name":897,"Ġna":898,"12":899,"Ġà²":900,"ĠSt":901,"à¯į":902,"app":903,"====":904,"ier":905,"Id":906,"ĠRe":907,"ree":908,"Con":909,"********":910,"à¤¿à¤":911,"ÖĢ":912,"ĠÐ¾":913,"ors":914,"))":915,"String":916,"à§ĩ":917,"ose":918,"text":919,"Ġset":920,"lect":921,"Ġmy":922,"ild":923,"ÑĨ":924,"Ã¸":925,"che":926,"ĠØ¨":927,"áĥĺáĥ":928,"ations":929,"iel":930,"ĠÑĤ":931,"Ġ*/":932,"ical":933,"ann":934,"to":935,"),":936,"ew":937,"Ð¾Ð²":938,"Ġam":939,"own":940,"ark":941,"ther":942,"}ĊĊ":943,"ener":944,"Ġmore":945,"ĠÐ¼":946,"ps":947,"åı":948,"ØŃ":949,"List":950,"Ġ==":951,"à¥ĭ":952,"cept":953,"Î½":954,"ìĿ":955,"gh":956,"Ã¨":957,"Pro":958,"odel":959,"ĠÐ°":960,"ph":961,"ement":962,"ings":963,"add":964,"IN":965,"ĠâĢľ":966,"à¦¾à¦":967,"ĠĠĠĠĠĠĠĠĠĠĠĠĠĠĠĠĠĠĠĠĠĠĠ":968,"Ð°ÑĢ":969,"ike":970,"ool":971,"Ġvar":972,"ade":973,"Ġro":974,"ON":975,"The":976,"set":977,"ivate":978,"ï¼Į":979,"und":980,"ÅŁ":981,"áŀ":982,"ĠĠĠĠĠĠĠĠĠ":983,"Ġgr":984,"æľ":985,"Ã£o":986,"atch":987,"ung":988,"Ġstr":989,"clud":990,"Ġop":991,"Ex":992,"Ġinter":993,"11":994,"ç¥":995,"Ġcol":996,"Ġpart":997,"à¤¨":998,"her":999,".l":1000,"Ġone":1001,"vel":1002,"ick":1003,"à¤Ĥ":1004,"ater":1005,"rr":1006,"ec":1007,"...":1008,"iss":1009,"Ġvoid":1010,"Ø¬":1011,"Õ¸":1012,"ton":1013,"Ġsp":1014,"×¨":1015,"à¤ķ":1016,"Ġag":1017,"Å¾":1018,"Ð°Ð»":1019,"Ã¦":1020,".m":1021,"Ġ|":1022,"Ġthey":1023,"æĹ":1024,"ÐµÑĢ":1025,"Ġconst":1026,"ep":1027,"inal":1028,")ĊĊ":1029,"Ø´":1030,"Ð¾Ð»":1031,"les":1032,"Ġda":1033,"return":1034,"Ð°ÑĤ":1035,"ĠCh":1036,"tt":1037,"enc":1038,"Ġour":1039,"Ġ</":1040,"ÐµÑĤ":1041,"Ãº":1042,"Ġtheir":1043,"ays":1044,"Ġpe":1045,"àª¾àª":1046,"me":1047,"ove":1048,"å½©ç¥":1049,"Ġcomp":1050,"Ġself":1051,"ange":1052,"Ġapp":1053,"anc":1054,"15":1055,"Ġdef":1056,"urr":1057,"Ġtime":1058,"Com":1059,"Ġà®":1060,"quest":1061,"Ġany":1062,"Äĥ":1063,"ado":1064,"Ð¶":1065,"ven":1066,"Ġob":1067,"eth":1068,"Ġ#":1069,"fo":1070,"az":1071,"Ġover":1072,"Ġ!":1073,"data":1074,"à´¿":1075,"Ġdie":1076,"ĠÚ©":1077,"Ġabout":1078,"ef":1079,"à§į":1080,".c":1081,"ence":1082,"Ġdel":1083,"led":1084,"Ġstat":1085,"Ñİ":1086,"ss":1087,"alse":1088,"']":1089,"à¦¿":1090,"ĠÎ":1091,"\"Ċ":1092,"ava":1093,"ents":1094,"Õ¥":1095,"ise":1096,"View":1097,");čĊ":1098,"RE":1099,"âĢľ":1100,"Ġwork":1101,"ry":1102,"pos":1103,"ank":1104,"val":1105,"åħ":1106,"oy":1107,"Ð¸ÑĤ":1108,"ish":1109,"Õ¶":1110,"Ġer":1111,"Ġë":1112,"eb":1113,"Ġfunction":1114,"Ø§ÙĦ":1115,"sh":1116,"ST":1117,"Ġwhich":1118,"pec":1119,"oint":1120,"Ġent":1121,"à¨":1122,"reat":1123,"ble":1124,"16":1125,"que":1126,"ĠâĢĵ":1127,"ix":1128,"à§įà¦":1129,"30":1130,"âĢ¦":1131,"duct":1132,"tem":1133,"aw":1134,"Ġ*/Ċ":1135,".com":1136,"line":1137,"à«ĩ":1138,"Th":1139,"ä¹":1140,"tion":1141,"Ø²":1142,"abel":1143,"à³į":1144,"Cont":1145,"Ð¾ÑĢ":1146,"Ġadd":1147,"sp":1148,"áĥĿ":1149,"\",Ċ":1150,"ely":1151,"irst":1152,"iÃ³":1153,"public":1154,"ĠØª":1155,"self":1156,"18":1157,"×Ĳ":1158,"mer":1159,"uk":1160,"25":1161,"Ġbl":1162,"Type":1163,"Ġvan":1164,"ied":1165,"rit":1166,"ale":1167,"Ïĥ":1168,"essage":1169,"arg":1170,"\");Ċ":1171,"Ãª":1172,"ific":1173,"ield":1174,"Ġ_":1175,"oll":1176,"à±į":1177,"Ãµ":1178,"200":1179,"erm":1180,"['":1181,"uch":1182,"dd":1183,"Ïģ":1184,"cess":1185,"Data":1186,"Äĩ":1187,"Ġbu":1188,"ĠString":1189,"vo":1190,"co":1191,"×ľ":1192,"Ġfe":1193,"ada":1194,"Ø§ÙĨ":1195,".f":1196,"crip":1197,"×Ķ":1198,"Ġuse":1199,"ian":1200,".p":1201,"ĠĊĊ":1202,"Ġelse":1203,"Res":1204,"Ch":1205,"ty":1206,"eg":1207,"Ð½Ñĭ":1208,"Ġpara":1209,"Ġà¸":1210,"Ġid":1211,"ĠÃ©":1212,"ĠĠĠĠĠĠĠĠĠĠĠĠĠĠĠĠĠĠĠĠĠĠĠĠĠĠĠĠĠĠĠĠ":1213,"',Ċ":1214,"Ġx":1215,"å½©ç¥¨":1216,"Ġalso":1217,"Ġwho":1218,"ĠSystem":1219,"ese":1220,"ĠÃł":1221,"Ġå":1222,"ervice":1223,"ĉif":1224,"ĠIt":1225,"Ñį":1226,"Ġder":1227,"AT":1228,"ash":1229,".set":1230,"Ð¾Ð¼":1231,"Ġhis":1232,"ox":1233,"()Ċ":1234,"ĠÐ½Ð°":1235,"Ġsome":1236,"umber":1237,"Ġdata":1238,"uth":1239,"ID":1240,"Col":1241,".S":1242,"\":":1243,"Õ«":1244,"Ġver":1245,"ator":1246,"ner":1247,"pect":1248,"Ġprivate":1249,"×¢":1250,"igh":1251,"any":1252,"Ġpos":1253,"lement":1254,"aj":1255,"Ġnull":1256,"à¯įà®":1257,"ĠPro":1258,"Ġacc":1259,"ÐµÐ»":1260,"Ġwhen":1261,"EN":1262,"Ġà¤¸":1263,"Ġje":1264,"14":1265,"ĠÐ¿ÑĢ":1266,"Ð¾Ð´":1267,"Ġend":1268,"fig":1269,"($":1270,"ait":1271,"ke":1272,"Ġother":1273,"Ùī":1274,"ÒĽ":1275,"yn":1276,"Ġoff":1277,"_s":1278,"Text":1279,"old":1280,"ger":1281,"view":1282,"Ġaf":1283,"Ġyear":1284,"_m":1285,"erson":1286,"Ð½Ð¸":1287,"als":1288,"\">":1289,"Äĳ":1290,"red":1291,".b":1292,"read":1293,"Ġbr":1294,"à²¿":1295,"ĠÐ·":1296,"----------------":1297,"tern":1298,"Ġlike":1299,"à³įà²":1300,"OR":1301,"000":1302,"_c":1303,"iÃ³n":1304,"ten":1305,"à´¿à´":1306,"li":1307,"Ġname":1308,"Ġneed":1309,"ource":1310,"13":1311,"AR":1312,"Ġkn":1313,"def":1314,"urrent":1315,"roup":1316,"ception":1317,"ÅĤ":1318,"date":1319,"Ġdi":1320,"Øµ":1321,"ĠÂ":1322,"202":1323,"Ġreg":1324,"Ø§Ø±":1325,"áĥĿáĥ":1326,"Ġjust":1327,"ĠThis":1328,"à¤¤":1329,"Ġact":1330,"ute":1331,"Ð½Ð¾":1332,"Ġorg":1333,"Ġser":1334,"Ġher":1335,".A":1336,"_f":1337,"wo":1338,"Ġbeen":1339,"Ġmay":1340,"Ġles":1341,"ĠØ¯":1342,"Ġtrue":1343,"quire":1344,"ÏĢ":1345,"ÉĻ":1346,"let":1347,"its":1348,"Ġmin":1349,"uct":1350,"Ġeen":1351,"ÖĤ":1352,"100":1353,"Ġthere":1354,"param":1355,"son":1356,"Ø®":1357,"ĠÙĦ":1358,"_p":1359,"ict":1360,"ai":1361,"ax":1362,"à·":1363,"íķ":1364,"ating":1365,"Ġ,":1366,"ĠUn":1367,"ØĮ":1368,"Ġrec":1369,".t":1370,"ys":1371,"ader":1372,"Ġthem":1373,"Ġreal":1374,"Ġac":1375,"å®":1376,"cont":1377,"Ġche":1378,"oun":1379,".d":1380,"ates":1381,"Ġpor":1382,"Ġind":1383,"à¸²":1384,"To":1385,"ices":1386,"itt":1387,"Cl":1388,"new":1389,"ĠCom":1390,"Ġph":1391,"Ġhel":1392,"ĉreturn":1393,"Ġcomm":1394,"ãĢģ":1395,"à°¿":1396,"ãĢĢ":1397,"32":1398,"utton":1399,"LE":1400,"ning":1401,":ĊĊ":1402,"Ġlos":1403,"ä¸Ń":1404,"\")":1405,"ues":1406,"Ġco":1407,"Ø·":1408,"Ġà¤¹":1409,"Tr":1410,"åĪ":1411,"Ġwhat":1412,"Ġbet":1413,"čĊčĊ":1414,"ond":1415,"ĠWe":1416,"arch":1417,"Ð»Ð¸":1418,"Ġap":1419,"trib":1420,"Ġmet":1421,"17":1422,"Ġ?":1423,"Ġ>":1424,"Î·":1425,"////":1426,"uf":1427,"user":1428,"vid":1429,"ible":1430,"yle":1431,"Ġvalue":1432,"ÏĤ":1433,"50":1434,"à¸Ļ":1435,"ength":1436,"very":1437,"ĠÙģ":1438,"ponse":1439,"of":1440,"Ġfr":1441,"iet":1442,"Ð¾Ð³":1443,"class":1444,"Ġlo":1445,"ault":1446,"ask":1447,"Ġhet":1448,"ĠÑĥ":1449,"\";Ċ":1450,"Ob":1451,"Ġav":1452,"à±įà°":1453,"().":1454,"à¤²":1455,"à¶":1456,"à§ĩà¦":1457,"Ġhad":1458,"Ġval":1459,"Ġsc":1460,"ages":1461,"Ġdu":1462,"ames":1463,"be":1464,"var":1465,"à¦¿à¦":1466,"ä»":1467,"IT":1468,"Ġ×Ķ":1469,"ÑĦ":1470,"åĲ":1471,"clude":1472,"Ġcons":1473,"ĠÃ":1474,"Ġmed":1475,"Ġdet":1476,"ument":1477,"_l":1478,"Ð½Ð°":1479,"ana":1480,"Ġwould":1481,"Ïħ":1482,"AL":1483,"roll":1484,"Ġfalse":1485,"ĠQ":1486,"å¤©å¤©":1487,"Ù¾":1488,"ĠZ":1489,"Ġtype":1490,"ole":1491,"ular":1492,"min":1493,"24":1494,"Ġhow":1495,"à¤¸":1496,"ãĢĤĊĊ":1497,"Ġdr":1498,"AN":1499,"ful":1500,"Ġdif":1501,"til":1502,"na":1503,"Ġwere":1504,"Ûģ":1505,"ĠØ¹":1506,"'t":1507,".h":1508,"####":1509,"ople":1510,"Ġinto":1511,"Ġsur":1512,"ows":1513,"ĠTr":1514,"amp":1515,"ĠDe":1516,"air":1517,"Ġ{čĊ":1518,"Ġcre":1519,"Ġmake":1520,"rol":1521,"ina":1522,"Ð¾ÑĤ":1523,"ta":1524,"Ġ×Ĳ":1525,"(f":1526,"Õ¸ÖĤ":1527,"ëĭ":1528,"SE":1529,"à«į":1530,"ÛĴ":1531,"ĠCon":1532,"à¥ģ":1533,"Ġresult":1534,"_b":1535,"Ġrel":1536,"_id":1537,"Ø§Øª":1538,"Ġloc":1539,"\">Ċ":1540,"ics":1541,"')":1542,"Ġsub":1543,"error":1544,"ethod":1545,"Ġ)":1546,"ze":1547,"Ġfl":1548,"à«Ģ":1549,"ĠSe":1550,"========":1551,"à«įàª":1552,"af":1553,"à¤¹":1554,"ho":1555,"åľ":1556,"Ġjava":1557,"ody":1558,"Ġà¤®":1559,"ml":1560,"ts":1561,"Ġlist":1562,"çļ":1563,"ins":1564,"_d":1565,"ww":1566,"×ª":1567,"En":1568,"à°¾":1569,"×ŀ":1570,"å¹":1571,"Ġthan":1572,"âĢĻt":1573,"ÐµÐ¼":1574,"itle":1575,"ente":1576,"Ġfirst":1577,"ica":1578,"Ġaw":1579,"ÄĻ":1580,"Ġbo":1581,"By":1582,"Ġà¤ª":1583,"Se":1584,"âĢĵ":1585,"Par":1586,"je":1587,"Ġimport":1588,"Ġtem":1589,"Item":1590,"àµģ":1591,"]Ċ":1592,"ĠØ³":1593,"value":1594,"ious":1595,"work":1596,"ause":1597,"print":1598,"ÐºÐ°":1599,"lick":1600,"ule":1601,"Ġback":1602,"ense":1603,"Ġstart":1604,"Ġein":1605,"Ġonly":1606,"(Ċ":1607,"ĠYou":1608,"ures":1609,"Ġke":1610,"ower":1611,"**Ċ":1612,"****************":1613,"arr":1614,"æĸ":1615,"çļĦ":1616,"Ġits":1617,"raw":1618,"à¸£":1619,"Ġfil":1620,"Ġstring":1621,"ces":1622,"Ġinform":1623,"Äħ":1624,"Ġform":1625,"ments":1626,"Ò¯":1627,"urs":1628,"ities":1629,"ayer":1630,"Ġlook":1631,"Ġlet":1632,"Ġstatic":1633,"ember":1634,"day":1635,"Ġbest":1636,"à¤®":1637,"Value":1638,"ler":1639,"å¤§":1640,"Ġunder":1641,"à±ģ":1642,"Ġtrans":1643,"ender":1644,"Ġmost":1645,"Ġfind":1646,"Ġperson":1647,"Ġed":1648,"ustom":1649,"Ð»Ð°":1650,"].":1651,"Ġhelp":1652,"olog":1653,"ÐºÐ¸":1654,"string":1655,"ĠWh":1656,"Ġng":1657,"ateg":1658,"lection":1659,"den":1660,"oth":1661,"Ġrem":1662,"Ø§Ø":1663,"Îº":1664,"Ġpeople":1665,"Ġ!=":1666,"ĠAl":1667,"Ø£":1668,"Ġcar":1669,"à¥¤":1670,"const":1671,"à®¿":1672,"á»į":1673,"à´¾":1674,"la":1675,"à²¿à²":1676,"ÐµÐ´":1677,"ÄŁ":1678,"ĠHe":1679,"Ġass":1680,"irect":1681,"Ġwant":1682,"ari":1683,"://":1684,"ession":1685,"ĠĠĠĠĠĠĠĠĠĠĠĠĠĠĠĠĠĠĠĠĠĠĠĠĠĠĠ":1686,"ren":1687,"Õ¡Õ¶":1688,"ĠAn":1689,"à¥Ī":1690,"Ð¸Ñı":1691,"bo":1692,"={":1693,"à¯ģ":1694,"gram":1695,".D":1696,"br":1697,"ĠĠĠĠĠĠĠĠĠĠĠĠĠ":1698,"ĠĠĠĠĠĠ":1699,"Ġdon":1700,"Ġlong":1701,"Ð¾Ð½":1702,"!ĊĊ":1703,"Ġgu":1704,"Ġsk":1705,"ern":1706,"Im":1707,"wa":1708,"22":1709,"Ġinst":1710,"load":1711,"rough":1712,"Ġum":1713,"ç½":1714,"?ĊĊ":1715,"ha":1716,"Ñī":1717,"ĠØ£":1718,"ets":1719,"_C":1720,"Ġfinal":1721,"Î¼":1722,"40":1723,"Ġarr":1724,"Ġ&&":1725,"×ĳ":1726,"Î»":1727,"æĹ¶":1728,"Ġread":1729,"Ã«":1730,"×©":1731,"à¸Ń":1732,"orld":1733,"uc":1734,"];Ċ":1735,"hed":1736,".F":1737,"reak":1738,"fr":1739,"atus":1740,"Ġge":1741,"Ð¾Ð¹":1742,"Ġve":1743,"ting":1744,"';Ċ":1745,"Ġtest":1746,"Ã§Ã£o":1747,"++":1748,"åĽ":1749,"no":1750,"bl":1751,"Object":1752,"Ġevery":1753,"ĠAr":1754,"Ġspec":1755,"Ã©s":1756,"Ġshould":1757,"ponent":1758,"ES":1759,".j":1760,"Ġknow":1761,"ood":1762,"ility":1763,"Exception":1764,"Ġsm":1765,"×ł":1766,"Ġmon":1767,"[i":1768,"Ġcr":1769,"Ġshe":1770,"ĠEx":1771,"wn":1772,"ĉpublic":1773,"Ġê":1774,"Ġwell":1775,"ush":1776,"Å¼":1777,"ux":1778,"ĠÚ":1779,"Ġpres":1780,"Ġsch":1781,"ms":1782,"Ð´Ð°":1783,"Ġsi":1784,"yp":1785,"Ġden":1786,"tra":1787,"iver":1788,"à´¾à´":1789,"ager":1790,"ĠÙĨ":1791,"à²¾":1792,"Ġil":1793,"Ġexper":1794,"Ó©":1795,"Ġsom":1796,"Ġæ":1797,"col":1798,"ative":1799,"ĠÐ³":1800,"word":1801,"reg":1802,"Ġhand":1803,"url":1804,"ãĢĲ":1805,"try":1806,"rap":1807,"ons":1808,"ream":1809,"ily":1810,"iness":1811,"Ġmod":1812,"ãĢĳ":1813,"Ġdat":1814,"Ġthen":1815,"Get":1816,"ï¼ļ":1817,"ym":1818,"Ġthrough":1819,"));Ċ":1820,"use":1821,"ccess":1822,"Ġpol":1823,"uss":1824,"Ġuser":1825,"Ġchar":1826,"Ġinv":1827,"aut":1828,"ç½ĳ":1829,"fore":1830,"idth":1831,"Ġopt":1832,"àª¨":1833,"à°¾à°":1834,".n":1835,"fl":1836,"icht":1837,"ats":1838,"ĠÑĢ":1839,"Ã½":1840,"Ġrequire":1841,"Ã¢":1842,"ĠIf":1843,"User":1844,"Ġsim":1845,"using":1846,"ends":1847,"ĠÑĩ":1848,"Ġright":1849,"serv":1850,"Ġ%":1851,"è§":1852,"Ġpass":1853,"ka":1854,"amb":1855,"à®¿à®":1856,"£áĥ":1857,"(s":1858,"ĠØ§ÙĦÙħ":1859,"23":1860,"Ã¾":1861,"Ġ},Ċ":1862,"áĥĺáĥ¡":1863,"Ġstud":1864,"Î¯":1865,"ui":1866,"ÙĬØ©":1867,"sert":1868,"Ġvery":1869,"ough":1870,"Ã±":1871,"ife":1872,"ais":1873,"ref":1874,"_S":1875,"void":1876,"ĠAs":1877,"ior":1878,"Ġthese":1879,"Ġweb":1880,"State":1881,"ased":1882,"):Ċ":1883,"àµģà´":1884,"Ġdec":1885,"Ð°Ð¼":1886,"Ġsol":1887,"Ġproduct":1888,"Ġå¤©å¤©":1889,"Ġcase":1890,"àª°":1891,"à²¾à²":1892,"cond":1893,"áĥĶáĥĳ":1894,"CT":1895,"\")Ċ":1896,"èµ":1897,"key":1898,"Ġgood":1899,"ene":1900,"Ø§Ùħ":1901,"Ġmak":1902,"à«ĭ":1903,"ars":1904,"çĶ":1905,"ni":1906,"Ġcor":1907,"Ġka":1908,"Ġvis":1909,"60":1910,"Õ¥Õ":1911,"Ġbel":1912,"à³ģ":1913,"rray":1914,"Ġprof":1915,"Ġdur":1916,"Ġdown":1917,"Ġbus":1918,"Ġwhere":1919,"Ġtwo":1920,"Ġsee":1921,"unc":1922,"De":1923,"Â»":1924,"Ġsl":1925,"Ġpost":1926,"Ġatt":1927,"perty":1928,"Time":1929,"Ġpour":1930,"Ġaut":1931,"Ġhigh":1932,"ÑģÑı":1933,"Ġafter":1934,"rem":1935,"Ġext":1936,"php":1937,"for":1938,"cent":1939,".g":1940,"ouse":1941,"ru":1942,"ackage":1943,"ĠĠĠĠĊ":1944,"Ð°Ðº":1945,"ature":1946,"ister":1947,"Ã¼r":1948,"UL":1949,".add":1950,"[]":1951,"Ġeven":1952,"ational":1953,"Ġnow":1954,"ĠSh":1955,"ara":1956,"Ġart":1957,"ĠAnd":1958,"Ġeff":1959,"ouble":1960,"à°¿à°":1961,"ote":1962,"ience":1963,"round":1964,"Ģà¸":1965,"Ġmen":1966,"ĠÐ½Ðµ":1967,"ÙĪØ±":1968,"Ġuna":1969,"ider":1970,"rror":1971,"uff":1972,"ivers":1973,"Ġfile":1974,"ando":1975,"action":1976,"ersion":1977,"arn":1978,"oin":1979,".st":1980,"include":1981,"Ġsup":1982,"Ġmark":1983,"Set":1984,"ify":1985,"ane":1986,"rite":1987,"umn":1988,"els":1989,"Ð¸Ð½":1990,"Ġmany":1991,"arget":1992,"Ind":1993,"Ġos":1994,"äºº":1995,"Ġlas":1996,"Ġ×ŀ":1997,"htt":1998,"ĉĉĉĉĉ":1999,"Ġgl":2000,"leg":2001,"att":2002,"play":2003,"è½":2004,"Ġcal":2005,"Ġway":2006,".P":2007,"_P":2008,"Ġmuch":2009,".C":2010,"-s":2011,"hr":2012,"RO":2013,"×ĺ":2014,".M":2015,"ayout":2016,"Ġbec":2017,"ĠLe":2018,"Ġdem":2019,"press":2020,"Ġho":2021,"IC":2022,"Ġcould":2023,".L":2024,"(t":2025,"à¤¾à¤°":2026,"ants":2027,"ines":2028,"28":2029,"Ġom":2030,"Ġou":2031,"lease":2032,"à¤ª":2033,"ÖĢÕ":2034,"Key":2035,"ĠNew":2036,"ride":2037,"Service":2038,"ìĹ":2039,"21":2040,"à¦°":2041,"Õ¸ÖĤÕ":2042,"ution":2043,"ION":2044,"ĠØ¬":2045,"æĪ":2046,"roid":2047,"ĠÐ¶":2048,"Ġwhile":2049,"ced":2050,"za":2051,"DE":2052,"='":2053,"((":2054,"à¹Ī":2055,"util":2056,"item":2057,"99":2058,"Ġsaid":2059,"era":2060,"Ġused":2061,"à¥įà¤°":2062,"velop":2063,"ĠPl":2064,"ĠÙħÙĨ":2065,"He":2066,"ja":2067,"org":2068,"Ġ×ľ":2069,"çº":2070,"../":2071,"emb":2072,"Wh":2073,"opy":2074,"Ġtry":2075,"ward":2076,"å¥":2077,"wh":2078,"Ġfam":2079,"');Ċ":2080,"ino":2081,"alk":2082,"vis":2083,"à¸²à¸":2084,"Ġog":2085,"Ġnumber":2086,"cription":2087,"Ð¾Ð±":2088,"×ĵ":2089,"ya":2090,"Event":2091,"27":2092,"Ġmo":2093,"çī":2094,"Ġ×ĳ":2095,"Ġserv":2096,"ÏĮ":2097,"Ð¾Ñģ":2098,"Ġ*Ċ":2099,"ä½":2100,"Ġyears":2101,"ocument":2102,"Ø³Øª":2103,"Ġevent":2104,"Ġhere":2105,"ited":2106,"Ġplay":2107,"Ġcas":2108,"26":2109,"ized":2110,"Ã´":2111,"Ĥà°":2112,"cript":2113,"ci":2114,"ÐµÑģ":2115,"ante":2116,"land":2117,"-b":2118,"aciÃ³n":2119,"idad":2120,"łáĥ":2121,"à³Ĩ":2122,"Ġprint":2123,"Ġ///":2124,"aar":2125,"-m":2126,"ĠX":2127,"Ø¶":2128,"ĠÙĩ":2129,"ĠEn":2130,"Ġfin":2131,"Î¬":2132,"log":2133,"Info":2134,"ĠÙ¾":2135,"uit":2136,"ãĢĳãĢĲ":2137,"){Ċ":2138,"Ġà¤¬":2139,"Ġkey":2140,"other":2141,"Ġlog":2142,"order":2143,"ken":2144,"(m":2145,"ally":2146,"());Ċ":2147,"AM":2148,"Ġcomple":2149,"à¦¨":2150,"Æ°":2151,"ama":2152,"cho":2153,"_T":2154,"],":2155,"Ã©r":2156,"kt":2157,"AS":2158,"å¼":2159,"ĠOn":2160,"...ĊĊ":2161,"ĠÙģÙĬ":2162,"Ġday":2163,"Ġinformation":2164,"#include":2165,"åį":2166,"We":2167,"ĠÑĢÐ°":2168,"Ġitem":2169,"_n":2170,"Ġdiffer":2171,"ttp":2172,"Ġpas":2173,"Ġlast":2174,"ET":2175,"Button":2176,"umm":2177,"åľ¨":2178,"Sh":2179,"dit":2180,"æĺ":2181,"alth":2182,"áŁ":2183,"UR":2184,"Åĳ":2185,"ìĿ´":2186,"Ġsin":2187,"Ġtak":2188,"à©":2189,"ĠCl":2190,"Ġà¨":2191,"ÑĤÐ¾":2192,"Ġprogram":2193,"ollow":2194,"Ġword":2195,"ails":2196,"Pl":2197,"Òĵ":2198,"ros":2199,"Ġinclud":2200,"Ġtext":2201,"unt":2202,"Ĥ¬":2203,"struct":2204,"back":2205,"è¿":2206,"'Ċ":2207,"Ġcurrent":2208,"Ø°":2209,"))Ċ":2210,"mp":2211,"Ġgreat":2212,"éĩ":2213,"ĠFor":2214,"Ġins":2215,"ĠØ±":2216,"Ġgener":2217,"arm":2218,"On":2219,"64":2220,"ĠÙĬ":2221,"ique":2222,"An":2223,"Ð²Ð°":2224,"ga":2225,"Ġdoes":2226,"roller":2227,"atur":2228,"Ġfa":2229,"Ġ--":2230,"Qu":2231,"Ġsign":2232,"åıĳ":2233,".w":2234,"pre":2235,"Ġbecause":2236,"Ġhome":2237,"Ġsuch":2238,"Model":2239,"Ġfree":2240,"80":2241,"Ġdid":2242,"At":2243,"ĠÏĦ":2244,");":2245,"Man":2246,"ams":2247,"à¸¥":2248,"ÐµÐº":2249,".in":2250,"Or":2251,"ED":2252,"tn":2253,"Ġbefore":2254,"Error":2255,"Ġ<<":2256,"index":2257,"ital":2258,"ÅĽ":2259,"UT":2260,"ida":2261,"ample":2262,"è¯":2263,"ives":2264,"Un":2265,"ware":2266,"_in":2267,"ÙĪÙĨ":2268,"Ġnum":2269,"29":2270,"Ð¸Ð¼":2271,"[\"":2272,"Ġprocess":2273,"],Ċ":2274,"uthor":2275,"ëĭ¤":2276,"ste":2277,")čĊ":2278,"File":2279,"comm":2280,"Ġprovid":2281,"ç»":2282,"rop":2283,"ĠPr":2284,"ache":2285,"ector":2286,"loat":2287,"Ð¸Ð»":2288,"Ġya":2289,"01":2290,"IS":2291,"æĹ¥":2292,"à¸µ":2293,"Ã¡s":2294,"ido":2295,"Ġonline":2296,"Ġvoor":2297,"Over":2298,"oad":2299,"face":2300,"ĠÒ":2301,"fe":2302,"Request":2303,"Ġtake":2304,"As":2305,"ional":2306,"Map":2307,"oh":2308,"man":2309,"Ġste":2310,"chn":2311,"ĠFr":2312,"),Ċ":2313,"ä¸Ńå½©ç¥¨":2314,"Ġ×©":2315,"Ġown":2316,"ĠRes":2317,"file":2318,"go":2319,"Ġchild":2320,"à¤Ĺ":2321,"âĢĶ":2322,"enu":2323,"Color":2324,"Ġview":2325,"Ar":2326,"ours":2327,"Ġcap":2328,"Ġà¤ķà¥ĩ":2329,"Ġà¤¨":2330,"Ġdas":2331,"imes":2332,"è®":2333,"ĠáĥĽ":2334,"Ġq":2335,"td":2336,"':":2337,"Ġbreak":2338,"vert":2339,"iter":2340,"Ġarg":2341,".W":2342,"ared":2343,"Ġtop":2344,"by":2345,"ually":2346,"erg":2347,"Al":2348,"Ġsize":2349,"ason":2350,"atic":2351,"ains":2352,"Ġsit":2353,"ailable":2354,"ocation":2355,"Ġshow":2356,"Ġce":2357,"....":2358,"Ġmodel":2359,"Ġusing":2360,"Ò£":2361,"enn":2362,"ini":2363,"Ġdesign":2364,"ÙĬÙĨ":2365,"rc":2366,"ism":2367,"Index":2368,"ĠÐ·Ð°":2369,"Ġsal":2370,"Ġcheck":2371,"_M":2372,"Ġ{ĊĊ":2373,"áĥķ":2374,"Ġworld":2375,"Ġà¤ľ":2376,"eter":2377,"-t":2378,"ÙĪÙĦ":2379,"ijn":2380,"Ġ\\":2381,"ament":2382,"à¥įà¤¯":2383,"Ġweek":2384,"å¿":2385,"à¯ģà®":2386,"ĠÑį":2387,"×§":2388,"lication":2389,"ĠÐ»":2390,"Ġson":2391,"Ġbook":2392,"ĠdÃ©":2393,"Element":2394,"Ġhim":2395,"itch":2396,"lete":2397,"Ġ||":2398,"ĠØ´":2399,"Form":2400,"Ð¸Ðµ":2401,"(self":2402,"Ġmit":2403,"ĠÐµ":2404,"ght":2405,"(n":2406,"(p":2407,"do":2408,"ivity":2409,"(c":2410,"Ġthink":2411,"Ð¾Ð³Ð¾":2412,"Ġbusiness":2413,"Test":2414,"ĠÂ«":2415,"AD":2416,"Ġtot":2417,"Ġagain":2418,"ĠĠĠĠĠĠĠĠĠĠĠĠĠĠĠĠĠĠĠĠĠĠĠĠĠĠĠĠĠĠĠ":2419,"Ġsystem":2420,"Ġcall":2421,"ye":2422,"Ġprote":2423,"ico":2424,"ua":2425,"ados":2426,"Ġcent":2427,"Ġpa":2428,"(this":2429,"×Ĺ":2430,"ih":2431,"ä¸Ģ":2432,"×ķ×ª":2433,"Ġzu":2434,"ìŀ":2435,"AC":2436,"package":2437,"Ġpoint":2438,"ĠBe":2439,"×Ļ×Ŀ":2440,"ott":2441,"ĠÑħ":2442,"Ġprodu":2443,"Ø«":2444,"ĠCol":2445,"à¸±":2446,"Ġbeing":2447,"oto":2448,"Ġrep":2449,"Ġmat":2450,"ideo":2451,"Ġmade":2452,"ios":2453,"Ġeach":2454,"oot":2455,"Ġposs":2456,"();ĊĊ":2457,"åĬ":2458,"Ð»Ñı":2459,"right":2460,"Ġrun":2461,"Ġà¹":2462,"Ġune":2463,"ero":2464,"âĢĮ":2465,"è´":2466,"35":2467,"gen":2468,"-d":2469,"aterial":2470,"Int":2471,"Ġha":2472,"Ġà¤ħ":2473,"export":2474,"Ġplace":2475,"ĠâĢĺ":2476,"ident":2477,"Ġqual":2478,"Ð¸ÑĢ":2479,"ape":2480,"à²°":2481,"Ġpo":2482,"_name":2483,"ks":2484,"Äģ":2485,"Le":2486,"Ġà¤¹à¥Ī":2487,"oken":2488,"Ġcle":2489,"Ġsoc":2490,"Ġfound":2491,"Ú¯":2492,"type":2493,"Ġopen":2494,"à¥ĩà¤Ĥ":2495,"Ġist":2496,"×¤":2497,"Ġsupport":2498,"ĊĊĊ":2499,"This":2500,"Ġcreate":2501,"ĠGr":2502,"á»¥":2503,"hip":2504,"ora":2505,"Ġpat":2506,"Date":2507,"ather":2508,"×¡":2509,"////////":2510,"ê³":2511,"come":2512,"å°":2513,"ĠTo":2514,"')Ċ":2515,"Ġ__":2516,".âĢĿ":2517,"_st":2518,"po":2519,"à§ģ":2520,"result":2521,"Context":2522,"ìł":2523,"âĢį":2524,"ÙĩØ§":2525,"Ġcomo":2526,"ÐµÐ¹":2527,"ala":2528,"da":2529,"ined":2530,"ëĬ":2531,"Box":2532,"Ð¾Ðº":2533,"istr":2534,"ql":2535,"olean":2536,"create":2537,"Ð¾Ð¶":2538,"Ġsuper":2539,"ters":2540,"ende":2541,"nen":2542,"Ġline":2543,"ween":2544,"ĠAll":2545,"33":2546,"(),":2547,"45":2548,"ists":2549,"Ġ...":2550,"Size":2551,"Ġcho":2552,"sole":2553,"vice":2554,"à¤µ":2555,"Ġku":2556,"Ġpartic":2557,"orn":2558,"à§°":2559,".e":2560,"une":2561,"é¢":2562,"App":2563,"icense":2564,"Ġni":2565,"Of":2566,"ocal":2567,"Ð°Ð¹":2568,"Ġorder":2569,"Ġservice":2570,"ê°":2571,"(d":2572,"ainer":2573,"ÎŃ":2574,"Ġdevelop":2575,"lected":2576,"ĠØŃ":2577,"Add":2578,"Class":2579,"ita":2580,"iment":2581,"Ø§Ø¯":2582,"ĠApp":2583,"ync":2584,"Em":2585,"input":2586,"à¤¦":2587,"ÃŃa":2588,"×Ł":2589,"Ġcontin":2590,".util":2591,"Ġ/**Ċ":2592,"lich":2593,"All":2594,"Ġmethod":2595,"Ġ);Ċ":2596,"indow":2597,"ÙĦÙī":2598,"itor":2599,".T":2600,"\"]":2601,"Ġcustom":2602,"àµĨ":2603,"ĠOr":2604,"åº":2605,"Ġquest":2606,"Ġà¦ķ":2607,"Ġstate":2608,"ige":2609,"Field":2610,".B":2611,"pace":2612,"Ġnext":2613,"ploy":2614,"Ġlife":2615,"Ġrequest":2616,"Ġthose":2617,"!!":2618,"Path":2619,"ctions":2620,"Ġeas":2621,"Ġfollow":2622,"trans":2623,"search":2624,"à®¾":2625,"itial":2626,"çľ":2627,"indows":2628,"á»ĭ":2629,"Ġà¤¦":2630,"Ġcare":2631,"ĠSo":2632,"ira":2633,"Øº":2634,"ÑĭÐ½":2635,"36":2636,"Ġmu":2637,"ĠØ®":2638,"Ġvol":2639,"Ġvi":2640,"list":2641,"tract":2642,"ump":2643,"Ġarray":2644,"icle":2645,"Ad":2646,"Ġdifferent":2647,"(new":2648,"aining":2649,"Ġoper":2650,"Ġà¤°":2651,"ÂŃ":2652,"For":2653,"IL":2654,"ĠList":2655,"Ġprov":2656,"æĢ":2657,"Up":2658,".log":2659,"áĥ£áĥ":2660,"à¹ī":2661,"Ġbeg":2662,"<?":2663,"Ð°Ñģ":2664,"Ġexpect":2665,"raph":2666,"Ġmov":2667,"rows":2668,"ìĦ":2669,"wer":2670,"Ġdans":2671,"ĠSch":2672,"ĠTe":2673,"Ġmar":2674,"Ġà¤µ":2675,"Ġà¤²":2676,"ots":2677,"\"ĊĊ":2678,"Ð¾ÑģÑĤ":2679,"à´¤":2680,"Ġorgan":2681,"ias":2682,"à¹Ģà¸":2683,"Ġsame":2684,"AP":2685,"ĠAd":2686,"Ã®":2687,"define":2688,".app":2689,"iving":2690,"########":2691,"Ġcoun":2692,"Ġintern":2693,"ING":2694,"less":2695,"][":2696,"._":2697,"Ġlocal":2698,"LO":2699,"Ġ`":2700,"Node":2701,"Ġsite":2702,"nect":2703,"åĮ":2704,"ura":2705,"function":2706,"Ġrece":2707,"stance":2708,"Ġ});Ċ":2709,"à´¨":2710,"Ġproble":2711,"men":2712,"Ġstyle":2713,"Ġref":2714,"Ġreally":2715,"ird":2716,"ela":2717,"×Ľ":2718,"Log":2719,"ified":2720,"____":2721,"omb":2722,"},Ċ":2723,"åĨ":2724,"Array":2725,"uil":2726,"ission":2727,"Î³":2728,"_F":2729,"Ġik":2730,"span":2731,"ÑĢÑĥ":2732,"ĠâĢĶ":2733,"ÑĤÐ°":2734,"Ġpop":2735,"ĉc":2736,"--------------------------------":2737,"Ġwrit":2738,"Message":2739,"ric":2740,"tribut":2741,"(int":2742,"Ġsem":2743,"90":2744,"Úº":2745,"Component":2746,"Ġ->":2747,"Group":2748,"à±ģà°":2749,"Ġide":2750,"ili":2751,"éĢ":2752,"ished":2753,"ato":2754,"æ³":2755,"áĥ¡":2756,"Ġ+=":2757,"Ġmain":2758,"site":2759,"OM":2760,"ĠInd":2761,"à¤¯":2762,"ĠIs":2763,"ever":2764,"mit":2765,"Ġsw":2766,"Öģ":2767,"inc":2768,"Result":2769,"ëĬĶ":2770,"ways":2771,"urch":2772,"Ġà¤Ĩ":2773,"Manager":2774,"ĉĊ":2775,"Ġnet":2776,"Ġpay":2777,"ĠÄĳ":2778,"Ð¸Ð¸":2779,"Ġqui":2780,"à¸´":2781,"àª¤":2782,"Ġå¤©å¤©ä¸Ńå½©ç¥¨":2783,"àª¿":2784,"Ġ/*":2785,"sc":2786,"Ġdefault":2787,"à²¦":2788,"70":2789,"Image":2790,"Ġau":2791,"à®°":2792,"ÛĲ":2793,"Ġexp":2794,"à¸ĩ":2795,"à¥Ĥ":2796,"Ġcommun":2797,"Ġ(!":2798,"ency":2799,"Override":2800,"Ġequ":2801,"lock":2802,"Ġí":2803,"Ġmust":2804,"Ġdan":2805,"Ïī":2806,"else":2807,"pty":2808,"ä¼":2809,"å¹´":2810,"Config":2811,"Ġvon":2812,"Ġgame":2813,"ĠÐ¾ÑĤ":2814,"Ġconf":2815,"ness":2816,"Ġobject":2817,"Act":2818,"ÃŁ":2819,"ÑģÑĤÐ²":2820,"àªµ":2821,"tes":2822,"Ġdirect":2823,"OT":2824,"();čĊ":2825,"Ġ×ķ":2826,"Ġfun":2827,"ï¿":2828,"ENT":2829,"à¸¡":2830,"erc":2831,"ti":2832,"IM":2833,"Ġdep":2834,"irm":2835,"Code":2836,"heck":2837,"ross":2838,"Ġavailable":2839,"Ġfact":2840,"à¦ķ":2841,"ĠÙĤ":2842,"88":2843,"Ġhab":2844,"from":2845,"Ġaround":2846,"ÑĤÐ¸":2847,"à¦¤":2848,"Ã¤r":2849,"Des":2850,"uck":2851,"ijk":2852,".print":2853,"html":2854,"çº¿":2855,"ĠSp":2856,"aff":2857,".id":2858,".re":2859,"ization":2860,"stand":2861,"Ġcu":2862,"Val":2863,"off":2864,"å¤§åıĳ":2865,"ĠBr":2866,"Ġrest":2867,"Ġta":2868,"Ġ()":2869,"Ġbetween":2870,"Ġcour":2871,"àª®":2872,"va":2873,"Not":2874,"ä¹Ĳ":2875,">čĊ":2876,"Ã¶r":2877,"not":2878,"ĠáĥĲáĥ":2879,"Ġáĥĵ":2880,"Ġret":2881,"ee":2882,"ium":2883,"uro":2884,"cul":2885,"With":2886,"-l":2887,"ì§":2888,"Ġwer":2889,"Ġold":2890,"Ġsay":2891,"iles":2892,"Ġnon":2893,"Ã©e":2894,"HE":2895,"ĠMe":2896,"plate":2897,"over":2898,"Ġmais":2899,"================":2900,"por":2901,"ĠĠĠĠĠĠĠĠĠĠĠĠĠĠĠĠĠ":2902,"http":2903,"posit":2904,"ically":2905,"àªķ":2906,"oss":2907,"×Ĵ":2908,"orth":2909,"Ġmarket":2910,"31":2911,"AB":2912,"omen":2913,"Ġterm":2914,"Ġerror":2915,"ags":2916,"odule":2917,"Ġcert":2918,"Ġti":2919,"vir":2920,"åŃ":2921,"05":2922,"Ġpu":2923,"Ø§Ø¨":2924,"Ġandroid":2925,"UN":2926,"Ġmus":2927,"Ġstill":2928,"Ġang":2929,"(String":2930,"pen":2931,"Ġplus":2932,"Ġauf":2933,"Î®":2934,"Ġwithout":2935,"Ð°Ð²":2936,"áĥł":2937,"Pr":2938,"crib":2939,"obal":2940,"Hand":2941,"ĠGet":2942,"ln":2943,"Ġmonth":2944,"Ð¸Ð¹":2945,"Ġak":2946,"Controller":2947,"Ġmas":2948,"ubl":2949,"Ð°ÑĤÑĮ":2950,".r":2951,"ĠUS":2952,"ĠÙĥ":2953,"aan":2954,"ito":2955,"./":2956,"åĪĨ":2957,"_D":2958,"ilter":2959,"Ġdisc":2960,"Ġoffer":2961,"Ġerr":2962,"ron":2963,"æī":2964,"/*":2965,"Ġgoing":2966,"à¤¾à¤¨":2967,"×Ŀ":2968,"Ġâ":2969,"iven":2970,"AG":2971,"ential":2972,"Ġboth":2973,"Ġben":2974,"query":2975,"ift":2976,"Ġà¦¬":2977,"vol":2978,"ÐµÐ³":2979,"çİ":2980,"nection":2981,"ĠÑĪ":2982,"Ġà¦¸":2983,"ading":2984,"ULL":2985,"Sc":2986,"pons":2987,"Ð¸Ñģ":2988,"anel":2989,"bar":2990,"37":2991,"older":2992,"Ġproject":2993,"à´°":2994,"ena":2995,"reate":2996,"tribute":2997,"teger":2998,"Ġmax":2999,"04":3000,"met":3001,"-f":3002,"></":3003,"ĠNo":3004,"ategory":3005,"Ġput":3006,"ÖĦ":3007,"ny":3008,"ati":3009,"ali":3010,"Ġpage":3011,"ipp":3012,"à¤°à¥įà¤":3013,"Ġ}čĊ":3014,"à¸ģ":3015,"}čĊ":3016,"äº¬":3017,"ftware":3018,"Ġreport":3019,"34":3020,"oney":3021,"ãĥ¼":3022,"n't":3023,"Ġbuild":3024,"aving":3025,"Î¿Ïħ":3026,"ingle":3027,"Fr":3028,"ummary":3029,"Ġuma":3030,"Is":3031,"Ġincre":3032,"ground":3033,"Ġhapp":3034,"ology":3035,"Ð¾Ð·":3036,">ĊĊ":3037,"ĠLa":3038,"à¦¾à¦°":3039,"adi":3040,"Ġann":3041,"US":3042,"Ð¡":3043,"å¼Ģ":3044,"ved":3045,"ittle":3046,"Ġlove":3047,"ani":3048,"Õ¸Õ":3049,"Ġleg":3050,"Ò³":3051,"åĽ½":3052,"oud":3053,"Ġclient":3054,"Ġseg":3055,"code":3056,"ĠOb":3057,"Ġàªķ":3058,"à§Ł":3059,"Ġáĥ¡":3060,"à¦²":3061,"08":3062,"Ġcome":3063,"www":3064,"áº¿":3065,"çĽ":3066,"_re":3067,"ypes":3068,"Ġter":3069,"thing":3070,"#define":3071,"ĠBut":3072,"ustr":3073,"ÐĲ":3074,"Ġals":3075,"ÑĥÑĢ":3076,"ĠÐ¾Ð±":3077,"ÑĬ":3078,"Ġba":3079,"_N":3080,"Ġstd":3081,"inter":3082,"ĉĉĉĉĉĉ":3083,"à«ģ":3084,"sg":3085,"the":3086,"lar":3087,"Ã²":3088,"Ġcolor":3089,"áº¡":3090,"à¸Ķ":3091,"book":3092,"Ġfri":3093,"api":3094,"ume":3095,"private":3096,"Ġcost":3097,"ards":3098,"Ġsecond":3099,"Ġcontent":3100,"Ġtoo":3101,"rist":3102,"ba":3103,"Ġpath":3104,"Ġà¤Ĺ":3105,"ĠQu":3106,"ìĹĲ":3107,"ogle":3108,".is":3109,"Ð¸Ð·":3110,"PE":3111,"Ð°ÑĢÐ°":3112,"ika":3113,"09":3114,"Ġeng":3115,".length":3116,"ĠCont":3117,"ÐŁ":3118,"ÙĬØ±":3119,"Ġfew":3120,"zi":3121,"Ġà¦ª":3122,"Ġwa":3123,"Ġhist":3124,"ĠfÃ¼r":3125,"creen":3126,"):":3127,"ben":3128,"ki":3129,"ĠBl":3130,"íķĺ":3131,"ference":3132,"ĠIm":3133,"åĵ":3134,"Ġport":3135,"Ġaan":3136,"ano":3137,"Ø§Ø¦":3138,"resent":3139,"pring":3140,"Ð¾Ð»ÑĮ":3141,"{čĊ":3142,"Layout":3143,"]ĊĊ":3144,"ĠMar":3145,"ĠrÃ©":3146,"Ġlim":3147,"inn":3148,"Ġfull":3149,"38":3150,"å¸":3151,"55":3152,"Ġappro":3153,"config":3154,"Ġpod":3155,"ief":3156,"Ø¦":3157,"Ġaccess":3158,"Ġeffect":3159,"No":3160,"-p":3161,"OL":3162,"Ġkan":3163,"ĠThey":3164,"Ġja":3165,"ification":3166,"Param":3167,"ĠPh":3168,"áĥĲáĥľ":3169,"cle":3170,"eld":3171,"\").":3172,"07":3173,"ë¡":3174,"Ġcompany":3175,"Ġmessage":3176,"Ġà¤¤":3177,"è½¦":3178,"lex":3179,"ona":3180,"æľĪ":3181,"Ġstand":3182,"à§ĭ":3183,"chen":3184,"assword":3185,"Response":3186,"Ġspe":3187,"à¤¬":3188,"Ġhead":3189,"test":3190,"Ê»":3191,"vec":3192,"Gr":3193,"Ġko":3194,"Ġfeel":3195,"ĠDes":3196,"valid":3197,"label":3198,"lt":3199,"ips":3200,"_B":3201,"Ġkom":3202,"ĠIN":3203,"199":3204,"IG":3205,"It":3206,"px":3207,"Ġpot":3208,"àªĤ":3209,"Ġzijn":3210,"Ġlevel":3211,"oci":3212,"Ġdocument":3213,"Ġteam":3214,"Ġmill":3215,"Ġ\"\"":3216,"med":3217,"06":3218,"Ġenc":3219,"pert":3220,"æĺ¯":3221,"Ġbas":3222,"Opt":3223,"ĠÛģ":3224,"Ġmem":3225,"ima":3226,"Out":3227,"max":3228,"(b":3229,"Ġhealth":3230,".pro":3231,"ables":3232,"Status":3233,"500":3234,"æĿ":3235,"ä¸ī":3236,"iones":3237,"Be":3238,"Ġsure":3239,"Ġexperience":3240,"ĠEl":3241,"ĠÑģÑĤ":3242,"place":3243,"zen":3244,"Ġinvest":3245,"ÈĽ":3246,"aces":3247,"Trans":3248,"gg":3249,"éľ":3250,"ï¿½":3251,"content":3252,"ĠHow":3253,"FF":3254,"39":3255,"ĠØ¥":3256,"char":3257,"ending":3258,"Ġfield":3259,"idget":3260,"Ġlot":3261,"ìĭ":3262,"Ent":3263,"cur":3264,"ĠMan":3265,"Ïĩ":3266,"fect":3267,"Ġca":3268,"ĠØ§ÙĦØª":3269,"Ġ)Ċ":3270,"alt":3271,"ething":3272,"ination":3273,"ĠThere":3274,"Input":3275,"ived":3276,"ĠÑı":3277,"ĠÒĽ":3278,"ories":3279,"pecial":3280,"ìĿĦ":3281,"Ġimp":3282,"Ġthings":3283,"Ġmag":3284,"ê¸":3285,"02":3286,"init":3287,"Ġir":3288,"Ã©n":3289,"à®¾à®":3290,"Ġsmall":3291,"elt":3292,"Ġtable":3293,"mb":3294,"isk":3295,"à°¨":3296,"Õ¡Õ¯":3297,"Ġiss":3298,"uffer":3299,"Ġà¶":3300,"ille":3301,"Ĺäº¬":3302,"len":3303,"à¤ľ":3304,"tings":3305,"uration":3306,"ĠÐ¿Ð¾":3307,"cer":3308,"true":3309,"âĢĭ":3310,"ìļ":3311,"ĠLicense":3312,"Ġwon":3313,"Ġki":3314,"à´ķ":3315,"Ġsex":3316,"Ġmom":3317,"ĠÃ¼":3318,"Ġprotect":3319,"System":3320,"ling":3321,"Ġresponse":3322,"angu":3323,"Ġalways":3324,"Page":3325,"ç«":3326,"ĠAmer":3327,"à¸ķ":3328,"OD":3329,"à¤Ł":3330,"Ġconsider":3331,"room":3332,"Ġpresent":3333,"Ġtu":3334,"If":3335,"44":3336,"Õ¥ÖĢ":3337,".out":3338,"Util":3339,"æĬ":3340,"ĠÐ²Ñĭ":3341,"Ġà¤®à¥ĩà¤Ĥ":3342,"Ġchange":3343,"acter":3344,"Ġans":3345,"ĠĠĠĠĠĠĠĠĠĠĠĠ":3346,"Ġperform":3347,"Ġé":3348,"Ġjob":3349,"ves":3350,"atures":3351,"Ġrange":3352,"ĠÐĲ":3353,"Ġduring":3354,"è§Ĩ":3355,"Î´":3356,"Ġkeep":3357,"Ġreview":3358,"à¸ļ":3359,"OS":3360,"array":3361,"Ġprom":3362,"igen":3363,"å·":3364,"image":3365,"ÐµÐ»ÑĮ":3366,"ĉthis":3367,"********************************":3368,"object":3369,";čĊčĊ":3370,"ĠPar":3371,"à°Ĥà°":3372,"Ñŀ":3373,"opt":3374,"ids":3375,"Ġdays":3376,"å¿«":3377,"Ġimportant":3378,"ĠÐŁ":3379,"ĠSc":3380,"ought":3381,"ĠØ¢":3382,"à°°":3383,"75":3384,"ãģ®":3385,"Ġaff":3386,"Equ":3387,"ÑĥÐ´":3388,"Ġlittle":3389,"áº£":3390,"Ġàªª":3391,"\\n":3392,"ï¼ģ":3393,"æ¸":3394,".R":3395,"Inter":3396,"Ġtechn":3397,"rl":3398,"irt":3399,"Ð°Ð·":3400,"ÙĨØ¯":3401,"Ġhum":3402,"iy":3403,"Ð¸Ð´":3404,"Ġ:=":3405,"Ġdos":3406,"Ġthree":3407,"ìĿĺ":3408,"stru":3409,"Ø§ÛĮ":3410,"Ġwater":3411,"oi":3412,"ĠI'":3413,"ãĢĤĊ":3414,"Ö·":3415,"check":3416,"Count":3417,"ialog":3418,"ula":3419,"Õ¡Õµ":3420,"Ġexpl":3421,"Ġinput":3422,"Ġva":3423,"ÑĭÐ»":3424,"Ġinterest":3425,"').":3426,"Ġè":3427,"ä¸į":3428,"Table":3429,"earch":3430,"ret":3431,"Ġbetter":3432,"uild":3433,"_h":3434,"Ġroom":3435,"And":3436,"ĠÕ°":3437,"Ġwebsite":3438,"çł":3439,"Label":3440,"à¦¬":3441,"_r":3442,"New":3443,"amente":3444,"Ġà¤Ń":3445,"ÐµÐ·":3446,"åľ¨çº¿":3447,"amespace":3448,"å¨":3449,"Ġess":3450,"Reg":3451,"-c":3452,"Ġtil":3453,"(e":3454,"pi":3455,"ĠÐ¡":3456,"ĠÙĪØ§ÙĦ":3457,"ao":3458,"ales":3459,"ands":3460,"Ġlink":3461,"âĢĻre":3462,"Ġincluding":3463,"Ġbig":3464,"Ġol":3465,"Listener":3466,",čĊ":3467,"à±ĭ":3468,"Ġmult":3469,"Ġpower":3470,"ources":3471,"Ġindex":3472,"ĠAN":3473,"Ġschool":3474,"ĠÐĴ":3475,"Ġli":3476,"Def":3477,"ĠÏĢ":3478,"Ġhard":3479,"à¦®":3480,"áĥļ":3481,".ex":3482,"ĠAb":3483,"à´Ĥ":3484,"resh":3485,"elle":3486,"cht":3487,"cord":3488,"arly":3489,"Ġcode":3490,"umb":3491,"ativ":3492,"iled":3493,"Ġcatch":3494,"ï¼ī":3495,"Ġplan":3496,"isa":3497,"mon":3498,"way":3499,"Ġvous":3500,"Pos":3501,"Ġfamily":3502,"Ġdouble":3503,"Str":3504,"Ġsuccess":3505,"aps":3506,"ä¹ħ":3507,"Ġgot":3508,"oute":3509,"Client":3510,"èµĽ":3511,"ä¿":3512,"Ġfac":3513,"img":3514,"å¾":3515,"())":3516,"á»ĩ":3517,"Ġwithin":3518,"48":3519,"ĉs":3520,"Ġdate":3521,"eder":3522,"ĠĠĠĠĠĠĠĠĠĠĠĠĠĠĠĠĠĠĠĠĠĠĠĠĠĠĠĠĠĠĠĠĠĠĠ":3523,"Click":3524,"ude":3525,"rawing":3526,"Ġaccount":3527,"ances":3528,"Ġexc":3529,"Ġ===":3530,"ques":3531,",\"":3532,"áº¹":3533,"uilder":3534,"Ġsam":3535,"Ġ((":3536,"_data":3537,"Dis":3538,"Ġstruct":3539,"ÐĴ":3540,"Action":3541,"ĠÑĦ":3542,"Ġsomething":3543,"ario":3544,"aa":3545,"Ġbit":3546,"enter":3547,"Ġ×¢":3548,"ede":3549,"ĠĠĠĠĠĠĠĠĠĠ":3550,"uid":3551,".to":3552,"abase":3553,"Ø¥":3554,"àµįà´¤":3555,"otal":3556,"Ġbeh":3557,"Õµ":3558,"Ġnicht":3559,"ibr":3560,"Ġleft":3561,"agement":3562,"ability":3563,"ĠĠĠĠĠĠĠĠĊ":3564,"cia":3565,"Ġgroup":3566,"_w":3567,"ormal":3568,"æĹ¶æĹ¶":3569,"à¯Ī":3570,"ĠÃ¡":3571,"Ġmight":3572,"ii":3573,"ÑĥÑĤ":3574,"You":3575,"Ø±ÙĬ":3576,"Ġelement":3577,"aka":3578,"éĻ":3579,"Ġcontrol":3580,"Ġservices":3581,"Ġspecial":3582,"CH":3583,"amework":3584,"å¹³":3585,"mt":3586,"Ġprovide":3587,"aster":3588,"eta":3589,"åİ":3590,"ÈĻ":3591,"Ġred":3592,"ko":3593,"Ð´Ñĭ":3594,"idade":3595,"à®¤":3596,"à¤¨à¥ĩ":3597,"Ġmot":3598,"ores":3599,"iginal":3600,"Ġdist":3601,"Ú¾":3602,"ï¼Ī":3603,"ĠAt":3604,"Ġcount":3605,"Ġå¤§åıĳ":3606,"gl":3607,"Ġbar":3608,"Ġtotal":3609,"ĠÎº":3610,"Ġbase":3611,"Ġchang":3612,"Ġanother":3613,"äºī":3614,"Content":3615,"itional":3616,"ones":3617,"66":3618,"idd":3619,"ìķ":3620,"Ġimage":3621,"ĠÙħÛĮ":3622,"viron":3623,"Ġarea":3624,"ision":3625,"igned":3626,"ĠShe":3627,"riter":3628,"à²Ĥ":3629,"Ġsince":3630,"andom":3631,"ĠFl":3632,"avor":3633,"æĹ¶æĹ¶å½©":3634,"ights":3635,"head":3636,"Ġç":3637,"Sub":3638,"Det":3639,"Ġvers":3640,"Ġbody":3641,"SS":3642,"yl":3643,"Ġgive":3644,"Ġgen":3645,"EM":3646,"à¯įà®ķ":3647,"Ġhot":3648,"(i":3649,"à±ĩ":3650,"EL":3651,"Ġtrav":3652,"Ġ($":3653,"à²²":3654,"atis":3655,"Ġwar":3656,"fter":3657,"Ġextends":3658,"03":3659,"Ġsich":3660,"ĠáĥĴ":3661,"ready":3662,"ĠpÃ¥":3663,"Ġhar":3664,"Line":3665,"æľī":3666,"Ġutil":3667,"arge":3668,"ĠÏĥ":3669,"åĩ":3670,"ĠnÃ£o":3671,"Ðŀ":3672,"ĠMy":3673,"vers":3674,"Ġkind":3675,"ÙĦØ§":3676,"ÛĮÙĨ":3677,"ills":3678,"icon":3679,"*/":3680,"Ä±n":3681,"Ðļ":3682,"éľ¸":3683,"Ġsearch":3684,"Ġàª¸":3685,"hi":3686,"db":3687,"Ð¼Ð¸":3688,"ĠØ§ÙĦØ£":3689,"mo":3690,"Õ¸ÖĤÕ´":3691,".\"":3692,"Ġair":3693,"Õ¿":3694,"Number":3695,"Ġassert":3696,"comp":3697,"Ġsocial":3698,"oogle":3699,".x":3700,"Ġcontact":3701,"Ã¹":3702,"ieve":3703,"Ġrecord":3704,"zy":3705,"ched":3706,"Ð¸ÑĤÑĮ":3707,"ÄĽ":3708,".append":3709,"ë¡ľ":3710,"æĸ°":3711,"Ã¡n":3712,"Ġecho":3713,"Ġbro":3714,"é¢ĳ":3715,"Ġturn":3716,"acc":3717,"à¸¢":3718,"Ġemail":3719,"Ð¾Ð¿":3720,"ately":3721,"ĉb":3722,"ador":3723,"ocus":3724,"ĉprivate":3725,"map":3726,"Ġgre":3727,"Ġfore":3728,"å¨±":3729,"Ġhref":3730,"uy":3731,"77":3732,"ÙĪØ¯":3733,"ired":3734,"åı°":3735,"Ġaction":3736,"Ġbed":3737,"äºīéľ¸":3738,"Ãµes":3739,"×¦":3740,"Ġable":3741,"Ġbir":3742,"ca":3743,"Ġniet":3744,"Ïį":3745,"ÐµÐ½Ð¸Ñı":3746,"imer":3747,"íķľ":3748,"ìĬ":3749,".println":3750,"orage":3751,"èµĽè½¦":3752,"jor":3753,"Ð¸Ñĩ":3754,"Ġdest":3755,"ĠDo":3756,"ici":3757,"Ġanal":3758,"Ġrequired":3759,"Ġless":3760,"itÃ©":3761,"ĠâĢ¦":3762,"Ġallow":3763,"Ser":3764,"gress":3765,"ÙĦÙĬ":3766,"actory":3767,"Ø¸":3768,"ette":3769,"Column":3770,"ä¸ĭ":3771,"Ġaddress":3772,".G":3773,"à¤ļ":3774,"å½©ç¥ŀ":3775,"Ġjavax":3776,"ÑĥÐ»":3777,"Ġlooking":3778,"Ġnever":3779,"Ph":3780,"Õ¡ÖĢ":3781,"oo":3782,"Ġtarget":3783,"><":3784,"Ġmaterial":3785,"post":3786,"ules":3787,"à¸§":3788,"Ġsus":3789,"Ã¬":3790,"Ø§Ø¡":3791,"Ġbool":3792,"ĠÎ±":3793,"uto":3794,"áĥĶáĥļ":3795,"49":3796,"áĥĵ":3797,"è¡":3798,"IP":3799,"à¤¿à¤¯":3800,"Ġmil":3801,"Ġparam":3802,"æ´":3803,"_type":3804,"acy":3805,"joy":3806,"Ġdig":3807,"ĠDr":3808,"Ġtitle":3809,"Ġask":3810,"ë¥":3811,"çľĭ":3812,"ĠWith":3813,"Ġcontext":3814,"apt":3815,"ÙħØ§":3816,"sk":3817,"ÐĿ":3818,"endo":3819,"Ð¸Ð²":3820,"odes":3821,"context":3822,"Ġvideo":3823,"à¥ĭà¤Ĥ":3824,"my":3825,"ãģĦ":3826,"UE":3827,"ë¦":3828,"ãģĹ":3829,"iversity":3830,"aper":3831,"Ġpersonal":3832,"Ġconfig":3833,"sub":3834,"à²¨":3835,"cha":3836,"aph":3837,"Instance":3838,"Ġgrow":3839,"Ġcou":3840,"vious":3841,"mand":3842,"open":3843,"àµįà´ķ":3844,"å¨±ä¹Ĳ":3845,"fic":3846,"å½©ç¥ŀäºīéľ¸":3847,"Ġà¤ī":3848,"Ġmal":3849,"request":3850,"ences":3851,"ĠVer":3852,"Ġentre":3853,"á»ĳ":3854,"pository":3855,"Ġà´ª":3856,"ista":3857,"áĥĲáĥĽ":3858,"yd":3859,"Ġsent":3860,"summary":3861,"Ġindiv":3862,"à¤¾à¤²":3863,"èī":3864,"Entity":3865,"yr":3866,"ican":3867,"abled":3868,"icy":3869,"Ġboolean":3870,"à¤¡":3871,"Ġprofession":3872,"áĥĽ":3873,"ently":3874,"iod":3875,"çĲ":3876,"Ġbuy":3877,"Ġdom":3878,"From":3879,"Ġoptions":3880,",âĢĿ":3881,"imal":3882,"ained":3883,"apter":3884,".data":3885,"Ġmes":3886,"Ġconsole":3887,"ÑģÐº":3888,"iti":3889,"aÃ§Ã£o":3890,"Ġproducts":3891,"UI":3892,"ĠSu":3893,"Î±Î¹":3894,"Property":3895,"PO":3896,"Control":3897,"65":3898,"pa":3899,"mi":3900,"?Ċ":3901,"ension":3902,"ĉfor":3903,"ç¾":3904,"Ġmoney":3905,".de":3906,"Ð½Ðµ":3907,"ì§Ģ":3908,"àª¾àªĤ":3909,"Ġadv":3910,"Ġprice":3911,"àª²":3912,"Ã©t":3913,"Ċ//":3914,"ites":3915,".create":3916,"Ãªn":3917,"èĢ":3918,"perties":3919,">>":3920,"adas":3921,"EX":3922,"å®ĺ":3923,"Ð°Ð»ÑĮ":3924,"ÙĨØ§":3925,"Ġversion":3926,"ä¹Ī":3927,"Ġindivid":3928,"embers":3929,"annel":3930,"Ġinclude":3931,"ĠmÃ¡s":3932,"ended":3933,"Ġ×¤":3934,"board":3935,"ering":3936,"Ġavec":3937,"message":3938,"è§Ĩé¢ĳ":3939,"assert":3940,"option":3941,"link":3942,"ĠNULL":3943,"lev":3944,"æķ":3945,"ĠDis":3946,"Ġdev":3947,"à¯įà®¤":3948,"àµįà´¨":3949,"ĠEng":3950,"Ġident":3951,"box":3952,"Ġchildren":3953,"Ġlaw":3954,"ĠReg":3955,"ê³ł":3956,"ĠSet":3957,"Ġhttp":3958,"Ð½ÑĭÑħ":3959,".Get":3960,"({Ċ":3961,"Query":3962,"Ġfre":3963,"wing":3964,"à§ĩà¦°":3965,"akt":3966,"Ġsn":3967,"ster":3968,"Ã¶n":3969,"Õ«Õ¶":3970,"ĠÐļ":3971,"({":3972,"ls":3973,"Ġnov":3974,"Ġuns":3975,"Ġaus":3976,"Style":3977,"md":3978,"àª¾àª°":3979,"fort":3980,"Ġmatch":3981,"IO":3982,"ĠMed":3983,"Ġza":3984,"å¥ĸ":3985,"umer":3986,"Ġàª®":3987,"Ġbes":3988,"ÙĪØ§":3989,"ither":3990,").ĊĊ":3991,"Ġfollowing":3992,"áº¥":3993,"agen":3994,"ĠÐ¸Ð·":3995,"Ġgover":3996,"Ġmi":3997,"à¸Ĺ":3998,"åĿ":3999,"Ġà¦Ĩ":4000,"Ġnos":4001,"×ĸ":4002,"à¤¶":4003,"ĠCar":4004,"ention":4005,"ĠSie":4006,"select":4007,"à§Ģ":4008,"à°²":4009,"Ġposition":4010,"ĉĉĉĉĉĉĉĉ":4011,"Ġing":4012,"opp":4013,"Ġmap":4014,"éĹ":4015,"ĠØ¹ÙĦÙī":4016,"\\\"":4017,"ĠåĮ":4018,".Drawing":4019,"Ð°ÑĪ":4020,"Ġawait":4021,"Ġshort":4022,"ename":4023,"una":4024,"ãĥ³":4025,"Ġà¤ķà¤°":4026,"Ġupdate":4027,"Ġ×ĵ":4028,"Ġlat":4029,"Ġvisit":4030,"icro":4031,"Õ¥Õ¬":4032,"à²µ":4033,"×Ļ×Ļ×":4034,"ĠIntern":4035,"Ġuit":4036,"ĠNot":4037,"Ġnil":4038,"Ġhal":4039,".Form":4040,"Ã§a":4041,"Ġà¤ķà¥Ģ":4042,"button":4043,"Ġtoday":4044,"Ġà¤ķà¥ĭ":4045,"Ĺäº¬èµĽè½¦":4046,"Ġeine":4047,"Ġsob":4048,"obile":4049,"\".":4050,".Add":4051,"à´¯":4052,"à¤¿à¤ķ":4053,".cl":4054,"raft":4055,"Ġmach":4056,"Ġcreat":4057,"ouch":4058,"plit":4059,"unk":4060,"(x":4061,"ê²":4062,"ĠAdd":4063,"amos":4064,"(st":4065,"ĠĠĊ":4066,"ĠÕ§":4067,"Ġìŀ":4068,"Ġsou":4069,"ĠØ§ÙĦØ¹":4070,"Ġdire":4071,"å±":4072,"Ġfut":4073,"','":4074,"ÑĢÐ¸":4075,"update":4076,"à§įà¦¯":4077,"format":4078,"çłģ":4079,"Ġbij":4080,"ê°Ģ":4081,"maz":4082,"uz":4083,"ĉint":4084,"clus":4085,"tre":4086,"æľ¬":4087,"anguage":4088,"ÑİÑĤ":4089,"iction":4090,"di":4091,"(R":4092,"æŃ":4093,"${":4094,"300":4095,"anks":4096,"ìľ":4097,"upport":4098,"Ġobj":4099,"eturn":4100,"ĠCan":4101,"ande":4102,"ðŁ":4103,"rect":4104,"ides":4105,"ÏĨ":4106,"ĠìĿ":4107,"json":4108,"Ġblog":4109,"ëĭĪ":4110,"Ġà¦ı":4111,"Ġ(Ċ":4112,"Ġworking":4113,"Î¸":4114,"aring":4115,"web":4116,"des":4117,"'re":4118,"Ã¨s":4119,"Ġnu":4120,"Ġdoor":4121,"Ġbased":4122,"ML":4123,"Ġlead":4124,"opyright":4125,"à²¤":4126,"Ġappe":4127,"Ġdon't":4128,"95":4129,"Ġlik":4130,"eters":4131,"yles":4132,"ji":4133,"Ġcomb":4134,"Ã©m":4135,"Ð½Ð¾ÑģÑĤ":4136,"Ġmaking":4137,"Ġocc":4138,"Handler":4139,"ĠGener":4140,"Ġze":4141,"ored":4142,"bol":4143,"conom":4144,"HT":4145,"47":4146,"ÙĪÙħ":4147,"ĠÐľ":4148,"Ġpossible":4149,"Ġfar":4150,"zo":4151,"ĠØ¯Ø±":4152,"ĠÕ´":4153,"æĶ":4154,"Ġactiv":4155,"ãĥ»":4156,"Ġkun":4157,"Ġmeet":4158,"ku":4159,"Collection":4160,"hel":4161,"_list":4162,"Ġsever":4163,"OP":4164,"Ġcourse":4165,"Ġcam":4166,"Ġdone":4167,"abil":4168,"Ġquality":4169,"ĠID":4170,"itive":4171,"https":4172,"áĥľ":4173,"Ġauch":4174,"!Ċ":4175,"Ġresearch":4176,"();":4177,"aur":4178,"(l":4179,"},":4180,"abor":4181,"Ġ/>Ċ":4182,"à´Ł":4183,"\"></":4184,"ĠInt":4185,"mente":4186,"cope":4187,".Text":4188,"path":4189,"Edit":4190,"Ġur":4191,"Ġyang":4192,"Stream":4193,"Ġaway":4194,"ÑĨÐ¸":4195,"rix":4196,"ATE":4197,"Ġalle":4198,"Ġay":4199,"-in":4200,"utes":4201,"table":4202,"js":4203,"Ã¤n":4204,"Ġmoment":4205,"Ġcell":4206,"Ġlight":4207,"Ġlabel":4208,"ĉĉĊ":4209,"Ġimple":4210,"default":4211,"ëı":4212,".,":4213,"SON":4214,"Ġsum":4215,"aba":4216,"46":4217,"Ġunderstand":4218,"Point":4219,"dis":4220,"ply":4221,"ĉf":4222,"Ġdiv":4223,"Ġeasy":4224,"ĠEr":4225,"Arg":4226,"mas":4227,"Ġvot":4228,"eren":4229,"Ġå½©ç¥ŀäºīéľ¸":4230,".find":4231,"Ġfood":4232,"Ġvari":4233,"Ġwel":4234,"ably":4235,"ÑĸÐ½":4236,"udio":4237,"Ġtimes":4238,"Url":4239,"Ġ[Ċ":4240,"Ġpast":4241,"Ġfour":4242,"vironment":4243,"Â«":4244,"Fl":4245,"Ġmind":4246,"lation":4247,"ury":4248,".âĢĿĊĊ":4249,"ades":4250,"Ġalong":4251,"Ġbegin":4252,"Ġà´ķ":4253,"Ġà¤¯":4254,"ÐµÑģÑĤ":4255,"Ġsource":4256,"ograph":4257,"_L":4258,"ÅĪ":4259,"Ð°Ð´":4260,"email":4261,"Ġod":4262,"á»ģ":4263,"obj":4264,"Ġseem":4265,"Ġens":4266,"static":4267,"Ġthrow":4268,"âĢ¢":4269,"response":4270,"Ġenjoy":4271,"thers":4272,"ĠMay":4273,"ëĵ":4274,"Ġit's":4275,"Ġhouse":4276,".sh":4277,"ĠÎµ":4278,"Ġalready":4279,"Ø±Ø§":4280,"ĠØĮ":4281,"Vis":4282,"ê¸°":4283,"aat":4284,"args":4285,"ä¸Ĭ":4286,"Ñĳ":4287,"ients":4288,"ĠàªĽ":4289,"uns":4290,"Ġà¤¸à¥ĩ":4291,"Ab":4292,"ĠUser":4293,"\",\"":4294,"ibility":4295,"ĠWhen":4296,"Ġiz":4297,"å¯":4298,"elo":4299,"áĥĲáĥĵ":4300,"net":4301,"è´¹":4302,"ĠÕ¸":4303,"icial":4304,"Ġsoftware":4305,"ĠÐĳ":4306,"Ġside":4307,"/c":4308,"ĠLog":4309,"Ġexist":4310,"å¹³åı°":4311,"ĠPol":4312,"âĢĻve":4313,"TR":4314,"Ġdeb":4315,"avig":4316,"à§įà¦°":4317,".Windows":4318,"Pre":4319,"};ĊĊ":4320,"Ġcover":4321,"Ġproperty":4322,"group":4323,"ases":4324,"Ġten":4325,"à²Ĺ":4326,"Ġwhe":4327,"åĵģ":4328,"Å£":4329,"ivo":4330,"ponents":4331,"Ð½ÑĭÐµ":4332,"ÐµÐ²":4333,"ĠÂ»":4334,"Ġgiven":4335,"ral":4336,"Menu":4337,"Ġimpro":4338,"ĠEm":4339,"Ġdownload":4340,"side":4341,"Select":4342,"iety":4343,"ãģ§":4344,"Ġwidth":4345,"Ã¨re":4346,"æĭ":4347,"Ġprotected":4348,"ĠÐĿ":4349,"Ġemploy":4350,".class":4351,"++)":4352,"Õ¡ÖĢÕ":4353,"Ð½Ð¾Ð³Ð¾":4354,"Ġblock":4355,"ley":4356,"Ġpract":4357,"Ġcalled":4358,"á»Ļ":4359,"Ġtre":4360,"Ġmer":4361,"×¢×¨":4362,"atform":4363,"Ġkw":4364,"ÐĶ":4365,"(&":4366,"ured":4367,"IR":4368,"âĢ¦ĊĊ":4369,"uh":4370,"Ġ×Ľ":4371,"Ġagainst":4372,"åħį":4373,"ÐºÑĥ":4374,"_RE":4375,"Ġresults":4376,"åĲĪ":4377,"àµĩ":4378,"jo":4379,"ĠChrist":4380,"ĠBo":4381,"nes":4382,"Check":4383,"àµĭ":4384,"à¥įà¤¤":4385,"ĠDE":4386,"Ġperfect":4387,"78":4388,"ports":4389,"Ġredu":4390,"_H":4391,"Ġáĥł":4392,"Ð½Ð¾Ð¹":4393,"×ķ×¨":4394,"á»Ľ":4395,"Ġcur":4396,"pose":4397,"æ°":4398,"sol":4399,"ÑĤÑĭ":4400,"ë§":4401,"asi":4402,"ĠÎ¼":4403,"Ġprim":4404,"ĠDate":4405,"à¸ª":4406,"Per":4407,"ohn":4408,"Ġra":4409,"Ġlarge":4410,"';ĊĊ":4411,"Ġà¦®":4412,"portun":4413,"Ġneeds":4414,"à¨¾":4415,"_IN":4416,"ıà¤ķ":4417,"à®Ł":4418,"Ġ×Ļ":4419,"Ġbenef":4420,"Token":4421,"El":4422,"Ġny":4423,"Ġbi":4424,"ëĤ":4425,"Ð¢":4426,"ĠàªĨ":4427,"Ġfloat":4428,"ney":4429,"sel":4430,"ges":4431,"Ġpag":4432,"CC":4433,"ĠØ¨Ùĩ":4434,"Ġthing":4435,"Ġwhy":4436,"Õ«Õ":4437,"ĠMin":4438,".N":4439,"Ġdin":4440,"aim":4441,"ĠĠĠĠĠĠĠĠĠĠĠĠĠĠ":4442,"iff":4443,"æİ":4444,"Ġindividual":4445,"unch":4446,"åĲĹ":4447,"ottom":4448,"Ġwin":4449,"-w":4450,"ĠĠĠĠĠĠĠĠĠĠĠĠĠĠĠĠĠĠĠĠĠ":4451,"à¦¾à¦¨":4452,"ĠCal":4453,"Ġcertain":4454,"Read":4455,"à®©":4456,"Ġeste":4457,"à±Ģ":4458,"Start":4459,"ĉm":4460,"size":4461,"æł":4462,".size":4463,",ĊĊ":4464,"Ġlow":4465,"Ġcamp":4466,"Ġà¹Ģà¸":4467,"Ġconc":4468,"à·Ĭ":4469,"éĿ":4470,"Ġelect":4471,"èī²":4472,"à«įàª¯":4473,"Ðľ":4474,"ĠNe":4475,"Ġrespons":4476,"Ġinte":4477,"IV":4478,"ĠView":4479,"Ð½Ñı":4480,"elling":4481,"kan":4482,"Ġfund":4483,"Ġlearn":4484,"Ġalg":4485,".y":4486,"Ġdies":4487,"à²ķ":4488,"Ġàª¤":4489,"ony":4490,"incip":4491,"izer":4492,"Ġvia":4493,"à¹Į":4494,"Ġstatus":4495,"isi":4496,"ÑĥÑĩ":4497,"×ķ×Ł":4498,"Ġenerg":4499,"sl":4500,"Ġstudents":4501,"ube":4502,"mission":4503,"position":4504,"Õ¨":4505,"Ġsort":4506,"ements":4507,"oon":4508,"iro":4509,"ÐµÐ½Ð¸Ðµ":4510,"á»ķ":4511,"ging":4512,">(":4513,"Ð¼Ð°":4514,"Ã¼n":4515,"};Ċ":4516,"Us":4517,"Ġut":4518,".org":4519,"elijk":4520,"pression":4521,"where":4522,"cy":4523,"ples":4524,"Ġthought":4525,"Ġtrad":4526,"Ġamount":4527,"Ġneg":4528,"Ġvalid":4529,"left":4530,"äºĨ":4531,"Product":4532,"Ġàªľ":4533,"ĠBy":4534,"®à¯į":4535,"imo":4536,"Ġsrc":4537,"mm":4538,"ete":4539,"UM":4540,"dr":4541,"Builder":4542,"ternal":4543,"gy":4544,"Ġhat":4545,"artment":4546,"ĠØ§ÙĨ":4547,"cover":4548,"æŀ":4549,"ifier":4550,".Forms":4551,"ival":4552,"_V":4553,"Ð¾Ñĩ":4554,"ĠEst":4555,"imum":4556,"ĠSer":4557,"ctor":4558,"-h":4559,"uis":4560,"Ġlive":4561,"Ġ}čĊčĊ":4562,"ÓĻÑĢ":4563,"ĠText":4564,"Ïİ":4565,"Ġhaving":4566,"uments":4567,"ĠčĊ":4568,"ĠThat":4569,"Ġinc":4570,"num":4571,"âĢĻm":4572,"Ġook":4573,"())Ċ":4574,"Ġesc":4575,"title":4576,"ãĢĢãĢĢ":4577,"sa":4578,"La":4579,"time":4580,"Ġsitu":4581,"lish":4582,"Ġland":4583,"Ġtool":4584,"CE":4585,"kl":4586,"ĠÐ´Ð°":4587,".html":4588,"Ġdisplay":4589,"Ġsingle":4590,"ĠSte":4591,"ĠÚ¯":4592,"ĠÚ©ÛĮ":4593,"ÙĬØ¯":4594,"Ġtalk":4595,"Ġnode":4596,"ĠDie":4597,"ication":4598,"Ä°":4599,"ĠÐ´Ð»Ñı":4600,"Ð³Ð°":4601,"ella":4602,"ema":4603,"Ñĺ":4604,"Ġ;":4605,"Post":4606,"Ġà¤ªà¥įà¤°":4607,"ĠÕ¥":4608,"Ġuntil":4609,"cel":4610,"aga":4611,"atter":4612,"mes":4613,"ĠWhat":4614,"uer":4615,"uccess":4616,"_pro":4617,"_e":4618,"uel":4619,"Ð¸Ðº":4620,"59":4621,"Bar":4622,"ĉvar":4623,"Ġant":4624,"68":4625,"amento":4626,"vi":4627,"ç§":4628,"Ġich":4629,"ÑĥÑģ":4630,"Ġlen":4631,"Ġà¦¨":4632,"ĠMore":4633,"Ref":4634,"58":4635,"])":4636,"react":4637,"Ġkon":4638,"uts":4639,"]);Ċ":4640,"ĠàªĽà«ĩ":4641,"ĠCo":4642,"Ðĺ":4643,"ungen":4644,"ops":4645,"////////////////":4646,"Ðł":4647,"IF":4648,"aint":4649,"à¥ģà¤":4650,"ĠPer":4651,"arning":4652,"down":4653,"ÑĢÐ°Ð²":4654,"ione":4655,"outh":4656,"àµįà´°":4657,"Ġmor":4658,"ĠPre":4659,"Ġfunc":4660,"Ġgovern":4661,"ĠNone":4662,"ĠÐŀ":4663,"Ġcond":4664,"Ġtreat":4665,"Ġurl":4666,"Ġà´¸":4667,"Comp":4668,"Ġeduc":4669,"ĠÚĨ":4670,"Ġà¦¹":4671,"ulation":4672,"Ġpubl":4673,"ĠTest":4674,"Ġgro":4675,"âĢĺ":4676,"ĠObject":4677,"ĠJe":4678,"Ġheight":4679,"Ã¡r":4680,"body":4681,"Http":4682,".value":4683,"âĢŀ":4684,"Ġcult":4685,"ĠUp":4686,"Ġclean":4687,"lege":4688,"42":4689,"formation":4690,"}čĊčĊ":4691,"ince":4692,"Ã§Ãµes":4693,"Ġmis":4694,"à¦¸":4695,"æľº":4696,"ìĸ":4697,"Ġoch":4698,"Ø¹Ø¯":4699,"Ġload":4700,"Call":4701,"ĠÑĢÐ°Ð·":4702,"Ġpurch":4703,"áĥĲáĥķ":4704,"Ġsimple":4705,"ĠÑģÐ²":4706,"ĊĊĊĊ":4707,"Ġtoget":4708,"Link":4709,"True":4710,"anda":4711,"\");čĊ":4712,"ocket":4713,"ÅĻ":4714,"=>":4715,"á»£":4716,"Ġtogether":4717,"oke":4718,"à´®":4719,"âĢĻll":4720,"Mod":4721,"atal":4722,"Method":4723,"lin":4724,"Ġnie":4725,"ipe":4726,"ourn":4727,"ĠØµ":4728,"(r":4729,"Ġonce":4730,"ë°":4731,"Ġitems":4732,"Ġoutput":4733,"ju":4734,"field":4735,"Ġselect":4736,"Ġwat":4737,"itter":4738,"ÐµÑĩ":4739,"ìĿĢ":4740,".spring":4741,"etch":4742,"aged":4743,"ĠAss":4744,"198":4745,"áĥĲáĥłáĥ":4746,"Activity":4747,"Ġmeans":4748,"åħįè´¹":4749,"df":4750,"AY":4751,"à°ķ":4752,"Ġ};Ċ":4753,"ĠĠĠĠĠĠĠĠĠĠĠĠĠĠĠĠĠĠĠĠĠĠĠĠĠĠĠĠĠĠĠĠĠĠĠĠĠĠĠ":4754,"uly":4755,"Ġoriginal":4756,"ĠåĮĹäº¬èµĽè½¦":4757,"Ġdit":4758,"Ġ})Ċ":4759,"arl":4760,"orr":4761,"oom":4762,"Ġok":4763,"End":4764,"ĥ½":4765,"Ġcard":4766,"ilt":4767,"Ġàªħ":4768,"ANT":4769,"Ġcir":4770,"Ġactually":4771,"ÑĥÑİ":4772,"Ð½ÑĭÐ¹":4773,"Ġmean":4774,"áĥ¢":4775,"ker":4776,"ĠØ£ÙĨ":4777,"si":4778,"rij":4779,"Ġbeaut":4780,"à¤¾à¤¤":4781,"çĪ":4782,"Ġoften":4783,"Ġeither":4784,"åı·":4785,"Õ¸ÖĤÕ©":4786,"Ġmakes":4787,"uring":4788,"ĠÃº":4789,"Ġbad":4790,"Ġtod":4791,"Ġproblem":4792,"Ġcomput":4793,"IZ":4794,"ounds":4795,"iga":4796,"namespace":4797,"mun":4798,"Null":4799,"ĠÐ¸Ð½":4800,"Ġhom":4801,"ï¼Ł":4802,"Ùĭ":4803,"Ø±ÙĪ":4804,"Ġsupp":4805,"eller":4806,"vider":4807,"áĥĶáĥľ":4808,"ĠGod":4809,"çīĩ":4810,"Ġgetting":4811,"400":4812,"ĠÐ¢":4813,"annot":4814,"àª¨à«ĩ":4815,"Īĺ":4816,"erd":4817,"Ġdam":4818,"(data":4819,"ĠAm":4820,"ÑĢÑĭ":4821,"script":4822,"Source":4823,"Ġvalues":4824,"ĠArray":4825,"framework":4826,"What":4827,"Ġdeal":4828,"ram":4829,"ÓĻÐ°":4830,"ë¥¼":4831,"Ġcommunity":4832,"ĠData":4833,".name":4834,"Ð¸Ñħ":4835,"Change":4836,"Ġconnect":4837,"Ġcred":4838,"æµ":4839,"ators":4840,"parse":4841,"Ġmass":4842,"Ġplease":4843,"Ġsobre":4844,"Ġamb":4845,"Ġbon":4846,"mod":4847,"ÐµÐ±":4848,"Ġlater":4849,"ĠMon":4850,"à´¸":4851,"Ġgeb":4852,"Ġquick":4853,"Ġao":4854,"æ³¨":4855,"Ġnight":4856,"Ġspecific":4857,"Ġtal":4858,"point":4859,"ĠÕ¯":4860,"Order":4861,"Ġever":4862,"ĠÑĩÑĤÐ¾":4863,"../../":4864,"ìĦľ":4865,"params":4866,"TH":4867,"ãģĻ":4868,"Ġstory":4869,"Factory":4870,"Ġinitial":4871,"iste":4872,"ĠáĥĵáĥĲ":4873,"cret":4874,"ÐºÐ¾":4875,"áĥĲáĥ¡":4876,"Ġfeatures":4877,"Ġdetails":4878,"Ġnatur":4879,"ĠÐ¿Ð¾Ð´":4880,"Ġà¤ĩ":4881,"Base":4882,"æĸĩ":4883,"Ġparticip":4884,".push":4885,"ĠYour":4886,"ÑģÐ¿":4887,"Ġele":4888,"Ġìł":4889,"«ĺ":4890,"ĠÚ©ÛĴ":4891,"Ġauthor":4892,"äºļ":4893,"agn":4894,"Ġbelow":4895,"ĠâĢŀ":4896,"Ġstore":4897,")(":4898,"ĠWeb":4899,"ural":4900,"Ġcontinue":4901,"ÐµÐ½ÑĤ":4902,"parent":4903,"ÑĥÐ¿":4904,"abe":4905,"ĠPart":4906,"Æ¡":4907,"...Ċ":4908,"anto":4909,"Ġà¤Ķ":4910,"Ø§Ø³":4911,"service":4912,"Õ¡Õ´":4913,"àª¸":4914,".php":4915,"Sp":4916,"ĠOR":4917,"Ġspace":4918,"Ġseveral":4919,"<String":4920,"Ġprob":4921,"Ġrecomm":4922,"ĠUniversity":4923,"Ġà´µ":4924,"yo":4925,"Ġáĥĺ":4926,"Ġemp":4927,"Ġquestion":4928,"Ġà²®":4929,"Ġont":4930,"Ġcountry":4931,"atabase":4932,"Back":4933,"Ġinstance":4934,"source":4935,"ĠÙĦÙĦ":4936,"imate":4937,"ami":4938,"change":4939,"pond":4940,"äº§":4941,"remove":4942,"used":4943,"áĥĿáĥĽ":4944,"Acc":4945,"std":4946,"Ġcook":4947,"éĩį":4948,"å¿«ä¸ī":4949,"Ġface":4950,"Ġenough":4951,"Ġsend":4952,"anch":4953,"Ġ),Ċ":4954,"Update":4955,"ĠGl":4956,"æ¬":4957,"Ġà°ª":4958,"oved":4959,"ë¦¬":4960,"Ġphot":4961,"Ġpur":4962,"(_":4963,"ĠÐ¿ÑĢÐ¾":4964,"aging":4965,"Ġargs":4966,".swing":4967,"fa":4968,"ÎµÎ¹":4969,"Repository":4970,"à¤¿à¤¤":4971,"ÓĻÐ½":4972,"áŁĴ":4973,"å®ĺç½ĳ":4974,"_ST":4975,"ĠÃ©t":4976,"ila":4977,"éģ":4978,"Ġuint":4979,"ļáĥĺ":4980,"cribe":4981,"ording":4982,"æĸ¹":4983,"à¤£":4984,"ĠÔ":4985,"Ġclos":4986,"41":4987,"×ĲÖ·":4988,"Ġpress":4989,"oper":4990,"color":4991,"Ġà²¸":4992,"ĠGu":4993,"Ġexample":4994,"ÐµÐ¿":4995,"èĩ":4996,"(j":4997,"uri":4998,"Ġà¥":4999,"Ġmembers":5000,"Ġalt":5001,"iday":5002,"Ġsays":5003,"uint":5004,".J":5005,"ĠThese":5006,"56":5007,"Ġbal":5008,"Ġber":5009,"Ġà¦¦":5010,"ĠOff":5011,"Ġstudy":5012,"Ġgar":5013,"Ġhost":5014,"dated":5015,"aking":5016,"Ġ<=":5017,"Ġextra":5018,"ÐµÑĤÑģÑı":5019,"ĠáĢ":5020,"Ġheb":5021,"Ġfinanc":5022,"Ġach":5023,"Ġparticular":5024,"Ġbecome":5025,"çĻ":5026,"idden":5027,"stit":5028,"Ġsind":5029,"Ġcity":5030,"/s":5031,"à®³":5032,"Ġplayer":5033,"Ġà¤Ķà¤°":5034,"Ġmajor":5035,"Ġothers":5036,"mark":5037,"!--":5038,"active":5039,".springframework":5040,"apping":5041,"ãģ¾":5042,"Ġà®ª":5043,"_size":5044,"One":5045,"Ð¸ÑģÑĤ":5046,"_de":5047,"Ġgames":5048,"Ġmedia":5049,"Ġsens":5050,"ilar":5051,"ball":5052,"ĠGe":5053,"ĠÛĮ":5054,"æľŁ":5055,"Ġespecial":5056,"Ġbutton":5057,"Ð¸Ð»Ð¸":5058,"Ġàªµ":5059,"Ġhold":5060,"ĠEuro":5061,"Ø±ÛĮ":5062,"\"))":5063,"Ġ>=":5064,"Ġ×ł":5065,"ising":5066,"Ġwrite":5067,"kn":5068,"Ġnecess":5069,"ĠMark":5070,"Ġà¤ļ":5071,"ison":5072,"Ġyet":5073,"Ġprec":5074,"TE":5075,"Mode":5076,"iento":5077,"Ġkl":5078,"model":5079,"98":5080,"iri":5081,"UP":5082,"ged":5083,"ç¾İ":5084,"57":5085,"Ġpolit":5086,"âĤ¬":5087,"ustry":5088,"_to":5089,"Ġlib":5090,"ĠØ·":5091,"Ġstay":5092,"Ġsave":5093,"aya":5094,"ental":5095,"Ġ'./":5096,"height":5097,"URL":5098,"Ġautom":5099,"Ġlocation":5100,"Ġfavor":5101,"Ġnews":5102,"Ġpers":5103,"Create":5104,"AME":5105,"Õ¸ÖĤÕ©Õµ":5106,"ĉelse":5107,"ĠOne":5108,"Ġfont":5109,"à¹ĩ":5110,"Ġnga":5111,"pu":5112,"Ġteach":5113,"Ġthrows":5114,"gt":5115,"edd":5116,"ĠÐĶ":5117,"Ġsche":5118,"ester":5119,"Î¹Îº":5120,"NS":5121,"à·Ĵ":5122,"Ġhours":5123,"Ġcomes":5124,"anu":5125,"Ġoder":5126,"Ġcomplet":5127,"inding":5128,"zer":5129,"gu":5130,"à¸Ħ":5131,"Ġê°":5132,".put":5133,"Ġà¤ªà¤°":5134,"ĠTHE":5135,"atu":5136,"ministr":5137,"à´¿à´²":5138,"Ġsav":5139,"Ġ['":5140,"Ġmiss":5141,"Ġwomen":5142,"Ġshare":5143,"Off":5144,"åħ¨":5145,"áĥ®":5146,"ĠÃ¾":5147,"Ġpie":5148,"osp":5149,"Ġcopy":5150,"Ġabove":5151,"################":5152,"Ġleast":5153,"Î½Î±":5154,"à²³":5155,"Width":5156,"Ġlarg":5157,".on":5158,"à«įàª°":5159,"ORT":5160,"Ã©es":5161,".con":5162,"ecut":5163,"ĠVal":5164,"Ġnam":5165,"iful":5166,"à¸¸":5167,"Ġfriend":5168,"])Ċ":5169,"97":5170,"ĠÐ±Ð¾Ð»":5171,"hand":5172,"PL":5173,"encia":5174,"OK":5175,"quired":5176,"à°¾à°°":5177,"Ġetc":5178,"ë³":5179,"inate":5180,"Ġprovided":5181,"ä¿¡":5182,"à´¤àµįà´¤":5183,"Ġfocus":5184,"å¦":5185,"æĥ":5186,"ĠAct":5187,"Ġrepresent":5188,"Tem":5189,"_R":5190,"zt":5191,"Ġdue":5192,"antes":5193,"([":5194,"à¤¾à¤®":5195,"YPE":5196,"ĠÐ¿ÐµÑĢ":5197,"áŁĴáŀ":5198,"ĠÐł":5199,"Ġapplication":5200,"ESS":5201,"AX":5202,"fully":5203,"ola":5204,"ãģ¯":5205,"ensive":5206,"Ġreason":5207,"elen":5208,"endif":5209,"ipo":5210,"ĠComp":5211,".model":5212,"igr":5213,"ÒŃ":5214,"150":5215,"ĉĉĉĉĉĉĉ":5216,"Ġseason":5217,"Ġbre":5218,"-n":5219,"DB":5220,"à¤¿à¤²":5221,"ogn":5222,"cast":5223,"Ðĳ":5224,"Ġrow":5225,"á»Ŀ":5226,"pload":5227,"icles":5228,"Ġwalk":5229,"Ġpick":5230,"Ġ...ĊĊ":5231,".text":5232,"Ã¤t":5233,"Ġà´¨":5234,"å½±":5235,"start":5236,"ingen":5237,"Ġwait":5238,"ĠNov":5239,"yt":5240,"Ġpou":5241,"Ġsont":5242,"åĮº":5243,"ĠDec":5244,"argin":5245,"ìĽ":5246,"ç«Ļ":5247,"á¹":5248,"anger":5249,"ĠØ§ÙĦØ³":5250,"Ġacross":5251,"ãĢį":5252,"Ã³n":5253,"ĠØ§ÙĦØŃ":5254,"ires":5255,"Ġáĥ¨":5256,"ï½":5257,"Valid":5258,"Ġcompan":5259,"product":5260,"ÑıÑĤ":5261,"ĠFile":5262,"Ġclose":5263,"inary":5264,"Ġperiod":5265,"Command":5266,"________":5267,"ĠUs":5268,"Ġdevelopment":5269,"ÑĥÐ½":5270,"Ġauto":5271,"/**Ċ":5272,"Ûķ":5273,"Ġhu":5274,"Ġmove":5275,"eft":5276,"Ġfuture":5277,"à´µ":5278,"Ġtamb":5279,"ãģ«":5280,"Ġwriting":5281,"server":5282,"just":5283,"àµįà´Ł":5284,"Ġwerden":5285,"à¸°":5286,"ĠForm":5287,"Ġago":5288,"ĠÙħØ¹":5289,"Ġtrack":5290,"ÙħÙĦ":5291,"Ġclick":5292,"pend":5293,"state":5294,"istance":5295,"Ġtask":5296,"Ġoffers":5297,"ĠØ§Ø³Øª":5298,"How":5299,"Module":5300,"Ġsie":5301,"à«ĭàª":5302,"åĴ":5303,"Ġdating":5304,"âĢĿ,":5305,"Ġdoing":5306,"ĠOF":5307,"Hel":5308,"most":5309,"Âł":5310,"Ġopportun":5311,"åħ¬":5312,"Const":5313,"éĩĳ":5314,"Ġinn":5315,"struction":5316,"Ġoption":5317,"Ġhandle":5318,"é«ĺ":5319,"43":5320,"iddle":5321,"Ġprincip":5322,"wards":5323,"structor":5324,"Ġgir":5325,"Ġ×Ĳ×Ļ×":5326,"adio":5327,"ÛĶ":5328,"ĠIl":5329,"ãģ¨":5330,"req":5331,"Ġev":5332,"lear":5333,"Ġá»į":5334,"iple":5335,"rea":5336,"Ġpal":5337,"Õ¾":5338,"ĠOur":5339,"Ġbien":5340,"anz":5341,"page":5342,"à±Ĩ":5343,"ĮĢ":5344,"AV":5345,"Cell":5346,"à±įà°°":5347,"ÃŃt":5348,"à®²":5349,"ÚĨ":5350,"Grid":5351,"Address":5352,"åĳ":5353,"<<":5354,"Ġcommon":5355,"Ġpack":5356,"Ġsym":5357,"ĠFree":5358,"Ġquestions":5359,"Options":5360,"Default":5361,"Ġ});ĊĊ":5362,"ĠÑĸ":5363,"Ġclear":5364,"ixed":5365,"Â·":5366,"ijd":5367,"iki":5368,"Ġah":5369,"Ð°Ð±":5370,"Ġcreated":5371,"Ġzo":5372,"iate":5373,"Ġnp":5374,"Ġcomment":5375,"Ùİ":5376,"Ġinfo":5377,"Ġtyp":5378,"urther":5379,"nh":5380,"Ġdiscuss":5381,"ĠÑģÐ¿":5382,"Ġmusic":5383,"áºŃ":5384,"Ġusers":5385,"Ġmga":5386,"ĠÐ²Ñģ":5387,"ĠState":5388,"ĠÑĨ":5389,"_v":5390,".js":5391,"ERR":5392,"leep":5393,"Ġpict":5394,"iten":5395,"Ġhuman":5396,"ĠBar":5397,"null":5398,"adding":5399,"unit":5400,"Ġsubject":5401,"Ġnetwork":5402,"Ġà´®":5403,"Ġsignific":5404,"ĠRead":5405,"lim":5406,"ÑĢÐ¾":5407,"Attribute":5408,"reet":5409,"åģ":5410,"lu":5411,"aha":5412,"ecute":5413,"Ð°ÑģÑĤ":5414,"Title":5415,"ï»":5416,"OV":5417,"Ġdeterm":5418,"agment":5419,"count":5420,"ĠØ¨Ø§":5421,"Child":5422,"base":5423,"Ġstarted":5424,"Ġmaint":5425,"êµ":5426,"Ġren":5427,"\");ĊĊ":5428,"has":5429,"Ġrole":5430,"ĠArt":5431,"Ġtw":5432,"Ġà¦¤":5433,"header":5434,"edia":5435,"ĠIS":5436,"Integer":5437,"Ġminutes":5438,"_g":5439,"à¹Ħ":5440,"æı":5441,"ART":5442,"Ġtele":5443,"My":5444,"ÑĥÐ¼":5445,"valu":5446,"hen":5447,"Ġbil":5448,"ele":5449,"asure":5450,"_set":5451,"Ġcompet":5452,"Ġpred":5453,"aux":5454,"curity":5455,"ÐµÑĪ":5456,"áĥĲáĥł":5457,"Ã¥r":5458,"_G":5459,"-se":5460,"à§įà¦¤":5461,"67":5462,"center":5463,"Block":5464,"à®ķ":5465,"Ġglobal":5466,"Ġnh":5467,"imple":5468,"ĠÃ¼ber":5469,"Ġeconom":5470,"ĠÃŃ":5471,"àµįà´±":5472,"ĠPublic":5473,"Ġà¤¶":5474,"ÙĬÙĦ":5475,"è¦":5476,"ĠI'm":5477,"itted":5478,"PI":5479,"ÄĲ":5480,"ÑħÐ¾Ð´":5481,"Panel":5482,"à´³":5483,"Ġtemp":5484,"Ġtell":5485,"ĠÐ¿Ð¾Ð»":5486,"oman":5487,"root":5488,"});Ċ":5489,"Ġ×Ĵ":5490,"áŀ¶":5491,"Ġà¤¹à¥ĭ":5492,"_W":5493,"loor":5494,"Ġthough":5495,"atie":5496,"Icon":5497,"Ġhope":5498,"ignment":5499,"itions":5500,"Ġtout":5501,"Ġapplic":5502,"Ġmonths":5503,"Ġcy":5504,"etr":5505,"Ġbox":5506,"Me":5507,"inder":5508,"itar":5509,"åķ":5510,"ĠPost":5511,"hal":5512,"Row":5513,"Load":5514,"ĠTrans":5515,"Ġassoci":5516,"Ġlength":5517,"amm":5518,"Ġeverything":5519,".v":5520,"pli":5521,"idades":5522,"Ġrelations":5523,"author":5524,"ãĤ¹":5525,"show":5526,"ĠEs":5527,"(function":5528,"Ġà°ķ":5529,"quals":5530,"ĉĠĠĠ":5531,"Ġstrong":5532,"Ġcomplete":5533,"oma":5534,"ĠDet":5535,"Ġbei":5536,"ìĤ¬":5537,"icas":5538,"olo":5539,"ĉcase":5540,"ĠestÃ¡":5541,"Ġknown":5542,"æĪĲ":5543,"ìĿ¸":5544,"Ġges":5545,"éĽ":5546,"Ġnach":5547,"QL":5548,"à´²":5549,"æ´²":5550,"ĠHowever":5551,"Ð´Ð¸":5552,"ĠUnited":5553,"Ġ×©×ľ":5554,"ises":5555,"lig":5556,"åľ°":5557,"_path":5558,"(C":5559,"hing":5560,"illa":5561,"à¤§":5562,"Fe":5563,"Ġobt":5564,"IB":5565,"Ġà²ķ":5566,"Ġfront":5567,"Ġ},":5568,"ĠÏĦÎ·":5569,"isch":5570,"Ġpoints":5571,"eni":5572,"child":5573,"ï»¿":5574,"eds":5575,"Ø±Ø¯":5576,"Ġtax":5577,"oe":5578,"Ö¸":5579,"ĠCor":5580,"ving":5581,"ĠAg":5582,"Ġ×ĸ":5583,"çĲĨ":5584,"Ġasync":5585,"Ġfilm":5586,"(name":5587,"Ġwhether":5588,"Ð°Ð»Ð°":5589,"Ġple":5590,"ische":5591,"Ø±Ø¨":5592,"OW":5593,"Ġseries":5594,"urg":5595,".Size":5596,"Ġdeg":5597,"ãģŁ":5598,"FA":5599,"Ġmaar":5600,"ĠSee":5601,"(){Ċ":5602,"Ġinf":5603,"Ġheart":5604,"ĠInter":5605,"printf":5606,"ĠRE":5607,"ett":5608,"Ġdir":5609,"Ã¡t":5610,"sy":5611,"Ġyoung":5612,"à¸«":5613,"asy":5614,"çĶ¨":5615,"ffect":5616,"Ġfall":5617,"Ġrespect":5618,"typ":5619,"astic":5620,"Ġwatch":5621,"Stack":5622,"ibrary":5623,"Ġbring":5624,"æ³ķ":5625,"Container":5626,"control":5627,"à¯įà®ª":5628,"usiness":5629,"Ġàª¹":5630,"×ķ×ľ":5631,"There":5632,"æĢİ":5633,"Ġ*/ĊĊ":5634,"sm":5635,"Ġdb":5636,"ìĭľ":5637,"iva":5638,"ÑĹ":5639,"ÙĩÙħ":5640,"ĠStr":5641,"urt":5642,"asa":5643,"à´£":5644,"Õ¡Õ¿":5645,"ĠClass":5646,"Position":5647,"ìĬ¤":5648,"plied":5649,"íķ´":5650,"entes":5651,"func":5652,"Ġdar":5653,"ìĥ":5654,"Ġchoose":5655,"CL":5656,"Ġinstall":5657,"Ġeu":5658,"Ġhappen":5659,"Õ¸ÖĤÕ¶":5660,"Ġfast":5661,"ãĥĪ":5662,".čĊ":5663,"Ġfriends":5664,"áº¯":5665,"Ġstop":5666,"Ġinvol":5667,"æ¯":5668,"uma":5669,"ëł":5670,"event":5671,"Ġà¥¤":5672,"àªª":5673,"urance":5674,"Ã©c":5675,"Equal":5676,"á»§":5677,"Ġhistory":5678,"á»±":5679,"Serv":5680,"Part":5681,"year":5682,"Ġhor":5683,"TO":5684,"ĠÓ©":5685,"ĠCity":5686,"Utils":5687,"à³ĩ":5688,"é¡":5689,"Î¹Î±":5690,"à¦ª":5691,"Empty":5692,"Ġsomeone":5693,"ĠGeneral":5694,"197":5695,"à²¡":5696,"á»ĥ":5697,"ynam":5698,":čĊ":5699,"Ġwie":5700,"Ġjson":5701,"Num":5702,"Ġquery":5703,"æĹł":5704,"Ð¾Ð²Ð°Ð½":5705,"ugin":5706,"iente":5707,"ĠDep":5708,"èĤ":5709,"ATION":5710,"ãģ¦":5711,"/m":5712,"%%":5713,"Ġphone":5714,"ODE":5715,"Ġpet":5716,"anged":5717,"acebook":5718,"çĶµ":5719,"asing":5720,"ledge":5721,"Buffer":5722,"auth":5723,"_ex":5724,"ufact":5725,"ĠØ²":5726,"Ġanim":5727,"åī":5728,"è¾":5729,"à¦¼":5730,":\"":5731,"Ġinfl":5732,"Ġpopular":5733,"Ġwindow":5734,"Ġindustry":5735,"Ġbtn":5736,"Header":5737,"\";ĊĊ":5738,"æ²":5739,"Char":5740,"à³įà²°":5741,"àµįà´¯":5742,"atrix":5743,"Ġage":5744,"ç²":5745,"Ġunique":5746,"Ġenter":5747,"ustomer":5748,"Ġmillion":5749,"ĠÑĤÐ°Ðº":5750,"ocol":5751,"Ġkh":5752,"à¤ķà¥ĭ":5753,"//Ċ//":5754,"à±ĩà°":5755,"ombre":5756,"(),Ċ":5757,"soft":5758,"69":5759,"à¤¿à¤¨":5760,"ised":5761,"Ä§":5762,"à¦Ł":5763,"admin":5764,"ĠAmerican":5765,"Ø¢":5766,"anta":5767,"Ġadded":5768,"Ġfit":5769,"unn":5770,"verage":5771,"ÐµÑĢÐ°":5772,"utions":5773,"Ġvor":5774,"ĠAng":5775,"Ġstrateg":5776,"ĠÖ":5777,"ÙĬØ§":5778,"è§Ĥ":5779,"256":5780,"ky":5781,".annot":5782,"Dialog":5783,"ãģª":5784,"het":5785,"Ġsil":5786,"Ġarticle":5787,"asse":5788,"info":5789,"ĠCr":5790,"Ð³Ð¾":5791,"ipping":5792,"undle":5793,"Ġwir":5794,"ĠÐ¼Ð¾Ð¶":5795,"egin":5796,"Ġà°µ":5797,"ĠÐĺ":5798,"à¤²à¥ĩ":5799,"ĠGoogle":5800,"Ġcollection":5801,"ĠCON":5802,"åĽ¾":5803,"current":5804,"options":5805,"Ġot":5806,"Ġë°":5807,"So":5808,"Ġuk":5809,"Ã³r":5810,"ĠÃ§":5811,"entity":5812,"uper":5813,"à¶±":5814,"part":5815,"ttps":5816,"Height":5817,"local":5818,"aten":5819,"å°ı":5820,"Ġà®ķ":5821,"Dr":5822,"py":5823,"Ġvirt":5824,"eme":5825,"ĠÑģÐ»":5826,"ëıĦ":5827,"ysis":5828,"ued":5829,"''":5830,"Ġcame":5831,"åĿĢ":5832,"<T":5833,"Ä«":5834,"ìĺ":5835,"Ġà¦ħ":5836,"Ġih":5837,"outer":5838,"Ġyn":5839,"Ġfig":5840,"à²¿à²¦":5841,"cal":5842,"Ġexperien":5843,"Ġ×§":5844,"iert":5845,"Ġexam":5846,"Ġphys":5847,"uj":5848,"Ø§Ùģ":5849,"Ġaux":5850,"á»įn":5851,"ota":5852,"este":5853,"ĠFe":5854,"Ġcharacter":5855,"Ġaddition":5856,"Ġìķ":5857,"OUT":5858,"Ãī":5859,"ĠÐ¿ÑĢÐ¸":5860,"ively":5861,"Ġnear":5862,"Ġjoin":5863,"stract":5864,"Õ´":5865,"iam":5866,"andid":5867,"Ġtim":5868,"ĠOf":5869,"Ġenvironment":5870,"patch":5871,"ĠÃ¶":5872,"iger":5873,"()ĊĊ":5874,"Format":5875,"roups":5876,".se":5877,"<div":5878,"ils":5879,"Ġprevious":5880,"ÑĭÐ¼":5881,"Ġworks":5882,"çĶŁ":5883,"åĴĮ":5884,"Ġhon":5885,"Ġtrab":5886,"Ġconse":5887,"Ġoverride":5888,"æľĢ":5889,"Ġvarious":5890,"à¤¾à¤Ĥ":5891,"Ġprop":5892,"áĥĺáĥĹ":5893,"ivery":5894,"PS":5895,"Player":5896,"Ġdevice":5897,"Ġrender":5898,"Ġwr":5899,"gn":5900,"aily":5901,"Connection":5902,"çİ°":5903,"Bl":5904,"CK":5905,"aciones":5906,"ditions":5907,"ached":5908,"Õ½":5909,"vas":5910,"Ġhi":5911,"iden":5912,"etwork":5913,"Ġnd":5914,"áº§":5915,"Ġà¦ķà¦°":5916,"Ø¨Ø±":5917,"Ġhttps":5918,"rodu":5919,"ä¸ª":5920,"ÉĻr":5921,"ĠWorld":5922,"Ġaccept":5923,"ä»¥":5924,"à´¿à´ķ":5925,"Gener":5926,"Task":5927,"ĠJohn":5928,"Ġregister":5929,"Ġexpected":5930,"à´¿à´¯":5931,"oor":5932,"_file":5933,"ĠSub":5934,"Resource":5935,"phone":5936,"Ġprofessional":5937,"ako":5938,"ĠÕ¶":5939,"ë©":5940,"Ġterms":5941,"essages":5942,"à«ĩàª":5943,"Filter":5944,"Ġà°¸":5945,"Ġà®µ":5946,"ìŀĲ":5947,"lood":5948,".user":5949,"IZE":5950,"ĠØ¨Ø§ÙĦ":5951,"ĠRed":5952,"ulo":5953,"Ġenergy":5954,"áĥĹ":5955,"ald":5956,"Ġà¤ķà¤¾":5957,"When":5958,"ìĸ´":5959,"Ġblack":5960,"Ġperm":5961,"itude":5962,"à´±":5963,"ption":5964,"idos":5965,"Ġep":5966,"Ġlimit":5967,"enda":5968,"ĠSm":5969,".V":5970,"ĉd":5971,"roy":5972,"{{":5973,"Ġnaar":5974,"Search":5975,"gan":5976,"uses":5977,"Ð´Ðµ":5978,"ØªØ±":5979,"Ġparent":5980,"Ġwent":5981,"à²¾à²°":5982,"Ġstep":5983,"ĠNews":5984,"Ġgeneral":5985,"wner":5986,"à¦¦":5987,"à¤¤à¤¾":5988,"Ġcustomer":5989,"àµģà´Ĥ":5990,"///":5991,"à¤¼":5992,"ĠaÃ°":5993,"\\\\":5994,"Ġchall":5995,"Eng":5996,"lib":5997,"Location":5998,"Provider":5999,"Ġcolumn":6000,"ĠCent":6001,"æ±":6002,"KE":6003,"rel":6004,"Ġcompanies":6005,"ç¬":6006,");čĊčĊ":6007,"Ġprovides":6008,"Ġtypes":6009,"iner":6010,"Ġformat":6011,"jet":6012,"II":6013,"Ġsugg":6014,"width":6015,"ä¼ļ":6016,"Ġserver":6017,"Ġengine":6018,"sv":6019,"×Ļ×¨":6020,"Ġdass":6021,"Ġpen":6022,"Ġsel":6023,"gle":6024,"ĠAug":6025,"Õ¡Õ½":6026,"Ġmember":6027,"Ġcustomers":6028,"ĠWest":6029,"Ġcontr":6030,"acity":6031,"áĥĿáĥĳ":6032,"Ġek":6033,"æīĭ":6034,"attr":6035,"Ġàª¨":6036,"client":6037,"light":6038,"eli":6039,"Ġdiffic":6040,"ĠPa":6041,"ĠOut":6042,"udi":6043,"ç®":6044,"Ġ]":6045,"Top":6046,"Ġearly":6047,"ĠPlease":6048,"Ġweight":6049,"tributed":6050,"Ġdim":6051,"Ġanswer":6052,"ello":6053,"Ġà´ħ":6054,"ãĢĮ":6055,"Ġidea":6056,"Ġterr":6057,"Ġhier":6058,"Ġgovernment":6059,"ĠApr":6060,"ĉp":6061,"Ġwhole":6062,"status":6063,"Down":6064,"undo":6065,"Ġtook":6066,"iler":6067,"#if":6068,"ĠÐºÐ¾ÑĤ":6069,"ĠDon":6070,"abs":6071,"åĢ":6072,"env":6073,"ÒĵÐ°Ð½":6074,"ĠCopyright":6075,"à¨¾à¨":6076,"xy":6077,"Ġnormal":6078,"Ġindic":6079,"à¥įà¤Ł":6080,"plac":6081,"#endif":6082,"ĠSome":6083,"Ġ*)":6084,"Ġreading":6085,"Ġissues":6086,"à¤ĸ":6087,"Ġpassword":6088,"ried":6089,"'ll":6090,"Ġà²¨":6091,"Ġcut":6092,"ÒĻ":6093,"àª¹":6094,"ä»¶":6095,"Ġapply":6096,"ns":6097,"(const":6098,"æĢİä¹Ī":6099,"Ġreceived":6100,"Ġexpress":6101,"¨áĥĺ":6102,"(M":6103,"address":6104,"àª¾àª¨":6105,"120":6106,"Ġbeautiful":6107,"Ġsuggest":6108,"inen":6109,"Ġcoll":6110,"orte":6111,"oria":6112,"Ð°Ñħ":6113,"aker":6114,"views":6115,"Ġmel":6116,"ĠEd":6117,"Ġneeded":6118,"Ġ+Ċ":6119,"'.":6120,"tributes":6121,"à¤¨à¤¾":6122,"ĠØ¨Ø±":6123,"Ġevents":6124,"Types":6125,"Ġ[]":6126,"ÑĭÑĢ":6127,"Ġ],Ċ":6128,"qual":6129,"output":6130,"ÙħÙĨ":6131,"()->":6132,"omain":6133,"Ġfi":6134,"Description":6135,"ĠHome":6136,"Ġanything":6137,"×ķ×ł":6138,"áĢ¹":6139,"Ġáĥ¡áĥĲáĥ":6140,"è½½":6141,"........":6142,"255":6143,"icip":6144,"Ġcorrect":6145,"ĠÐ£":6146,"TER":6147,"à¤Ń":6148,"Ġonder":6149,"å®¶":6150,"Ġtraining":6151,"Ġà¸ª":6152,"Tag":6153,"àµĢ":6154,"Ġ[âĢ¦":6155,"Ġà®®":6156,"Ġsy":6157,"áģ":6158,"ĠCre":6159,"Ġswitch":6160,"ITY":6161,"ums":6162,"Ġregard":6163,"level":6164,"tty":6165,"ffer":6166,"Ġtaking":6167,"Ġdelete":6168,"é¦":6169,"Ġcenter":6170,"Ġgi":6171,"ÑĭÑħ":6172,"ĠPe":6173,"Ġdraw":6174,"ĠYork":6175,"Ġnous":6176,"Ġseen":6177,"ĠAND":6178,"Ġinternet":6179,"ë¶":6180,"(S":6181,"_str":6182,"å¤ļ":6183,"ĠReact":6184,"àª¯":6185,"ĠTV":6186,"Case":6187,"Ġscreen":6188,"-M":6189,"å¸Ĥ":6190,"Ð¶Ðµ":6191,"emos":6192,"Õ¶Õ¥ÖĢ":6193,"acht":6194,"rowser":6195,"Frame":6196,"rt":6197,"Ġperformance":6198,"äºļæ´²":6199,"Ġamong":6200,"now":6201,"ieren":6202,"ĠØ§Ø³":6203,"Ô¥":6204,"anced":6205,"Dec":6206,"istic":6207,"ĠCheck":6208,"ä¸º":6209,"Ġà°®":6210,"Ġsing":6211,"Ġlang":6212,"Ġwonder":6213,"ĠJust":6214,"à®µ":6215,"(false":6216,"Ġprior":6217,"éĺ":6218,"ipment":6219,"ĠÐºÐ°Ðº":6220,"Ġtag":6221,"riend":6222,"Ġsession":6223,"åĲį":6224,"Ġinterface":6225,"ILE":6226,"Ġ*/čĊ":6227,"ibil":6228,"bs":6229,"block":6230,"51":6231,"Ġimpact":6232,"Ġwww":6233,"Ġremove":6234,"igo":6235,"_url":6236,"anner":6237,"Äĵ":6238,"ä½ľ":6239,"Ġ**":6240,"untime":6241,"Items":6242,"msg":6243,"ÛĮØ¯":6244,"Ð¸Ð½Ð¸":6245,"Ġauth":6246,"Ġnatural":6247,"gi":6248,".io":6249,"Ġkann":6250,"Ġrate":6251,"åŁ":6252,"DA":6253,"Ġpriv":6254,".H":6255,"Ù¹":6256,"Ġrap":6257,"IST":6258,"áĥłáĥ":6259,"aven":6260,"áĥĶáĥ¡":6261,"æĻ":6262,"à´ª":6263,"ĉt":6264,"ounter":6265,"Ġloss":6266,"ĠEurope":6267,"á»Ł":6268,"Oper":6269,"bor":6270,"(a":6271,"ĠÃ¨":6272,"then":6273,"à³įà²²":6274,"Am":6275,"oj":6276,"×Ļ×ª":6277,"ĠAcc":6278,"Ġvotre":6279,"áĢº":6280,"ĠáĥĹ":6281,"Ġbuilding":6282,"52":6283,"Ġcannot":6284,"ras":6285,"Ġfeature":6286,"Ġintegr":6287,"================================":6288,"ĠÐ±Ñĭ":6289,"Ġactual":6290,"Ġfiles":6291,"åºĨ":6292,"ë¬":6293,").Ċ":6294,"à°Ĥ":6295,"issions":6296,"adu":6297,"Ġà¤ıà¤ķ":6298,".label":6299,"hl":6300,"Ġrelationship":6301,"icos":6302,"à®¯":6303,"à«ģàªĤ":6304,"ä¹ħä¹ħ":6305,"èĥ½":6306,"asta":6307,"à¸¹":6308,"à¤¿à¤ı":6309,"Output":6310,"ĠAfter":6311,"Ġsec":6312,"chema":6313,"imento":6314,"ULT":6315,"ÅĦ":6316,"adem":6317,"ĠReturn":6318,"ÏĦÎ±":6319,"áĥĲáĥļ":6320,"-st":6321,"ĠĠĠĠĠĠĠĠĠĠĠĠĠĠĠĠĠĠĠĠĠĠĠĠĠĠĠĠĠĠĠĠĠĠĠĠĠĠĠĠĠĠĠ":6322,"Ġopp":6323,"à¤¹à¥Ģ":6324,"ëĿ":6325,"Ġàª°":6326,"Ġinit":6327,"host":6328,"à¸Ľ":6329,"Ġà¤¨à¥ĩ":6330,"Î²":6331,"with":6332,"(value":6333,"ago":6334,"-r":6335,"Ġtro":6336,"à¥¤ĊĊ":6337,"(true":6338,"ãĤ¤":6339,"Ġtechnology":6340,"Ġbrand":6341,"kin":6342,"âĢĿĊĊ":6343,"pc":6344,"Ġê²":6345,"Ð£":6346,"àª£":6347,"Ġcommand":6348,"UG":6349,"ided":6350,"ÙĦÙħ":6351,"Te":6352,"Ġvoc":6353,"Ġexact":6354,"Ġcomfort":6355,"Õ¯":6356,"Ġbackground":6357,"ober":6358,"MS":6359,"edit":6360,"Ġplatform":6361,"Rel":6362,"Ġgrand":6363,"ellen":6364,"Ġimplement":6365,"heet":6366,"Ġworden":6367,"Ġpercent":6368,"alle":6369,"izes":6370,"\"\"":6371,"Ġhotel":6372,"Õ¡Õ¾":6373,"Ġà¤¹à¥Īà¤Ĥ":6374,"Ġhalf":6375,"Card":6376,"Ġsig":6377,"\"/":6378,"àµįà´ļ":6379,"ÃŃs":6380,"ĠÎºÎ±Î¹":6381,"kom":6382,"Ã©d":6383,"Ġexcept":6384,"Ġsen":6385,"Ġselected":6386,"ĠHot":6387,"Auth":6388,"Ġpan":6389,"åĩº":6390,"Ġwords":6391,"Ġcomponent":6392,"Ġrights":6393,"Ġresol":6394,"ĠPres":6395,"izing":6396,"odo":6397,"Ð»Ð°ÑĢ":6398,"Ð¸ÑĪ":6399,"ĠEvent":6400,"ĠÑģÐ¾":6401,"Ver":6402,"ĠØ§Ø²":6403,"Ġpi":6404,"Ġliving":6405,"à¸£à¸µ":6406,"Ġà°ħ":6407,"acion":6408,"Ġconditions":6409,"Ġtravel":6410,"Ġmanagement":6411,"ĠPark":6412,"ä¾":6413,"çĪ±":6414,"Ġà¤¥":6415,"Ð»Ðµ":6416,"ÑĢÐµÐ´":6417,"POST":6418,"Ġseu":6419,"çīĪ":6420,"vision":6421,"Br":6422,"Ġbelieve":6423,"ĠÐºÐ¾Ð¼":6424,"_time":6425,"è§Ĥçľĭ":6426,"Ġsites":6427,"Ġfoot":6428,".assert":6429,"ÐºÑĤ":6430,"ĠÙħÛĮÚº":6431,"ĠTrue":6432,"ĠST":6433,"ĠÐ¿ÑĢÐµÐ´":6434,"rs":6435,"ç²¾":6436,"ĠEnd":6437,"ĠØ§ÙĦØ¬":6438,"Ġlanguage":6439,"ä»£":6440,"ership":6441,"Ġreceive":6442,"ROM":6443,"Server":6444,"Ġclaim":6445,"Ġdog":6446,"Open":6447,"Window":6448,"Do":6449,"player":6450,"Ġpotential":6451,"Ġfire":6452,"ĠĠĠĠĠĠĠĠĠĠĠĠĠĠĠĠĠĠĠĠĠĠĠĠĠ":6453,"ĠGre":6454,"ÑĭÐµ":6455,"Ġstaff":6456,"dir":6457,"Ġnog":6458,"ÙĤØ¯":6459,"though":6460,"Ġwhite":6461,"Ġsimply":6462,"Ġà¤ĸ":6463,"×ļ":6464,"Ġ${":6465,"Stat":6466,"Ġveh":6467,"Ġfive":6468,"fs":6469,"ÑĥÐ±":6470,"section":6471,"à¸²à¸£":6472,"tries":6473,"á¹£":6474,"Ã±o":6475,"Ġesta":6476,"aria":6477,"}}":6478,"ëĭĪëĭ¤":6479,"×ķ×Ĳ":6480,"ismo":6481,"Thread":6482,"enta":6483,"inner":6484,"efore":6485,"Ġill":6486,"-to":6487,"gest":6488,"igin":6489,"Ġkar":6490,"ĠáĥĻ":6491,"translation":6492,"ĠService":6493,"ety":6494,"ERT":6495,"Ġdescription":6496,"Ġàªķàª°":6497,"airs":6498,"Max":6499,"uni":6500,"ĠOct":6501,"oph":6502,"tex":6503,"ĠPort":6504,"Ġmut":6505,"Ð°Ð³":6506,"esta":6507,"Ġentire":6508,"Ġhol":6509,"ori":6510,"à¯įà®Ł":6511,"Ġ\"\\":6512,"Level":6513,"196":6514,"à¤¾à¤¯":6515,"bit":6516,"Ġdro":6517,"Ġ.ĊĊ":6518,"ursor":6519,"Ġtodo":6520,"Ġcasino":6521,"Ġju":6522,"Ġà®¤":6523,"Ġeveryone":6524,"à¸·":6525,"ĠHer":6526,"alo":6527,"Ġà¦ľ":6528,"ĠSw":6529,"ÛĮÚº":6530,"ptember":6531,"iso":6532,"_get":6533,"Ø¨ÙĬ":6534,"Ġconv":6535,"ĠDef":6536,"ĠAp":6537,"Ġbud":6538,"alls":6539,"Ġnou":6540,"Ġdifficult":6541,"ĠSE":6542,"ÑĥÐ¶":6543,"Ġfurther":6544,"omet":6545,"Ġstock":6546,"Ðķ":6547,"ĠìĿ´":6548,"ĠNow":6549,"è¡Į":6550,"ĠÎ´":6551,"izar":6552,"ĠÒ¯":6553,"éĩįåºĨ":6554,"find":6555,"Ġger":6556,"Ġwird":6557,"icrosoft":6558,"-g":6559,"à¸±à¸Ļ":6560,"ĠStud":6561,"à²¸":6562,"Length":6563,"Ġdeze":6564,"Ġ'@":6565,"ìľ¼":6566,"Ġdecl":6567,"Ã¡l":6568,"istry":6569,"áĢ¸":6570,"åı¯":6571,"ĠÑĤÐ°":6572,"æĪ·":6573,"Ġ~":6574,"Ġnas":6575,"Current":6576,"Ġroot":6577,"¯à¦¼":6578,"Ġgam":6579,"click":6580,"Bo":6581,"AGE":6582,"Ðĵ":6583,"_E":6584,"ĠCreate":6585,"ĠSchool":6586,"coming":6587,"Ġemb":6588,"(id":6589,"Ġsaf":6590,"igt":6591,"Ġvir":6592,"ÐµÐ½ÑĮ":6593,"ellent":6594,"ham":6595,"lem":6596,"ĠHigh":6597,"Params":6598,"ĠZe":6599,"uw":6600,"Ġts":6601,"Ġtoken":6602,"itting":6603,"aste":6604,"Õ¡Õ¯Õ¡Õ¶":6605,"ABLE":6606,"Õ¥ÖĢÕ":6607,"Ġord":6608,"istory":6609,"ĠSan":6610,"ĠInteger":6611,"×Ļ×ł":6612,"à¬":6613,"ĠÒ»":6614,"ĠSol":6615,"'est":6616,"('/":6617,"à®¿à®²":6618,"ĠMus":6619,",'":6620,"ĠMa":6621,"Email":6622,"Ġadditional":6623,"DF":6624,"ĠAir":6625,"Ġissue":6626,"Game":6627,"iene":6628,"Ġchanges":6629,"Úĵ":6630,".annotation":6631,"ãģĮ":6632,"Web":6633,"Ã©g":6634,".\"ĊĊ":6635,"ije":6636,"Ä±r":6637,"\"));Ċ":6638,";ĊĊ/":6639,"Adapter":6640,"_ID":6641,"oder":6642,"·¸":6643,"_DE":6644,"aren":6645,">();Ċ":6646,"à´¨àµįà´¨":6647,"Ġhan":6648,"imm":6649,"Ð½Ð°Ñı":6650,"Ġpaper":6651,"à¤¿à¤¸":6652,"Ġcele":6653,"ÑĨÐ¸Ð¸":6654,"à§ĩà¦¨":6655,"æĦ":6656,"SP":6657,"*Ċ":6658,"Ð»ÐµÐ½":6659,"ãĥĥ":6660,"ÓĻÑĤ":6661,"/d":6662,"ëĿ¼":6663,"Ġincludes":6664,"cher":6665,"Ġga":6666,"see":6667,"sem":6668,"ÙĦÙĥ":6669,"æıĲ":6670,"weet":6671,".ap":6672,"ERS":6673,"anning":6674,"Ġyourself":6675,"ãĤĵ":6676,"Ġsua":6677,"ÑĥÑĪ":6678,"ĠPat":6679,"offset":6680,"Lo":6681,"è®¡":6682,"ÙĪÙĤ":6683,"last":6684,"800":6685,"Ġmarketing":6686,"Ġforward":6687,"ĠTime":6688,".next":6689,"Ġfilter":6690,"pg":6691,"Ġmir":6692,"Ġ×¨":6693,"enses":6694,"æĮ":6695,".state":6696,"Ġtaken":6697,"Ġcontract":6698,"Ġ\"/":6699,"Ġtrying":6700,"idge":6701,"Json":6702,"Ġconnection":6703,"ÑĢÐ°ÑĤ":6704,"Ġtech":6705,"Ġbab":6706,"Ġses":6707,"igher":6708,"Ġcrit":6709,"à´¿à´¨":6710,"actions":6711,"Min":6712,"Ġbill":6713,"osed":6714,"Ġàª¬":6715,"Ġrefer":6716,"Ġaz":6717,"600":6718,"lose":6719,"lik":6720,"Record":6721,"sten":6722,"Ġareas":6723,"_key":6724,"Ġactive":6725,"Ġhowever":6726,"æĿ¥":6727,"Unit":6728,"Ã¸r":6729,"Ã¤nd":6730,"ĠfÃ¶r":6731,"ØŃØ¯":6732,"54":6733,"_value":6734,"ĠÅ¡":6735,"Ġà¤Ľ":6736,"ĠStates":6737,"bi":6738,"Equals":6739,"ointer":6740,"Ġinde":6741,".Name":6742,"ĠNational":6743,"_info":6744,"ÑīÐµ":6745,"Password":6746,"ĠØ¹ÙĨ":6747,"éĴ":6748,"å¥³":6749,"à¤¾à¤¸":6750,"dev":6751,"Ġquite":6752,"åħĥ":6753,"Ġreserv":6754,"Ġ};ĊĊ":6755,"ĠÄį":6756,"Ġensure":6757,"AND":6758,"ĠServ":6759,"Ġstudent":6760,"Ġborder":6761,"âĸ":6762,"yes":6763,"Ġ×Ĺ":6764,".write":6765,"Ġmode":6766,"æ¸¸":6767,"96":6768,"ç½ĳç«Ļ":6769,"ÑĭÐ¹":6770,"Ġsimilar":6771,"Ġinside":6772,"Ãªtre":6773,"Ð½Ñĸ":6774,"Ġeinen":6775,"cing":6776,"\"><":6777,"Ã©l":6778,"×ķ×ĵ":6779,"Ġsoon":6780,"CA":6781,"Ġdal":6782,"(\"#":6783,"Ġtom":6784,"Ġwor":6785,"Ġå¤§åıĳå¿«ä¸ī":6786,"Ġalmost":6787,"Ġrunning":6788,"ĠCount":6789,"Ġfinancial":6790,"Ġsepar":6791,"áĥĺáĥľ":6792,"Â°":6793,"ĠTH":6794,"})Ċ":6795,"Ġboard":6796,"lam":6797,"53":6798,"ĠØ§ÙĪ":6799,"ĠSouth":6800,"('#":6801,"gar":6802,"pected":6803,"Ġplant":6804,"ÐµÐ¶":6805,"Ġdoc":6806,"Ġax":6807,"aves":6808,"Ġmodern":6809,"ç¨":6810,"áĥĶáĥł":6811,"udo":6812,"Ġ\",":6813,"Ġ\\Ċ":6814,"ĠEnt":6815,"Entry":6816,"Application":6817,"87":6818,"ĠáĥĶ":6819,".png":6820,"Ġcurrently":6821,"ĠColor":6822,"ĠWork":6823,"uli":6824,"ĠÛģÛĴ":6825,"ĠÐºÐ¾ÑĤÐ¾ÑĢ":6826,"endar":6827,"ç¤":6828,"_A":6829,"car":6830,"Ġfan":6831,"Ġ>>":6832,"Ġwaar":6833,"oz":6834,"ĠWill":6835,"Ġsv":6836,"Ġera":6837,"âĢĻest":6838,"æĴ":6839,"Ġproblems":6840,"CTION":6841,"Ġtab":6842,"opping":6843,"Ø°Ø§":6844,"anga":6845,"ëŀ":6846,"£¼":6847,"ä¸ĩ":6848,"áŀ¶áŀ":6849,"Ġà²ª":6850,"ĠException":6851,"Ġflex":6852,"áĢ¬":6853,"Ġ<!--":6854,"Ġstream":6855,"Ġful":6856,"empty":6857,"íĻ":6858,"ç±":6859,".Data":6860,"akes":6861,"Ġë§":6862,"hem":6863,"Ø§Ùĩ":6864,"bon":6865,"Ġnur":6866,"(\"/":6867,"à¤¿à¤¯à¤¾":6868,"vest":6869,"Ġprem":6870,"Ġcredit":6871,"ĠÅ¾":6872,"Ġmuit":6873,"tx":6874,"}>Ċ":6875,"åİ¿":6876,"Ġjed":6877,"ERE":6878,"Ġded":6879,".view":6880,"Ã¡c":6881,"Rem":6882,"Ð°Ð½Ð´":6883,"Ġdesigned":6884,"Ġoffice":6885,"hib":6886,"ÏĦÎ¿":6887,"ĠNa":6888,"uda":6889,"ĠRem":6890,"æĽ":6891,"Function":6892,"ban":6893,"Ġtemplate":6894,"igger":6895,"container":6896,"ifi":6897,"Ġlatest":6898,"ĠBest":6899,"pare":6900,"adius":6901,"à¸Ńà¸ĩ":6902,"afe":6903,"Book":6904,"ĠUI":6905,"iting":6906,"ahr":6907,"Work":6908,"tml":6909,"ĠOnline":6910,"250":6911,"èĩª":6912,"áĥĲáĥª":6913,"Ġthird":6914,"çĤ":6915,"hu":6916,"à¥įà¤µ":6917,"items":6918,"peed":6919,"Ġfamil":6920,"Ġinsp":6921,"Ġbank":6922,"ev":6923,"ìĿ¼":6924,"Ġtodos":6925,"Ġaqu":6926,"Ġfem":6927,"Ġsab":6928,"can":6929,"ä¸ĭè½½":6930,"Ġlower":6931,"(v":6932,"Ġsignificant":6933,"selves":6934,"osa":6935,"Init":6936,"otype":6937,"èģ":6938,"Ġnothing":6939,"Ùĳ":6940,"Session":6941,"Ġeffort":6942,"à¦Ĺ":6943,"à¯ĩ":6944,"Õ¥Õ¶":6945,"åĪ°":6946,"ĠHet":6947,"Ġtakes":6948,"Last":6949,"ĠNS":6950,"ĠBook":6951,"à©Ģ":6952,"Ġregular":6953,"Ġfill":6954,"rapper":6955,"Ġheeft":6956,"Ġcompr":6957,"Ġbin":6958,"Ġmid":6959,"Ġlikely":6960,"??":6961,"king":6962,"àª®àª¾àªĤ":6963,"Ġfra":6964,"Ãªncia":6965,"Parameter":6966,"Ġtold":6967,"-S":6968,"isse":6969,"Ġtour":6970,"Ġusually":6971,"å¼Ģå¥ĸ":6972,"Ð·Ñĭ":6973,"ĠìĹ":6974,"quence":6975,"++;Ċ":6976,"Ġready":6977,"core":6978,"Ġhac":6979,"Ġespecially":6980,"Ġmsg":6981,"Ġgew":6982,"çĦ":6983,"Ġways":6984,"cry":6985,"ĠAc":6986,"Ġáŀ":6987,"och":6988,"Ð¸ÑĤÐµ":6989,"Ð°ÒĽ":6990,"pm":6991,"uv":6992,"isation":6993,"fin":6994,"icient":6995,"ãĤĭ":6996,"Ġorganiz":6997,"eler":6998,"Args":6999,"Ġdeliver":7000,".net":7001,"Ġib":7002,"ĠType":7003,"çŃ":7004,"node":7005,"ĠFacebook":7006,"Ġà°ļ":7007,"bers":7008,"fil":7009,"uta":7010,"ALL":7011,"Ġrestaur":7012,"Ġrecommend":7013,"(T":7014,"Ġmodels":7015,"Av":7016,"ĠìŀĪ":7017,"Ø¹Ø©":7018,"ĠAnt":7019,"Collections":7020,"ÏģÎ¿":7021,"ĠGame":7022,"×ķ×ĳ":7023,"Ġstandard":7024,"adata":7025,"ĠØ§ÙĦØ´":7026,"CR":7027,"Ġrequ":7028,"ĠLes":7029,"register":7030,"Ġrisk":7031,"while":7032,"Ġ×Ķ×ŀ":7033,"ithub":7034,"à³įà²¤":7035,"awa":7036,"Ġ\"\"\"Ċ":7037,"Ġprobably":7038,"Ġparams":7039,"pha":7040,"Ġ'/":7041,"Ġreviews":7042,"íĬ":7043,"Ò»":7044,"images":7045,"ÐµÐºÑĤ":7046,"ĠkÃ¶n":7047,"ĠĠĠĠĠĠĠĠĠĠĠĠĊ":7048,"Ġmanufact":7049,"ischen":7050,"(!":7051,"ãĥ«":7052,"Ġagre":7053,"_x":7054,"Ð±Ð¾ÑĤ":7055,"Ð½ÑĭÐ¼":7056,"Ġtar":7057,"Ġdigital":7058,"ĠØ§ÙĦÙģ":7059,"Ġcondition":7060,"efined":7061,"ĠSoc":7062,"apa":7063,"Ġincrease":7064,"Ġaccording":7065,"ĉString":7066,"nÃŃ":7067,"IA":7068,"iding":7069,"*/Ċ":7070,"ĠÒ³":7071,"Ġentr":7072,"ãĢĬ":7073,"ä½ĵ":7074,"Ġcause":7075,"àª¾àª®":7076,"ĠTw":7077,"Interface":7078,"ĠInc":7079,"ÙĦÙĩ":7080,"Phone":7081,"à¤¾à¤¹":7082,"ĠÐ°Ð»":7083,"×ķ×¢":7084,"atas":7085,"ĠÃ¥":7086,"arth":7087,"Mon":7088,"åĪĨå½©":7089,"tribution":7090,"amily":7091,"(pro":7092,"verse":7093,"Ġvez":7094,"Ġtut":7095,"Version":7096,"Ġplac":7097,"avigation":7098,"ĠDel":7099,"ĠDay":7100,"Ġà®ħ":7101,"Ġsection":7102,"Ġhit":7103,"Ð¸ÑĤÐµÐ»ÑĮ":7104,"ctx":7105,"Ġlov":7106,"mos":7107,"à³įà²¯":7108,"Ġ(\"":7109,"ĠHand":7110,"Ġfail":7111,"Api":7112,"Ġìĭ":7113,"FT":7114,"ä¸»":7115,"ĠNOT":7116,"Ġsong":7117,"Ġtransform":7118,"(get":7119,"mbly":7120,"Obj":7121,"à·ı":7122,"_se":7123,"Ġknowledge":7124,"iny":7125,"ĉbreak":7126,"First":7127,"ãģĭ":7128,"alar":7129,"ourse":7130,"enge":7131,"aki":7132,"Ã±os":7133,"rest":7134,"æķ°":7135,"ĠÐ´Ð¾":7136,"åĨĮ":7137,"ĠÐºÐ¾Ð½":7138,"Ġapproach":7139,"angle":7140,"Ġmobile":7141,"Ġproduction":7142,"ĠØº":7143,"Ġbag":7144,"\";čĊ":7145,"_user":7146,"éĩįåºĨæĹ¶æĹ¶å½©":7147,"oding":7148,"Ġlie":7149,"Ġhappy":7150,"adores":7151,"Details":7152,".To":7153,"INT":7154,"Ġsales":7155,"à°¤":7156,"heid":7157,"Ġchoice":7158,"merc":7159,"Ġfab":7160,"ĠÑįÑĤ":7161,"Å±":7162,"Ġyou're":7163,"Ġconsum":7164,"Ġmatter":7165,"holder":7166,"Ġcouple":7167,"Ġrelated":7168,"ĠRob":7169,"dule":7170,"Reader":7171,"ĠÅŁ":7172,"Helper":7173,"Ġà¤«":7174,"emp":7175,"Ġfo":7176,"à¨°":7177,"Ġrecent":7178,"ĠØ¥ÙĦÙī":7179,"ĠNorth":7180,"Ġdefinit":7181,"Ð°Ð¶":7182,"avi":7183,"Ð°Ñı":7184,"âĢĭáŀ":7185,".txt":7186,"Ġbooks":7187,"ĠPM":7188,"86":7189,"ÐºÑĸ":7190,"ĠMod":7191,"ikk":7192,"Ð³Ð°Ð½":7193,"à¦¿à¦ķ":7194,"(user":7195,"emo":7196,"tras":7197,"apan":7198,"Tool":7199,"Ġà®ļ":7200,"Ġwanted":7201,"btn":7202,"Ġsecurity":7203,"Ġbis":7204,"src":7205,"ĠWindows":7206,"è¶":7207,"àµ¼":7208,"ØªÙĩ":7209,"Ġà²ħ":7210,".read":7211,"Process":7212,"à¸Ńà¸¥":7213,"iko":7214,"imi":7215,"byte":7216,"ĠFrom":7217,"Ġestab":7218,"ĠAM":7219,"à¤¤à¥ĩ":7220,"ĠÕ«":7221,"values":7222,"ÙĬÙħ":7223,"Ġsubs":7224,"Ġru":7225,"ĠSl":7226,"ĠMet":7227,"Ġdise":7228,"Ġfoi":7229,"à©ĩ":7230,"Ġdrug":7231,"UB":7232,"ĠÚ©ÙĪ":7233,"sets":7234,"ches":7235,"ĠÐ¾Ñģ":7236,"Body":7237,"Ġplayers":7238,"'),Ċ":7239,"Ġimm":7240,"Ġ<?":7241,"atar":7242,"Ġyo":7243,"ÐĹ":7244,"Ġcoming":7245,"Sl":7246,"Ġamaz":7247,"Ġ×Ĳ×ª":7248,"ĠCenter":7249,"eline":7250,"Ġentry":7251,"×ĲÖ¸":7252,"sch":7253,"auto":7254,"_col":7255,"à¯Ĩ":7256,"Ġreq":7257,"áĥĶáĥĳáĥĺáĥ¡":7258,".parse":7259,"ÐµÑħ":7260,"Ġaj":7261,"×Ļ×ľ":7262,"(err":7263,"Ġpretty":7264,"Ġdesc":7265,"Ġhigher":7266,"Ġmeer":7267,"ĠMath":7268,"Ġpublished":7269,"irit":7270,"Ġbol":7271,"ì²":7272,"ospital":7273,"ĠFeb":7274,"ÑĢÐ°Ð½":7275,"ining":7276,"ãĤĴ":7277,"æĥħ":7278,"Ste":7279,"à¤¨à¥įà¤":7280,"ishing":7281,"uster":7282,"ĠFound":7283,"Ġpero":7284,"raint":7285,"Engine":7286,"ãĢĭ":7287,"-up":7288,"bum":7289,"echo":7290,"nb":7291,"àµįà´ª":7292,"à°¿à°Ĥà°":7293,"à®ª":7294,"atory":7295,"PT":7296,"ãĤĬ":7297,"Ġframe":7298,"ening":7299,"chan":7300,"ëª":7301,"Ø±Ùģ":7302,"Account":7303,"à²¯":7304,"Ġà¤ĩà¤¸":7305,"ĠHere":7306,"Ð¾Ð¸":7307,"ĠÐ¾Ð´":7308,"');ĊĊ":7309,"Ġaltern":7310,"next":7311,"ÐºÐ¾Ð²":7312,"Ġofficial":7313,"Ġpurchase":7314,"à²²à³įà²²":7315,"kr":7316,"ĠName":7317,"àªĹ":7318,"Store":7319,".col":7320,"lice":7321,"Ġgas":7322,"ekt":7323,"Access":7324,"ĠØ§ÙĦØ¥":7325,"Ġvel":7326,"ÃŃn":7327,"Ġig":7328,"ìłķ":7329,"aling":7330,"ead":7331,"Ġprevent":7332,"empl":7333,"Ġsun":7334,"ĠProgram":7335,"ĠÏĦÎ¿":7336,"à³Ĥ":7337,"ĠÙħØ§":7338,"Ġris":7339,"temp":7340,"'ve":7341,"Ġmachine":7342,"ĠMap":7343,"à°®":7344,"à¤°à¥Ģ":7345,"Ġvirtual":7346,"_SIZE":7347,"orge":7348,"PC":7349,"ļàµįà´ļ":7350,"Ġsound":7351,"rown":7352,"Ġround":7353,"ĠWH":7354,"ØªÙħ":7355,"Widget":7356,"Ġsale":7357,"ĠÐ¹":7358,"etime":7359,"Ġincluded":7360,".status":7361,"Ġparty":7362,"Ġprefer":7363,"Ġnoch":7364,"ĠØ§ÙĦØ¯":7365,"ITH":7366,"acks":7367,"()čĊ":7368,"Ġtur":7369,"à´¾à´¯":7370,"ads":7371,"Ġconcern":7372,"à¦¿à¦¨":7373,"Ġabsol":7374,"idas":7375,"ACK":7376,"Ġreturns":7377,"ASS":7378,"Ġeiner":7379,"ĠInternet":7380,"Ġtouch":7381,"ensor":7382,"));ĊĊ":7383,"Ext":7384,"dom":7385,"Ġarch":7386,"ÄĹ":7387,"ĠÐ¸Ð»Ð¸":7388,"à¨¿":7389,"arter":7390,"}</":7391,"Ġinvestig":7392,"only":7393,"tag":7394,"àªľ":7395,"Ġoil":7396,"ideos":7397,"Ġshows":7398,"inition":7399,"asc":7400,"ensions":7401,"Ġpel":7402,"Ġnice":7403,"Ġzum":7404,"Ġci":7405,"Ò¡":7406,"åŃĲ":7407,"Ġprogress":7408,"Ġtemper":7409,"_tr":7410,"Ġlonger":7411,"Ġmai":7412,"-Ċ":7413,"quare":7414,"oni":7415,"Ġresources":7416,"Price":7417,"enden":7418,"Ġà²¹":7419,"(w":7420,"ìĨ":7421,"adh":7422,"=$":7423,"àµ½":7424,"geb":7425,"ÐµÐ½Ð¸":7426,"Ġ/**":7427,"ĠEX":7428,"Ġsix":7429,"Ġkr":7430,"BA":7431,"Ġpain":7432,"ptr":7433,"Ġà¤¸à¤®":7434,"oko":7435,"åĪ©":7436,"Ġsell":7437,"styles":7438,"é»":7439,"ournal":7440,"Ġparte":7441,"ĠÃ®":7442,"oring":7443,"Ð½Ð¾Ðµ":7444,"Ġfol":7445,"Ġà¦¯":7446,"ague":7447,"Ġtreatment":7448,"Ġweeks":7449,"`Ċ":7450,"ĠProduct":7451,"duc":7452,"à¹ģ":7453,"LL":7454,"Ø±Ø©":7455,"áĥĶáĥĳáĥĲ":7456,"Ġà®ĩ":7457,"ares":7458,"ë²":7459,"Category":7460,"Ġesp":7461,"ĠsÃ©":7462,"prise":7463,"alia":7464,"Ġgraph":7465,"iser":7466,"ictionary":7467,"à®¿à®¯":7468,"otion":7469,"Ġeinem":7470,"Left":7471,"Ġáĥŀ":7472,"Ġfait":7473,"Ġ-->Ċ":7474,"à¸Ī":7475,"ailed":7476,"Ġnote":7477,"ARR":7478,"89":7479,"wise":7480,"fol":7481,"acional":7482,"auf":7483,"esc":7484,"Ġclients":7485,".core":7486,"ĠÕ¿":7487,"áĥĴ":7488,"ÛĮØ±":7489,"Åł":7490,"wi":7491,"Ġmenu":7492,"Ġimages":7493,"ĠØ§ÙĦÙĤ":7494,"ÑĢÐµÐ¼":7495,"yy":7496,"'ĊĊ":7497,"Selected":7498,"ÑĶ":7499,"ãģķ":7500,"à¯ģà®®à¯į":7501,"area":7502,"ĠÐ¸Ð¼":7503,"Ġheld":7504,"Ġannoun":7505,"bug":7506,"Ġhaben":7507,"Ġå¤©å¤©å½©ç¥¨":7508,"iche":7509,"ÑĨÑĮ":7510,"Ġsystems":7511,"ÏĦÎ·":7512,"Ð¾Ð¼Ñĥ":7513,"ÙĦÛĮ":7514,"Ġdrive":7515,"Ġtor":7516,"ĠÙ¾Ùĩ":7517,"ango":7518,"à¥Į":7519,"Ġ);ĊĊ":7520,"180":7521,"æĪĳ":7522,"Ġhun":7523,"Ġlearning":7524,"æ³¨åĨĮ":7525,"Ġrandom":7526,"ĠØ±Ø§":7527,"ĠUR":7528,"Ġgest":7529,"ÑĤÐµ":7530,"_con":7531,"Ġcontinu":7532,"ilo":7533,"\":\"":7534,"----------------------------------------------------------------":7535,"_count":7536,"Ġhy":7537,"Ġviol":7538,"Ġoutside":7539,"ĠÏĦÎ¿Ïħ":7540,"ĠAv":7541,"Ġrather":7542,"Ð»Ñĸ":7543,"Ġinternational":7544,"Ġanyone":7545,"esso":7546,"inst":7547,"Ġforma":7548,"Ġworth":7549,"ĠÕ¡Õ":7550,"BC":7551,"éĥ":7552,"enz":7553,"aks":7554,"eto":7555,"false":7556,"Ġupon":7557,"ests":7558,"Ġcalcul":7559,"ĠÐ¾Ð¿":7560,"ĠMarch":7561,"Ġpolicy":7562,"à¦¹":7563,"ĠSoftware":7564,"ĠØ§ÙĦÙĨ":7565,"äºĶ":7566,"Ġlocated":7567,"anuary":7568,"Ġintrodu":7569,"\\u":7570,"flow":7571,"Press":7572,"àµģà´¨":7573,"Ġãĥ":7574,"Ġaud":7575,"Ð°ÑĢÑĭ":7576,"ÒĵÐ°":7577,"Ġsolution":7578,"Ġfaz":7579,"Vector":7580,"Ġdistributed":7581,"Ġwritten":7582,"Ġvert":7583,"Ġ?>":7584,"lang":7585,"Ġfacil":7586,"ography":7587,"onder":7588,"ì¹":7589,"jes":7590,"ĠHar":7591,"istics":7592,"dy":7593,"bed":7594,"Ġcomputer":7595,"ĠØ§ÙĦÙĥ":7596,"àª¨àª¾":7597,"Ġmultiple":7598,"à®®":7599,"Ġ++":7600,"aman":7601,"Ġ^":7602,"vector":7603,"amera":7604,"xx":7605,"aly":7606,"INE":7607,".query":7608,"ady":7609,"à¸ŀ":7610,"/b":7611,"password":7612,"ĠBlack":7613,"imary":7614,"éģĵ":7615,"Ò±":7616,"ynamic":7617,"hol":7618,".sub":7619,"Ġconfirm":7620,".Ċ//":7621,"++)Ċ":7622,"ÐµÐ³Ð¾":7623,"ç¬¬":7624,"ĠFOR":7625,"nav":7626,"Ġreach":7627,"ÏĦÎµ":7628,"price":7629,"Ġhij":7630,"ÙĪØ¨":7631,"agram":7632,"123":7633,"Ġmens":7634,"Î¾":7635,"íĺ":7636,"Å«":7637,"Ã§o":7638,"atisf":7639,"nie":7640,"Ġnem":7641,"itu":7642,"ĠInst":7643,"á»©":7644,"\"),":7645,"Ġnt":7646,"à°¸":7647,"ÏģÎ±":7648,"ĠUse":7649,"Configuration":7650,"Pol":7651,"ĠØ§ÙĪØ±":7652,"ìķĦ":7653,"IE":7654,"ĠApril":7655,"Route":7656,"ĠâĢ¢":7657,"ĠÐ¼ÐµÐ½":7658,"001":7659,"åīį":7660,"ungs":7661,"ĠEN":7662,"ëĤĺ":7663,"à¶º":7664,"Ġinstead":7665,"raf":7666,"à±įà°¨":7667,"Ġleave":7668,"':Ċ":7669,"Ġunit":7670,"END":7671,"102":7672,".Set":7673,"Que":7674,"Ġei":7675,"?.":7676,".json":7677,"ees":7678,"à¤¾à¤¦":7679,"Ġappear":7680,"ìŀ¥":7681,"à¤Ī":7682,"TP":7683,"Ã¤l":7684,"Ġfeed":7685,"riteria":7686,"card":7687,"Ġpropos":7688,"OST":7689,"Ġsan":7690,"ountry":7691,"ĠĠĠĠĠĠĠĠĠĠĠĠĠĠĠĠĠĠĠĠ":7692,"location":7693,"ĠcÃ³":7694,"Next":7695,"Ġcette":7696,"ç»ı":7697,"Ġrele":7698,"Ġwordt":7699,"Local":7700,"Ġdia":7701,"eno":7702,"Ġsafe":7703,"Ġtransport":7704,"Ġ×¦":7705,"ĠÃ¤r":7706,".apache":7707,"Õ¡Öģ":7708,"ĉčĊ":7709,"ayment":7710,"Ãģ":7711,"Cal":7712,"ĠØ§ÙĦØ¨":7713,"eh":7714,"Ġà²¬":7715,"à±įà°¯":7716,"Ã¢n":7717,"inar":7718,"cu":7719,"Ġà°¨":7720,"NU":7721,"ÏĢÎ¿":7722,"ÑĨÐ°":7723,"è¦ģ":7724,"ĠEnglish":7725,"FO":7726,"æŀľ":7727,"ĠÐĵ":7728,"itchen":7729,"XX":7730,"main":7731,"Ġ=Ċ":7732,"Ġspeed":7733,"å§":7734,"à¸²à¸¢":7735,"rupt":7736,"Ġ$_":7737,"Ø±Ùĥ":7738,"~~":7739,"Ġground":7740,"à¥įà¤·":7741,"à¹Ĥ":7742,"first":7743,"ĠIt's":7744,"Ġkids":7745,"irection":7746,"Ġasked":7747,"_index":7748,"Ġlegal":7749,"Ġbul":7750,"ERROR":7751,".Collections":7752,"adr":7753,"Ġul":7754,"Ġadministr":7755,"Ġassist":7756,"Ġvac":7757,"ĉĠ":7758,"akan":7759,"ĠAfr":7760,"Ãºn":7761,"login":7762,"Úª":7763,"à³Ģ":7764,"Ġàªı":7765,"Op":7766,"79":7767,"à´ķàµįà´ķ":7768,"Ġnational":7769,"Ġcelebr":7770,"ĠÃ½":7771,"ĠFin":7772,"ellow":7773,"Ġmedical":7774,"ederal":7775,"à³įà²¨":7776,"mercial":7777,"à¶»":7778,"äºĮ":7779,"arden":7780,"ĠÄ":7781,"Ġà´İ":7782,"ĠDesign":7783,"Ð´Ñĥ":7784,"ĠAustr":7785,"pack":7786,"ãĤ¯":7787,"ĠOpen":7788,"urrency":7789,"ĠLong":7790,"(g":7791,"ĠHis":7792,"ÑģÑĭ":7793,"tocol":7794,"Ġapr":7795,"oub":7796,"Settings":7797,"Ä±nd":7798,"Å³":7799,"GET":7800,"ĠThen":7801,"esch":7802,"ĠØªÙĪ":7803,"æį":7804,"Red":7805,"à¦ĩ":7806,"Ġbehind":7807,"[:":7808,"Ġrom":7809,"âĢĿ.":7810,"âĻ":7811,"hood":7812,"nder":7813,"à¦¾à¦²":7814,"ĉSystem":7815,".*":7816,"plete":7817,"Found":7818,"Ġrecogn":7819,"ìĪĺ":7820,"icha":7821,"áĢ¯":7822,"Ġà·":7823,"CP":7824,"ĠMal":7825,"ĠHouse":7826,"=True":7827,"ĠÐ¿Ð¾Ñģ":7828,"float":7829,"ĠÑĤÐ¾":7830,"Ġtit":7831,"ĠSi":7832,"GL":7833,"Storage":7834,"Ġeasily":7835,"ĠFre":7836,"å®ī":7837,"ĠÐ¾Ð½":7838,"è¨":7839,"ipl":7840,"Ġproced":7841,"hold":7842,"ĠJune":7843,"Ġlate":7844,"Ġflow":7845,"zu":7846,"ajo":7847,"Ġaverage":7848,"ĠGroup":7849,"Ġeducation":7850,"ĠSal":7851,"LECT":7852,"ÑĤÐµÑĢ":7853,"Õ¤":7854,"à¤®à¤¾":7855,"è°":7856,"ĠGo":7857,"ĠDirect":7858,"edi":7859,"Ãŀ":7860,")ĊĊĊ":7861,"Ġdatabase":7862,"-e":7863,"ĠBro":7864,"Ġideas":7865,"195":7866,"Ġnature":7867,"Ġopportunity":7868,"ifest":7869,"Ġskills":7870,"cm":7871,"Rect":7872,"ĠMag":7873,"Ġspr":7874,"Ġmaterials":7875,"Ġthroughout":7876,"Ã¼ck":7877,"inda":7878,"ecur":7879,"Ġball":7880,"Ġparts":7881,"Ġnorm":7882,"Ġimag":7883,"Ġcha":7884,"iza":7885,"grid":7886,"Ġcomments":7887,"ĠvocÃª":7888,"Target":7889,"Ġseems":7890,"ono":7891,"Ġtill":7892,"amin":7893,"ĠANY":7894,"[j":7895,"RA":7896,"ĠÙħØŃ":7897,"Sign":7898,"×Ļ×©":7899,"ĠÐ±ÑĥÐ´":7900,"èµĦ":7901,"Ġaffect":7902,"ilder":7903,"à°Ł":7904,"illed":7905,"Ġicon":7906,"Ġpaint":7907,"Ł¥":7908,"ĠSk":7909,"çľŁ":7910,"Ġcases":7911,"blic":7912,"à²®":7913,"length":7914,"oday":7915,"Ġcollect":7916,"Ġ×ª":7917,"ĠTO":7918,"Each":7919,"110":7920,"ĠHol":7921,"imation":7922,"ĠHealth":7923,"That":7924,"('.":7925,"ĠKey":7926,"Ġallows":7927,"Ġstorage":7928,"àµĤ":7929,"Long":7930,"ĠOver":7931,"Ø®Øª":7932,"Ġmethods":7933,"Ġà¤¦à¥ĩ":7934,"ĠMc":7935,"Ġcharg":7936,"Ġproper":7937,"Ġcandid":7938,"æº":7939,"ĠAugust":7940,"icket":7941,"Our":7942,"But":7943,"icker":7944,"ceed":7945,"(str":7946,"76":7947,"ÙĲ":7948,"itation":7949,"ĠâĤ¬":7950,"avy":7951,"ìļĶ":7952,"vey":7953,"Ġà®¨":7954,"áĥĺáĥļ":7955,"ĠMain":7956,"aje":7957,"ĠÕº":7958,"101":7959,"Project":7960,"Ãªme":7961,"entry":7962,"anya":7963,"Ġzur":7964,"UD":7965,"Ġsein":7966,"Ġregion":7967,"Ġvariety":7968,"inger":7969,"ĠÚ©Ùĩ":7970,"Ġcomme":7971,"ĠStart":7972,"ĠSim":7973,"'))":7974,".map":7975,"sql":7976,"åįļ":7977,"graph":7978,"ĠImage":7979,"Ġ;Ċ":7980,"áĥĶáĥĽ":7981,"band":7982,"ĠFalse":7983,"íĬ¸":7984,"Ð»Ñİ":7985,".remove":7986,"Ġskin":7987,"àª¨à«Ģ":7988,"Ġpun":7989,":(":7990,"Changed":7991,"à¤¾à¤µ":7992,"Ġip":7993,"Ġexcellent":7994,"ëħ":7995,"ê²Į":7996,"acing":7997,"ĠÚª":7998,"Ġchat":7999,"Dep":8000,"Ġà´¤":8001,"emory":8002,"(string":8003,"ORD":8004,"van":8005,"àª¦":8006,"íĸ":8007,"àµģà´¨àµįà´¨":8008,"ĠìĦ":8009,"âĢ¦âĢ¦":8010,"Selector":8011,"Ġcomplex":8012,"zz":8013,"ĠÚ©Ø±":8014,"atives":8015,"Ġáĥ¬":8016,"85":8017,"à®±":8018,"à¸Ł":8019,"Ġexception":8020,"ìłľ":8021,"ĠTop":8022,"_of":8023,"Ġfort":8024,"BO":8025,"ocr":8026,"Ġdeath":8027,"ç´":8028,"×Ļ×§":8029,"Ð½Ð¾ÑģÑĤÐ¸":8030,"Ġ[âĢ¦]ĊĊ":8031,"Ġ!==":8032,"ĠAS":8033,"194":8034,"Ġhebben":8035,"ÑĢÐ°Ð·":8036,"Co":8037,"ÐºÐµ":8038,"Ġcop":8039,"ancel":8040,"eneric":8041,"èį":8042,"_SE":8043,"term":8044,"ÑĨÐ¸Ñı":8045,"ODO":8046,"Ġ×¡":8047,"à¦¿à¦¤":8048,"Õ¸ÖĤÕ©ÕµÕ¸ÖĤÕ¶":8049,"Õ¸Õ²":8050,"ĠSeptember":8051,"ĠlÃł":8052,"ëĲ":8053,"quer":8054,"aign":8055,"module":8056,"Ò¯ÑĢ":8057,"Ġchance":8058,"Ġà¤ķà¤¿":8059,"ugu":8060,"å¥½":8061,"Tree":8062,"Ġgel":8063,".Group":8064,"Ġquickly":8065,"ĠCas":8066,"exp":8067,"lan":8068,"Õ¸Õ¾":8069,"à¸µà¹Ī":8070,"ĠÐ±Ð°":8071,"vez":8072,"region":8073,"-F":8074,"ÙĪÚº":8075,"128":8076,"¡Õ":8077,"ÐĽ":8078,"Ð¸Ð³":8079,"Ġnom":8080,"ĠÕ¤":8081,"imit":8082,"ijke":8083,"ĠBusiness":8084,"ç²¾åĵģ":8085,"ĠáĥłáĥĿáĥĽ":8086,"(-":8087,"Ġcross":8088,"å¤©å¤©ä¸Ńå½©ç¥¨":8089,"jen":8090,"icate":8091,"ëĮĢ":8092,"Option":8093,"Ġprograms":8094,"ÛĮÚ©":8095,"number":8096,"ÙĤØ©":8097,"Ġáĥ£áĥ":8098,"EXT":8099,"lat":8100,"Ġsist":8101,"cs":8102,"Ġdeep":8103,"Ġones":8104,"ÏĥÎ·":8105,"Var":8106,"Ġhair":8107,"ĠAmerica":8108,"Ġlock":8109,"Ġactivity":8110,"(result":8111,"Ġinsurance":8112,"Ġbuilt":8113,"ĠChina":8114,"Ġwish":8115,"ayers":8116,"Ġleading":8117,"ÑģÐºÐ¸":8118,"Ġfaire":8119,"(h":8120,"Ø§Ø²":8121,"ë³´":8122,"}ĊĊ//":8123,"à®°à¯į":8124,"/or":8125,"engan":8126,"qq":8127,"Ø¡":8128,"Ġà¤°à¤¹":8129,"åħ¥":8130,"MA":8131,"\"),Ċ":8132,"Login":8133,"åŃĹ":8134,"ĠDav":8135,"ëį":8136,"èĢħ":8137,"/p":8138,"eting":8139,"Impl":8140,"URE":8141,"Ġseek":8142,"ìĽĲ":8143,"Ġ'<":8144,"192":8145,"Mapping":8146,"imb":8147,"Ġpatients":8148,"Ġcart":8149,"rot":8150,"éŁ":8151,"Ľà§ĩ":8152,".path":8153,"attle":8154,"Ġnecessary":8155,"ĠDan":8156,"Ġcool":8157,"Ġ}ĊĊĊ":8158,"witch":8159,"ĠCons":8160,"ç¦":8161,"*)":8162,"à«Ĥ":8163,"æĴŃ":8164,"Ġtree":8165,"});ĊĊ":8166,"à°µ":8167,"False":8168,"top":8169,"ĠJuly":8170,"ahl":8171,"wood":8172,"Ġactivities":8173,"Ġwide":8174,"tempt":8175,"çī¹":8176,"Ġband":8177,"(re":8178,"Ne":8179,"API":8180,"font":8181,".aw":8182,".close":8183,"Ġà¤¸à¤Ĥ":8184,"mar":8185,"ĠModel":8186,"ÑĢÐ¾Ð²":8187,"After":8188,"aire":8189,"Ġnan":8190,"Return":8191,".List":8192,"ipped":8193,"à°¾à°²":8194,"Ġresid":8195,"à´°àµį":8196,"Ġmemory":8197,"Ġinstit":8198,"Ġconsult":8199,"inos":8200,"Ġwrong":8201,",-":8202,"Ġremember":8203,"-year":8204,"ĠJSON":8205,"users":8206,"style":8207,"ï½ŀ":8208,"Ð½Ð¾ÑģÑĤÑĮ":8209,"ĠId":8210,"Ġheader":8211,"[$":8212,"Ġempty":8213,"_by":8214,"Ġslot":8215,"Ð¸ÑĩÐµÑģ":8216,"à¤ı":8217,"account":8218,"ĠÑģÐ°Ð¼":8219,"ĠSuper":8220,"ÑģÑĤÐ°Ð½":8221,"Ġunt":8222,"Delete":8223,"Ġlooks":8224,"Õ¸ÖĢ":8225,"Port":8226,"Ġimplements":8227,"Ġà¤µà¤¿à¤":8228,"more":8229,"tect":8230,"à¤ķà¥ĩ":8231,"Ġrelease":8232,"Ġcirc":8233,"Ġtown":8234,"-based":8235,"ĠBer":8236,"Ġquant":8237,"ship":8238,"Ð¾ÑĪ":8239,"Active":8240,"__(":8241,"}/":8242,"zie":8243,"sen":8244,"Ġfant":8245,"Ġfilename":8246,"à¸Ĭ":8247,"Ġpractice":8248,"Ġmovie":8249,"weight":8250,"ikt":8251,"Ġplaying":8252,"Ġstar":8253,"_at":8254,"Ð°Ð»Ð¸":8255,"Please":8256,"CD":8257,"upp":8258,"JSON":8259,"jer":8260,"¨à¯įà®¤":8261,"Î¼Î±":8262,"ĠPerson":8263,"ĠMac":8264,"Ġgan":8265,"Ġgrowth":8266,"Ġaber":8267,"ordin":8268,"ĠCounty":8269,"Total":8270,"à¦ľ":8271,"Ġcada":8272,"anges":8273,"Ġsaw":8274,"Ġdiscover":8275,"Ð°Ð½Ñĭ":8276,"Ġkas":8277,"Values":8278,".res":8279,"ĠKe":8280,"ĠAny":8281,"à¯įà®±":8282,"Ġmeng":8283,"Ġimmed":8284,"Ġability":8285,"oker":8286,"-B":8287,"ĠÙ¾Ø±":8288,"ÒŁ":8289,"âĢĶâĢĶ":8290,"Ð°Ð¿":8291,"EST":8292,"but":8293,"atan":8294,"Dir":8295,"ĠDer":8296,"Ġpap":8297,"gal":8298,"ĠØ³ÛĴ":8299,"çĤ¹":8300,"cd":8301,"Ġpattern":8302,"ington":8303,"(@":8304,"Ġresource":8305,"ĠÙ":8306,"èĭ":8307,"ĠÕ£":8308,"Ġphotos":8309,"CO":8310,"lÄ±":8311,"Ġhay":8312,"Show":8313,"template":8314,"ymbol":8315,"Ġuseful":8316,"Controls":8317,"ouw":8318,"ĠáĥĲáĥł":8319,"à²¾à²Ĺ":8320,"ĠMicrosoft":8321,"ATA":8322,"Ġtan":8323,"cz":8324,"Ġì§":8325,"ĠØ§ÙĦØµ":8326,"è¿Ļ":8327,"Å¯":8328,"×ĳ×¨":8329,"_code":8330,"(res":8331,"ï¼¿":8332,"Ġexpert":8333,"ãģ£":8334,"Ø§Ø¹":8335,"åĪĴ":8336,"ategories":8337,"ĠFirst":8338,"ological":8339,"Ġfavorite":8340,"ëŁ":8341,"Ġcompar":8342,"ÙĦØ©":8343,"ĠÑŀ":8344,"avel":8345,"Õ¥Õ¿":8346,"Ð¾ÑĢÐ°":8347,"ĠLink":8348,"Ġton":8349,"Ġfloor":8350,"ĠHttp":8351,"Ð»Ñĭ":8352,"à¤¾à¤ľ":8353,"Ġlives":8354,"ÑĤÓĻ":8355,"áĥ§":8356,".current":8357,"Ġmargin":8358,"Ġproperties":8359,"æĢ§":8360,"Ó£":8361,"@Override":8362,"Ġcharge":8363,".In":8364,"ĠJes":8365,"à¤ķà¤¾":8366,"Ġtend":8367,"arios":8368,"ĠPRO":8369,"ĠUK":8370,"aken":8371,"Art":8372,"Ð¾Ð´Ð°":8373,"Ġlevels":8374,"itable":8375,"Ġàª¦":8376,"åĬ¨":8377,"ongo":8378,"Ġjour":8379,"ARE":8380,"Ġwur":8381,"esh":8382,"sta":8383,".cont":8384,"acters":8385,"amed":8386,"Õ¡Õ®":8387,"ĠÕ¢":8388,"Ġpool":8389,"_add":8390,"ulu":8391,"ĠPal":8392,"ĠØ§ÙĦØ®":8393,"Gl":8394,"components":8395,"Template":8396,"Ġavoid":8397,"Ø¤":8398,"mazon":8399,"Ġimprove":8400,"Vari":8401,"Ġà¦¶":8402,"Ġevalu":8403,"Del":8404,"ĠIndia":8405,"ĠWhile":8406,"Enabled":8407,"yg":8408,"(B":8409,"lag":8410,"xim":8411,"Ġà°¤":8412,"ecurity":8413,"iring":8414,"Ġgod":8415,"Ġfrequ":8416,"Ġvida":8417,"scope":8418,"olf":8419,"Ġparse":8420,"aro":8421,"Ġrecently":8422,"ìļ©":8423,"Ġdaily":8424,"Ġmehr":8425,"onday":8426,"Îĳ":8427,"actor":8428,"Ġscore":8429,"Ġempres":8430,"long":8431,"Ġcompl":8432,"ÙĬÙĪ":8433,"âĺ":8434,"Ġequipment":8435,"exports":8436,"Ġtools":8437,"Il":8438,"Ġfirm":8439,"Ġai":8440,"Ġselection":8441,"Properties":8442,"Ġabs":8443,"Ġcapt":8444,"truct":8445,"ãĤĤ":8446,"Main":8447,"=\\\"":8448,"Ġliter":8449,"Ġanalysis":8450,"Ġprices":8451,"Ġconvert":8452,"ÙĬØ³":8453,".dis":8454,"ĠSa":8455,"Font":8456,"à¯ģà®ķ":8457,"ova":8458,"encies":8459,"eden":8460,"Ġcareer":8461,"ĠBen":8462,"Ãį":8463,"ĠÂ·":8464,"Ġroll":8465,".string":8466,"Ġamazing":8467,"ãģĵ":8468,"oms":8469,"Use":8470,"âĢĻd":8471,"à²Ĥà²¦":8472,"Ġboy":8473,"Ġà¦Ĺ":8474,"Can":8475,".)":8476,"å¿ĥ":8477,"(null":8478,"ĠÎ¿":8479,"acket":8480,"ÑģÑĤÐ²ÐµÐ½":8481,".css":8482,"Ġjo":8483,"çķ":8484,"Ġverd":8485,"Ġfinally":8486,"fit":8487,"Ġeffective":8488,"Ġupdated":8489,"Î¯Î±":8490,"Ġinflu":8491,"Ġdemand":8492,"Ð¸Ð½Ð°":8493,"Ó©ÑĢ":8494,"à¶Ń":8495,"Ġconcept":8496,"è·":8497,"ĠdÃ©c":8498,"iÃ©n":8499,"elles":8500,"Ġtrust":8501,"nu":8502,"Ġbath":8503,"utt":8504,"None":8505,"ersist":8506,"aires":8507,"Ġpros":8508,"delete":8509,"Ġfer":8510,"Ġkle":8511,"Ġsense":8512,"Ġtrain":8513,"unday":8514,"Ġsz":8515,"Ġdirectly":8516,"ĠAut":8517,".$":8518,"ĠFROM":8519,"known":8520,"Ġ×ľ×Ķ":8521,"Ġclub":8522,"Ġdh":8523,"Ġalert":8524,".ĊĊĊ":8525,"aries":8526,"oro":8527,"?:":8528,"ĠTechn":8529,"åķĨ":8530,"Ġliv":8531,"Ġfields":8532,"à®¿à®²à¯į":8533,"otes":8534,"Ġcan't":8535,"Ġdidn":8536,"Ġpages":8537,"Ð´Ñĸ":8538,"Ã¡rio":8539,"72":8540,"Ag":8541,"Detail":8542,"About":8543,"àª§":8544,"ĠWar":8545,"ä¸ļ":8546,"ãĥ©":8547,"Ġ..":8548,"éĹ´":8549,"ĠCommun":8550,"agem":8551,"ondon":8552,"NE":8553,"Ġprojects":8554,"ĠProm":8555,"yth":8556,"ĠsÃ¥":8557,"ĠÎ³":8558,"ds":8559,"éĶ":8560,"inde":8561,"ê³¼":8562,"urer":8563,".new":8564,"ĠÐ°ÑĢ":8565,"Ġaspect":8566,"Ġëĭ":8567,"Ġgold":8568,"ĠÛ":8569,"Ġåį":8570,"Ġkm":8571,"éĥ¨":8572,"Ġbuffer":8573,"ãģĨ":8574,"-a":8575,"Props":8576,"ĠÑįÑĤÐ¾":8577,"(()":8578,"Hash":8579,"firm":8580,"Ã´ng":8581,".</":8582,"Ġgoal":8583,"ĠPC":8584,"Ġvie":8585,"ĠtÃ«":8586,".ch":8587,"Ġàªħàª¨à«ĩ":8588,"ÑģÐ°":8589,"åŃ¦":8590,"Ġthread":8591,"Ã¤h":8592,"çº§":8593,"Msg":8594,"():Ċ":8595,"Ã»":8596,"dat":8597,"stream":8598,"****************************************************************":8599,"à·Ģ":8600,"Ġstarting":8601,"eda":8602,"Ã¶g":8603,"pat":8604,"isc":8605,"arante":8606,"ĠBel":8607,"cciÃ³n":8608,"_string":8609,"ĠBrit":8610,"Ġnotice":8611,"ìĥģ":8612,"à°¿à°¨":8613,"Range":8614,"Ġmoet":8615,"ĠĠĠĠĠĠĠĠĠĠĠĠĠĠĠĠĠĠĠĠĠĠĠĠĠĠĠĠĠ":8616,"Ġexerc":8617,"-re":8618,"ugar":8619,"Ġlu":8620,"PR":8621,"ners":8622,"ĠInformation":8623,"ussi":8624,"Ġgets":8625,"+\"":8626,"Right":8627,".error":8628,"Ġtechni":8629,"ĠØ§ÛĮÙĨ":8630,"Ð´Ð°Ð½":8631,"Ġelements":8632,"Ġmention":8633,"Ġà¤Ńà¥Ģ":8634,"ëĵ¤":8635,"ÑĪÐµ":8636,"Ġkam":8637,"ÐºÐ°Ð·":8638,"lay":8639,"IGHT":8640,"Ø§ØŃ":8641,"Ġblood":8642,"Mark":8643,"$this":8644,"rame":8645,".web":8646,"iana":8647,"Ġ::":8648,".min":8649,"asons":8650,"ÑĭÐ·":8651,"ija":8652,"à§įà¦¬":8653,"ĠError":8654,"Ġviews":8655,"ĠéĩįåºĨæĹ¶æĹ¶å½©":8656,"à³ĭ":8657,"ÙĥÙĨ":8658,"ez":8659,"Ġdecision":8660,"arts":8661,"ìĬµ":8662,"Ġnumbers":8663,"Ġobserv":8664,"har":8665,"ĠNovember":8666,"Ġowner":8667,"Ġassociated":8668,"äºĭ":8669,"à®£":8670,"eur":8671,"à²°à³ģ":8672,"lean":8673,"aus":8674,"ĠSen":8675,"Ġdelivery":8676,"contr":8677,"ivil":8678,"ÑģÐ»Ð¸":8679,"Ġadult":8680,"Ġhistor":8681,"ĠkÃ¶nnen":8682,"Õ¸ÖĢÕ":8683,"Ġattention":8684,"ĠJanuary":8685,"Ġ''":8686,"Ġrob":8687,"ĠInternational":8688,".update":8689,"Ġrais":8690,"Display":8691,"Ġtid":8692,"áĢŃ":8693,"åł":8694,"OC":8695,"chaft":8696,"method":8697,"Ġlines":8698,"\\x":8699,"ÏīÎ½":8700,"kk":8701,"ĠReal":8702,"cil":8703,"Ġattempt":8704,"Ã¤Ã¤":8705,"onom":8706,"Ġrock":8707,"oter":8708,"Ġmorning":8709,"oggle":8710,"Ġcategory":8711,"Ġshall":8712,"Ġà²µ":8713,"ĠEin":8714,"_back":8715,"role":8716,"áĥĿáĥ¡":8717,"Ġoh":8718,"ran":8719,"ĠWITH":8720,"Ġê³":8721,"close":8722,"Ġpicture":8723,"Ġdag":8724,"Ġbottom":8725,"ĠSam":8726,"Ġverb":8727,"Ġkwa":8728,"ĠBase":8729,"Ġcollege":8730,"Ġessential":8731,"ÑĤÑĮ":8732,"Ġroad":8733,"ĠIT":8734,"áĥĶáĥĳáĥĺ":8735,"icks":8736,"Ġcommit":8737,"Serial":8738,"àª°à«įàª":8739,"Ġdoesn't":8740,"unsigned":8741,"'];Ċ":8742,"Ġsettings":8743,"Ġinnov":8744,"å®ļ":8745,"Ġsleep":8746,"Ġnames":8747,"Ġearn":8748,"Ð¾Ðµ":8749,"ĠOctober":8750,"}ĊĊĊ":8751,"à°¦":8752,"sych":8753,"Ġsold":8754,"ĠDown":8755,"éĩĮ":8756,"reci":8757,"ÑģÐ»":8758,"ims":8759,"Ġcin":8760,"ĠProject":8761,"à´Ļ":8762,"×ķ×Ļ×":8763,"ĠVector":8764,"ĠØ¬ÙĬ":8765,"_array":8766,"Ġphoto":8767,"ĠKing":8768,"Ġign":8769,"Ġ×Ķ×Ĳ":8770,"Ġextrem":8771,".a":8772,"Ġwoman":8773,"Ġunsigned":8774,"space":8775,"Ġawá»įn":8776,"Ð°ÑĢÑĤ":8777,"Ġpul":8778,"BUG":8779,"111":8780,"iller":8781,"à³Ĭ":8782,"Ġparents":8783,")).":8784,"Ġsolid":8785,"ĠLo":8786,"Ġdurch":8787,"ĠÐ¾ÑĢ":8788,"Ġsituation":8789,"aturday":8790,"ç³":8791,"Render":8792,"ĠĠĠĠĠĠĠĠĠĠĠĠĠĠĠĠĠĠĠĠĠĠĠĠĠĠĠĠĠĠĠĠĠĠĠĠĠĠĠĠĠĠĠĠĠĠĠ":8793,"Trace":8794,"oles":8795,"Die":8796,"-de":8797,"_TYPE":8798,"ĠmÃ¡":8799,"ibly":8800,"éķ":8801,"angular":8802,"Ġlost":8803,"DS":8804,"Ġgoes":8805,"Ġadvert":8806,"Ġitself":8807,"Ġbenefits":8808,"à·Ķ":8809,"OG":8810,"ws":8811,"Ġinternal":8812,"property":8813,"à®®à¯į":8814,"ĠÕ¸ÖĢ":8815,"ä¹°":8816,"Ġ\"<":8817,"Ġenh":8818,"Ġevid":8819,"ĠAlso":8820,"istration":8821,"à¦¾à¦ķ":8822,"_sh":8823,"Ġsatisf":8824,"Ġhour":8825,"ĉĉĉĊ":8826,"Ġmodule":8827,"ÑģÑĮ":8828,"Ġmuy":8829,"ancy":8830,"Ġtrip":8831,"Ã³s":8832,"ĠGNU":8833,"_date":8834,"ĠÐĹ":8835,"fg":8836,"cat":8837,"ÙĦØ§Ùħ":8838,".key":8839,"Ġregul":8840,"Ġpositive":8841,"à¸Ĥ":8842,"Ùı":8843,"Ġuses":8844,"Ġrot":8845,"oriz":8846,"Ġsmart":8847,"Ġà¤²à¤¿à¤ı":8848,".widget":8849,"Ġcab":8850,"Ġgreen":8851,"à¤¾à¤Ī":8852,"áĢĢ":8853,"ĠĠĠĠĠĠĠĠĠĠĠĠĠĠĠĠĠĠ":8854,"Ġprofile":8855,".'":8856,"AA":8857,"Ãľ":8858,"Ġdesde":8859,"ÙĪØ³":8860,"Ġchalleng":8861,"store":8862,"Ptr":8863,"aja":8864,"Cache":8865,"Ġstructure":8866,"éĤ":8867,"Ġdiff":8868,".X":8869,"ãĤī":8870,".show":8871,"mat":8872,".body":8873,"Ġà¸ļ":8874,"craft":8875,"63":8876,"_CON":8877,"ruary":8878,"Ġdrink":8879,"lichen":8880,"Ġgirl":8881,"áĥĺáĥĵ":8882,"Ġdark":8883,"Home":8884,"Ġcov":8885,"Ð¾Ñı":8886,"ĠMost":8887,"ĠBig":8888,"ĠØ°":8889,"Ġtransfer":8890,".Point":8891,".info":8892,"asic":8893,"Ġdoesn":8894,"Ġcontains":8895,"Ġgroups":8896,"Ġconsist":8897,"à¸Ńà¸Ļ":8898,"iu":8899,".google":8900,"Ġopin":8901,"refix":8902,"åĲİ":8903,"eles":8904,"Database":8905,"à°ª":8906,"Ġpes":8907,"Ġrat":8908,"Device":8909,"Ġkut":8910,"Ġ[]Ċ":8911,"ĠCreated":8912,"åº¦":8913,"_ch":8914,"åħ³":8915,"Ġhighly":8916,".send":8917,"Ġê¸":8918,"Ġtmp":8919,"Ġled":8920,"Ġ?>Ċ":8921,"Ġraz":8922,"how":8923,"version":8924,"ASE":8925,"Ġà¦ªà§įà¦°":8926,"imiento":8927,"]]":8928,"à¥ģà¤°":8929,"ãģĬ":8930,"Ġdriver":8931,"(key":8932,"Ġà¹ģ":8933,"udent":8934,"Ġplans":8935,"æ°´":8936,"alled":8937,"Offset":8938,"çĲĥ":8939,"Ġà¦ļ":8940,"legate":8941,"otos":8942,"å·¥":8943,"à¤«":8944,"à¤¸à¥ĩ":8945,"Ġàª²":8946,"62":8947,"ĠÐ»Ñİ":8948,"{ĊĊ":8949,"Ġhands":8950,"Callback":8951,"(P":8952,"Ð¾ÑĢÐ¼":8953,"61":8954,"usher":8955,"91":8956,"Ġmm":8957,"ovie":8958,"Ġcosts":8959,"/*Ċ":8960,"Ġnue":8961,"Ð°ÑĤÐ°":8962,"ĠìĪĺ":8963,"ĠLos":8964,"Ġscr":8965,"iqu":8966,"Ġgives":8967,"vari":8968,"à±įà°¤":8969,"Ġìĺ":8970,"uga":8971,"Ġindepend":8972,"áĥĶáĥķ":8973,"Ġcos":8974,"Ġfine":8975,"ĠHel":8976,"Arr":8977,"Visible":8978,"Ġnj":8979,"Â®":8980,"Ġcountries":8981,"Ġfresh":8982,"outes":8983,"ĠÐķ":8984,"Ġoffset":8985,".Log":8986,"enty":8987,"à¶¸":8988,"ĠÂ£":8989,"æģ":8990,"voir":8991,".tr":8992,"'=>":8993,"ç½ĳåĿĢ":8994,"ĠOpt":8995,"IX":8996,"à²Ł":8997,"rypt":8998,"Ġcit":8999,"(*":9000,"look":9001,"imest":9002,"Ò¯Ð½":9003,"ÙĪÙĬ":9004,"à¸²à¸Ļ":9005,"Ġà´ļ":9006,"ãĥª":9007,"á»ĵ":9008,"Ð¸Ð¿":9009,".Is":9010,"ebug":9011,"Ġmyself":9012,"grade":9013,"ĠUN":9014,"Ġkat":9015,"è®¡åĪĴ":9016,"Ð¸Ð±":9017,"ë©´":9018,"akk":9019,"uario":9020,"Direct":9021,".event":9022,"ĠìĤ¬":9023,"ĠLet":9024,"Ġlic":9025,"çİ©":9026,"ORM":9027,"á»¯":9028,"Ġcapital":9029,"Ġnut":9030,"oga":9031,".E":9032,"Report":9033,"éĢļ":9034,"apped":9035,"augh":9036,"bool":9037,"æ¸ħ":9038,"ĠÚ©Ûģ":9039,".k":9040,"Ġsyn":9041,"totype":9042,"à±įà°²":9043,"Ġinj":9044,"ÙħØ±":9045,"ĠëĤ":9046,"Ġpiece":9047,"æĹ¥æľ¬":9048,"ĠÎ½Î±":9049,"Run":9050,"Spec":9051,"×Ļ×Ķ":9052,"ĠCollege":9053,"Ġjud":9054,"Ġven":9055,"ĠsÃ£o":9056,"ANG":9057,"ĨĴ":9058,"Ġcat":9059,"crypt":9060,"Exp":9061,"Transaction":9062,"oration":9063,"Ġideal":9064,".Write":9065,"Ġ×ľ×Ĳ":9066,"icio":9067,"GB":9068,"ĠVol":9069,"æĹłçłģ":9070,"áĥĿáĥľ":9071,"Ġproviding":9072,"âĢĻun":9073,"æĬķ":9074,"ĠIh":9075,"Ġnumer":9076,"Ġmedic":9077,"iber":9078,")->":9079,"uen":9080,"avior":9081,"covery":9082,"ÛĮÙħ":9083,"uu":9084,"ĠProf":9085,"Ġini":9086,"áĥ£áĥł":9087,"à¤¨à¥Ģ":9088,"Ġfat":9089,"Ġmog":9090,"Ø³Ø¨":9091,"IES":9092,"<int":9093,"));čĊ":9094,"Ass":9095,"Ġindustr":9096,"}`":9097,"ĠÐ²Ð¾Ð·":9098,"Ø§ÙĤ":9099,"Ġshop":9100,"ĠvÃł":9101,"aron":9102,"ĠPlay":9103,"ĠÃªtre":9104,"ĠØ§ÙĦØ±":9105,"Ġuntuk":9106,"Ġprimary":9107,"(request":9108,"Ġneigh":9109,"ifications":9110,"nik":9111,"ĠResult":9112,"Ġdefined":9113,"ĠÓĻ":9114,"Ġfinish":9115,"åĬł":9116,"edef":9117,"_text":9118,"andle":9119,"Profile":9120,"ĠFoundation":9121,"OB":9122,"ĠâĢ¦ĊĊ":9123,"Ġpelo":9124,"MP":9125,"war":9126,"_NAME":9127,"é¦Ļ":9128,"Ġ[\"":9129,"999":9130,"Ø§Øµ":9131,"append":9132,"Contact":9133,".I":9134,"ĠPor":9135,".equals":9136,"Ġë³":9137,"Ġsizeof":9138,"process":9139,"Ġrequirements":9140,"Ġcompletely":9141,"ords":9142,"Ð¾Ð»ÑĮÐºÐ¾":9143,"Ġwarm":9144,"del":9145,"Ãĸ":9146,"Ġ×¢×ľ":9147,"ONE":9148,"KEY":9149,"Ġdaar":9150,"'],":9151,"ĠUpdate":9152,"Î¶":9153,"à¦¾à¦®":9154,"Ġoc":9155,"Ġbak":9156,"LOG":9157,"éĵ":9158,"ĠTR":9159,"Ġpare":9160,".z":9161,"router":9162,"Ġagus":9163,"×ķ×ŀ":9164,"Ġguide":9165,".type":9166,"IND":9167,".content":9168,"SD":9169,"ĠFil":9170,"Ġban":9171,"());ĊĊ":9172,"ĠÎ¼Îµ":9173,"gre":9174,"idi":9175,"Ġmeeting":9176,"ĠÕ¸ÖĤ":9177,"ĠMessage":9178,"áĢ±":9179,"Ġchanged":9180,"à²¨à³įà²¨":9181,"\",čĊ":9182,"Ġworked":9183,"ĠNumber":9184,"è§Ħ":9185,"description":9186,"ĠPage":9187,"ming":9188,"ĠPresident":9189,"returns":9190,"BD":9191,"Ġmol":9192,"Ġ'../":9193,"angan":9194,"Ġindividuals":9195,"ĠDi":9196,"Ġprime":9197,"Ġserious":9198,".trans":9199,"ĠØ§ÙĦØ°":9200,"ford":9201,"ÛĮØ§":9202,"ĠãĤ":9203,"Ġedit":9204,"Ã³w":9205,"ĠURL":9206,"ĠDecember":9207,"uka":9208,"ĠInitial":9209,"plot":9210,"ĠÙĦØ§":9211,"VER":9212,"\":Ċ":9213,"æºĲ":9214,"dates":9215,"Ġpeut":9216,"Ġoo":9217,"à¶ļ":9218,"iek":9219,"Ġconstructor":9220,"ĠRuss":9221,"atz":9222,"utter":9223,"Ġdead":9224,"Ġye":9225,"éĴ±":9226,"åĨħ":9227,"Met":9228,"ĠHT":9229,"imp":9230,"Parser":9231,"ĠAR":9232,"gs":9233,"×ķ×Ŀ":9234,"Ġpeu":9235,"edding":9236,"Ġ[[":9237,"ĠCall":9238,"Ġbyte":9239,"Ġversch":9240,"More":9241,"build":9242,"Core":9243,"193":9244,"rome":9245,"Ġsafety":9246,"Ġthemselves":9247,"Ð²ÐµÑĢ":9248,"Ġmount":9249,"Ġà¤ħà¤ª":9250,"ï»¿using":9251,"®ä¿¡":9252,"Bean":9253,"Ġformer":9254,"(:":9255,"Ġcm":9256,"uba":9257,"Ġsetting":9258,"Ġexecut":9259,"Ġstress":9260,"ĠØ§ÙĦØªÙĬ":9261,"Ġdirection":9262,"})":9263,"Ġpub":9264,"-control":9265,"ĠItem":9266,"Async":9267,"æĸĻ":9268,"à°¡":9269,"à¯įà®ķà®³":9270,"estion":9271,"adow":9272,"ì£¼":9273,"ieder":9274,"Ġlig":9275,"uman":9276,"Ġpayment":9277,"Ġcreating":9278,"Ġallowed":9279,"Ġ\"\"\"":9280,"Ġvit":9281,"Ġcontainer":9282,"application":9283,"Ġ*/Ċ/":9284,"rec":9285,"ĠDas":9286,"ÑĭÐ½Ð´Ð°":9287,"ĠÐ²Ð°":9288,"Ġdidn't":9289,"rd":9290,"connect":9291,"(ex":9292,"ĠÃ®n":9293,"ìĻ":9294,"Ġfix":9295,"embre":9296,"Ġwood":9297,"àµįà´Ļ":9298,"à°¯":9299,"130":9300,"Ġdescrib":9301,"oco":9302,"ÉĻn":9303,"comes":9304,"erman":9305,"Ãºblic":9306,"Ġ-->":9307,"à´¿à´ķàµįà´ķ":9308,"mail":9309,"CS":9310,":'":9311,"ĠEvery":9312,".service":9313,"è¡¨":9314,"ĠDu":9315,"íĥ":9316,"ĠAus":9317,"Ġscale":9318,"ĠNO":9319,"gb":9320,"icated":9321,"Òµ":9322,".Font":9323,"Ġdistance":9324,"Ġmb":9325,"åĽ½äº§":9326,"Ġeffects":9327,"ÙĪØ¬":9328,"inue":9329,"ander":9330,"ĠChar":9331,"anna":9332,"Ġsummer":9333,"Ġchannel":9334,"Ġhelps":9335,"(\"%":9336,"ARRANT":9337,"Ġraise":9338,"Author":9339,".api":9340,"ĠÑĢÐ°Ð±Ð¾ÑĤ":9341,"Ġcash":9342,"console":9343,"ĠĠĠĠĠĠĠĠĠĠĠĠĠĠĠĠĠĠĠĠĠĠĠĠĠĠĠĠĠĠĠĠĠĠĠĠĠĠĠĠĠĠĠĠĠĠĠĠĠĠĠĠĠĠĠĠĠĠĠĠĠĠĠĠ":9344,"Document":9345,"ĠIll":9346,"ĠÐ´Ð°ÑĢ":9347,"Ġprepar":9348,"Ġpush":9349,"Ġstuff":9350,"Ġkunnen":9351,"ĠNet":9352,"å¯¹":9353,"nap":9354,"Ġped":9355,"Ġbur":9356,"Ð¸Ð»ÑĮ":9357,"ĠQue":9358,"Ġsuccessful":9359,"ìĦ±":9360,"itos":9361,"Ġlinks":9362,"Ġfailed":9363,"-md":9364,"Ġandere":9365,"ATH":9366,"Ġoptim":9367,"Ġsolutions":9368,"Match":9369,"à²¿à²¸":9370,"Ġhem":9371,";i":9372,"Ġsport":9373,"ĠChe":9374,"REE":9375,"iforn":9376,"ĠFriday":9377,"ĠOp":9378,"ÙĪØ²":9379,"column":9380,"áĥĲáĥ®":9381,"ĠWARRANT":9382,".load":9383,"à¤¾à¤ķ":9384,"aku":9385,"Ġstrength":9386,"ĠAssoci":9387,"à³įà²¦":9388,"ëĵľ":9389,"itect":9390,"Ġapplications":9391,"ĠÕ¡Õµ":9392,"ĠMake":9393,"alian":9394,"(context":9395,"sembly":9396,"à´¿à´ļàµįà´ļ":9397,"Ġexclus":9398,"illing":9399,"à¦¿à¦²":9400,"android":9401,"Ġstage":9402,".awt":9403,"Ð»ÑĮ":9404,"Ġvict":9405,"-A":9406,"Ġstates":9407,"Enter":9408,"queue":9409,"_y":9410,".sc":9411,"ĠtrÃ¨s":9412,"à®¤à¯ģ":9413,".jpg":9414,"Ġáĥķ":9415,".as":9416,"¹Ħ":9417,"Screen":9418,"Ġconduct":9419,"Ġpuede":9420,"Ġprintf":9421,"ĠBit":9422,"Ð°Ð»Ñĭ":9423,"ĠprÃ©":9424,"Ûĩ":9425,"Ġaccur":9426,"Ġcamera":9427,"iture":9428,"Rec":9429,"ç³»":9430,"nbsp":9431,"æĬ¥":9432,"iately":9433,"Ġmun":9434,"istas":9435,"Ġconvers":9436,"à¦£":9437,"ĠAndroid":9438,"Ġbasic":9439,"Ġdrop":9440,"ĠCode":9441,"():":9442,"ality":9443,"160":9444,"Ġinterested":9445,"Ġcounter":9446,"assen":9447,"à¦¾à§°":9448,"ÄĮ":9449,"/j":9450,"Ð½Ð¾Ð²":9451,"azi":9452,"loc":9453,"erry":9454,"çĽ´":9455,"pet":9456,"gel":9457,"ĠDem":9458,"late":9459,"à¦¾à¦ĩ":9460,"Ġdengan":9461,"Ġrent":9462,"extern":9463,"Ġlogin":9464,"ibt":9465,"orial":9466,"hs":9467,"ICE":9468,"ĠVis":9469,"ÑĢÑĥÐ³":9470,"UID":9471,"ãĤĮ":9472,"Ġàª¶":9473,"Ġconsidered":9474,"($_":9475,"çĻ»":9476,"volution":9477,"uan":9478,"_state":9479,"wers":9480,"Ġentity":9481,"Ø¯Ø§":9482,"ĠÃ©s":9483,"à¤¤à¥Ģ":9484,"'],Ċ":9485,"è½¯":9486,"Ġ{@":9487,"amer":9488,"double":9489,"Ġsuff":9490,"ĠÐ°Ð²":9491,"Servlet":9492,"ĠResponse":9493,"ÑģÑĤÐ²Ð¾":9494,"Ġmuito":9495,"-group":9496,"Ġelif":9497,"à¦¾à¦¤":9498,"åľ¨çº¿è§Ĥçľĭ":9499,"kw":9500,"Ð¿ÑĢ":9501,"Ġcallback":9502,"()).":9503,"Ġdefinitely":9504,"§ç¾İ":9505,"Ġoperation":9506,"emy":9507,"à¸³":9508,".Generic":9509,"Ġfair":9510,"å®ŀ":9511,"HTML":9512,"à²²à³įà²²à²¿":9513,"áĢĲ":9514,"Ġimg":9515,"ìłĦ":9516,"Ð¼ÐµÐ½":9517,"Ġpartner":9518,"aden":9519,"Ġencour":9520,"ÑĨÑĸ":9521,"(file":9522,"asks":9523,"raz":9524,"onn":9525,"_dir":9526,"ville":9527,"avo":9528,"ĠAmazon":9529,"áĥĶáĥĹ":9530,"ĠÕ½":9531,"Ġàª¤à«ĩ":9532,"æĪı":9533,"700":9534,"áĥĳ":9535,"aled":9536,"ĠåĽ":9537,"Ġalign":9538,"]=":9539,"Ġvehicle":9540,"Ġforeach":9541,"lying":9542,"ĉconst":9543,"ç»¼":9544,"_log":9545,"Ġez":9546,"lor":9547,"Ö¼":9548,"othing":9549,"ĠÐ¿Ð»":9550,"Ã¡ri":9551,"ĠðŁ":9552,"åĲĮ":9553,"Ġemerg":9554,"NA":9555,"ĠâĢĻ":9556,"Ð°Ð¼Ð¸":9557,"ĠÑĥÑĩ":9558,"Ġinteresting":9559,"Ġhuge":9560,"Writer":9561,"à¤¾à¤ĩ":9562,";ĊĊĊ":9563,".props":9564,"Att":9565,"write":9566,"Ġcertainly":9567,"ĠSur":9568,"ĠUSA":9569,"Ġrespond":9570,"Ġbasis":9571,"ÑĤÑĥ":9572,"(in":9573,"endre":9574,"-sm":9575,"Tab":9576,"total":9577,"Ġforce":9578,"Ġobtain":9579,"FAULT":9580,"ployee":9581,"éĸ":9582,"Ġpadding":9583,"vention":9584,"×Ļ×ĺ":9585,"aver":9586,"ÙĨÙĬ":9587,"\"+":9588,"onstr":9589,"anti":9590,"Ġshape":9591,"çĭ":9592,"Ð°Ð½Ð¸Ñı":9593,"Ġconstant":9594,"Ġexisting":9595,"Ġbirth":9596,"Aut":9597,"Ġhear":9598,"Ġshared":9599,"Effect":9600,"à´¾à´¨":9601,"Ġfest":9602,"home":9603,"ÏģÎ¹":9604,"aca":9605,"venue":9606,"Ġrules":9607,"fi":9608,"ĠReturns":9609,"Ġplaces":9610,"à¥ĭà¤Ĺ":9611,"Ġveel":9612,"\">čĊ":9613,"nost":9614,"ĠÚ©Ø§":9615,"mal":9616,"liche":9617,"à¦Ĥ":9618,"Head":9619,"']['":9620,"Ġparameters":9621,"ĠDen":9622,"Ġeyes":9623,"Ġsea":9624,"ikan":9625,"ÃŃas":9626,"uten":9627,"Ed":9628,"ĠmÃ¼":9629,"Ġdepend":9630,"è¯´":9631,"ÙĨØª":9632,"Ġ\"./":9633,"ĠHotel":9634,"Ġessay":9635,"Ġrelig":9636,"Ġfully":9637,"ÙħØ©":9638,"áĢĦ":9639,"MENT":9640,"Ġflag":9641,"Ġstra":9642,"\"/>Ċ":9643,"áĥ¥":9644,"erve":9645,"Ġ×ĵ×Ļ":9646,"Ġgebru":9647,"Ġakt":9648,"(`":9649,"ÙĩÙĬ":9650,"osten":9651,"ĠØªØ¹":9652,"à²ª":9653,"Handle":9654,"ĠMr":9655,"Ġroute":9656,"Ġappropr":9657,"ĠRel":9658,"190":9659,"Ġtheme":9660,"DD":9661,"Ġcommercial":9662,"ĉg":9663,"à¤¹à¥Ģà¤Ĥ":9664,"-L":9665,"-pro":9666,"berg":9667,"haps":9668,"ĠTem":9669,"Ð°Ð½Ð°":9670,"Ä±ÅŁ":9671,"ÑįÑĢ":9672,"cons":9673,"Ġculture":9674,"Ġà¦¬à¦¿à¦":9675,"Ġpurpose":9676,"à²¤à³įà²¤":9677,"ivos":9678,"ĠmÃªme":9679,"Car":9680,"ĠÐ±Ñĥ":9681,"Ġreference":9682,"unda":9683,"Ġpode":9684,"é£":9685,"Ð½Ð¾Ð¼":9686,"access":9687,"Ġwall":9688,"à¤°à¥ĩ":9689,"ĠtambÃ©m":9690,"ĠTODO":9691,"ÙĪÛĮ":9692,"Ġporque":9693,"ĠÐ±Ð°ÑĢ":9694,"à¦¿à§Ł":9695,"Ġpens":9696,"èª":9697,"Ò©":9698,"Ġ>Ċ":9699,"ĠGood":9700,"ĠCap":9701,".open":9702,"ells":9703,"ĠÐ°Ð´":9704,"ĠServices":9705,"ĉvoid":9706,"Ġexactly":9707,"ĠMer":9708,"ĠCompany":9709,"Ġstatement":9710,"ifornia":9711,"inu":9712,");Ċ//":9713,"Ġmeasure":9714,"ĠDepartment":9715,"Ġorganization":9716,"Ġà¤Ĩà¤ª":9717,"Ġdifer":9718,"Your":9719,"Ġunter":9720,"ĠsiÄĻ":9721,"é©":9722,"à¤¾à¤Ĺ":9723,"Ġgran":9724,"vement":9725,"Ġpackage":9726,"Ġvector":9727,"obs":9728,".bind":9729,"(\"\\":9730,"////////////////////////////////":9731,".config":9732,"Ġnombre":9733,"uru":9734,"')ĊĊ":9735,".index":9736,"han":9737,"à¥įà¤¥":9738,"oda":9739,"ĠLaw":9740,"ĠLondon":9741,"Ġdeveloped":9742,"çĥ":9743,"Ġenv":9744,"Ġlicense":9745,"))ĊĊ":9746,"Ġtra":9747,"ursday":9748,"arrant":9749,"(object":9750,"Ġadvant":9751,"900":9752,"Ġsurface":9753,"à´¾à´£":9754,"respond":9755,"']Ċ":9756,"aved":9757,"centr":9758,"Ġpoder":9759,"EC":9760,"ç»ĵ":9761,"Ġmix":9762,"ãĥ¼ãĥ":9763,"ĠFind":9764,"Ġsoll":9765,"assets":9766,"Ã¨me":9767,"Ġeg":9768,"áĥª":9769,"Ġconstruction":9770,"Ġmotor":9771,"bet":9772,"plies":9773,"ris":9774,"à¸´à¸Ļ":9775,"ĠÙĩÙħ":9776,"à¥ī":9777,"Ġclasses":9778,"Ġpow":9779,"hes":9780,"PA":9781,"aÃ±":9782,"éĢģ":9783,"Ġfn":9784,"æľį":9785,"ontal":9786,"ĠFire":9787,"'un":9788,"Ġà´ĩ":9789,"ĠI've":9790,"Ġthinking":9791,"ĠPhil":9792,"ĠBack":9793,"Register":9794,"Ġ×ĺ":9795,"Ð´ÐµÐ»":9796,"Ġlag":9797,"ĠlÃ¤":9798,"ĠÃ©tÃ©":9799,"Ġslow":9800,"Queue":9801,"Ġmeas":9802,"hor":9803,"cut":9804,"Ġdecided":9805,"ÑĨÑĭ":9806,"Ġdream":9807,"Ġinvolved":9808,"Ġdifference":9809,"Ġà´Ĩ":9810,"Ġphysical":9811,"amo":9812,"Ġrelev":9813,"ë¶Ģ":9814,"uesday":9815,".App":9816,"thread":9817,"Ġio":9818,"Ġnamespace":9819,"Float":9820,"Ġjaar":9821,"Ġreported":9822,"Ð¾Ð½Ð°":9823,"Ġvill":9824,"itz":9825,"oul":9826,"-v":9827,"Ġsans":9828,"Ð°ÑĤÐµÐ»ÑĮ":9829,"Ġpela":9830,"Ġcast":9831,"ĠÎŃ":9832,"ĠGold":9833,"_num":9834,"\");":9835,"Ġeditor":9836,"Ġrates":9837,"ä½į":9838,"ĠII":9839,"Ð½Ð¸Ò£":9840,"Ġintent":9841,"Ġsomet":9842,"DC":9843,"was":9844,"ednes":9845,"=\"#":9846,"Fragment":9847,"Ġfight":9848,"à±Ī":9849,"Ġcookies":9850,"strong":9851,"Ġcarry":9852,"Ġleur":9853,"à±įà°Ł":9854,"\\/":9855,"Ġdiagn":9856,"ashion":9857,"Ġtips":9858,".test":9859,"ĠÕ¥Õ¶":9860,"Ġblue":9861,"Ġcharacters":9862,"agon":9863,"Ø§Ø¶":9864,"iced":9865,"QU":9866,"quis":9867,"Est":9868,"Ġvent":9869,"360":9870,"ìłģ":9871,"ï¼Ľ":9872,"aught":9873,"Ġgiving":9874,"filter":9875,"74":9876,"Öī":9877,"æİ¥":9878,"Ġfelt":9879,"bel":9880,"_.":9881,"Ġdegree":9882,"Ð²ÐµÑĤ":9883,"åŁİ":9884,"ÑĤÐ¾ÑĢ":9885,"Ġ$(":9886,"Ġlab":9887,"igration":9888,"áĥĺáĥĲ":9889,"Ġpressure":9890,"Ġconven":9891,"tected":9892,"=(":9893,"Ġaussi":9894,"PORT":9895,"Ø§Ø¬":9896,"àª¡":9897,"ç»¼åĲĪ":9898,"à´¾à´°":9899,"Statement":9900,"ĠÐ½Ð¾":9901,"Ġ{}":9902,"ĠStreet":9903,".btn":9904,"ĠAction":9905,"Ġ('":9906,"allet":9907,"(D":9908,"Success":9909,"Ġsecret":9910,"ìľ¼ë¡ľ":9911,"73":9912,"Ġlimited":9913,"Ġtun":9914,"ä»Ģ":9915,"à¤¡à¤¼":9916,"Ġreleased":9917,"Ġlan":9918,"Ġê°Ģ":9919,"Ġrad":9920,"=\"<?":9921,"Graph":9922,"ĠsÃ³":9923,"Ġreserved":9924,"call":9925,"ĠMat":9926,"Ġpaid":9927,"84":9928,"à¤¾à¤°à¥Ģ":9929,"alla":9930,"rier":9931,"Rece":9932,"Ġkal":9933,"iar":9934,"RED":9935,"bu":9936,")));Ċ":9937,"æĶ¾":9938,"ĠShow":9939,"ĠÐ¿ÑĢÐ°":9940,"è½¯ä»¶":9941,"Ġmaster":9942,"Admin":9943,"Net":9944,"bre":9945,"Ġbudget":9946,"Ġsolo":9947,"pass":9948,"ĠON":9949,"ĠBank":9950,"×©×¨":9951,"Ġdry":9952,"Non":9953,"Ã¯":9954,"usi":9955,"à¥įà¤¯à¤¾":9956,"pared":9957,"ĠCard":9958,"çĪ±å½©ç¥¨":9959,"Es":9960,"éĿ¢":9961,"à¯ĭ":9962,"ĠValue":9963,"Ġfunctions":9964,"Ð¾Ð»ÑĮÐ·":9965,"lie":9966,"oli":9967,"iverse":9968,"_test":9969,"Ġstories":9970,"ĠPoint":9971,"_error":9972,"ixel":9973,"SELECT":9974,"Ġmul":9975,"Names":9976,"Õ¥Õ½":9977,"ventory":9978,"Ġtowards":9979,"ĠØ£ÙĪ":9980,"ĠVi":9981,"Ġviel":9982,"house":9983,"esome":9984,"áĥ£áĥļáĥĺ":9985,"Ġgem":9986,"Ġsust":9987,"white":9988,"81":9989,"achine":9990,"Script":9991,"display":9992,"organ":9993,"case":9994,"like":9995,"orith":9996,"åĭ":9997,"ĠInstit":9998,"oup":9999,"à¹ĥ":10000,"Modal":10001,"RES":10002,"×¢×ł":10003,"ĠVersion":10004,"Ġmother":10005,"Ġmiddle":10006,"ĠEt":10007,".pre":10008,"ĠØªØŃ":10009,"esse":10010,".Tab":10011,"àµĩà´":10012,"äºİ":10013,"require":10014,"àµģà´Ł":10015,"(item":10016,".save":10017,"71":10018,".Controls":10019,"words":10020,"Ġspot":10021,"Ġunivers":10022,"Ġcum":10023,"fÃ¼":10024,"Ġà®İ":10025,"los":10026,"amil":10027,"Ġvideos":10028,"bb":10029,"ednesday":10030,"Ġà¤Ł":10031,"Ġwenn":10032,"yon":10033,"æĬĢ":10034,"ĠHo":10035,"àªŁ":10036,"191":10037,"Ġsymbol":10038,"Ġ:Ċ":10039,"åľº":10040,"Ø§Ø±Ø©":10041,"doc":10042,"Ġposts":10043,"jar":10044,"Ò·":10045,"essa":10046,"'),":10047,"ecause":10048,"ĠCH":10049,"-C":10050,"aza":10051,"ç®¡":10052,"_on":10053,"(input":10054,"ĠÃī":10055,"èĪ":10056,"ĠMo":10057,"izz":10058,"ĠÖĩ":10059,"REF":10060,"Reference":10061,"vr":10062,"à¦¾à§Ł":10063,"Ġdoll":10064,"ĠUm":10065,"rought":10066,"Ġmoving":10067,"à°¿à°ķ":10068,"Ġsometimes":10069,"Ġsender":10070,"osition":10071,"ĠLeg":10072,"ï¼ģĊĊ":10073,"Ġpm":10074,"Ġspend":10075,"Õ£":10076,"Ġkur":10077,"Ð½Ð°Ñĩ":10078,"ĠPower":10079,"ÑĭÑĪ":10080,"strap":10081,"Ġreplac":10082,"Loc":10083,"Ġkitchen":10084,"nel":10085,"Ġett":10086,"ĠDevelop":10087,"92":10088,"Ġcore":10089,"ĠInput":10090,"wan":10091,"æĭį":10092,"ĠMax":10093,"Ġgrande":10094,"ÑģÑĤÐ²Ð°":10095,"Ġkont":10096,"ĠClick":10097,"ĠLand":10098,"ĠÐ°Ðº":10099,"ÙĬÙģ":10100,"/**":10101,"Ġgoed":10102,"Ġà¦Ń":10103,"âĦ":10104,"lines":10105,"alert":10106,"Ø±Øª":10107,"ĠIP":10108,"áĥĶáĥłáĥ":10109,"Ġmail":10110,"ulate":10111,"Ġmaybe":10112,"ipes":10113,"Ġdump":10114,"\")]Ċ":10115,"82":10116,"_ptr":10117,"Ġundefined":10118,"ĠCour":10119,"Ġbaby":10120,"å¼ĢæĪ·":10121,"à§įà¦Ł":10122,"ï¿½ï¿½":10123,"ĠApple":10124,"¥à«Ģ":10125,"coin":10126,"83":10127,"ĠFrance":10128,"å»":10129,"äº¤":10130,"ferences":10131,"åı¸":10132,"Ġdecis":10133,"yan":10134,"Channel":10135,"det":10136,"×Ļ×ĵ":10137,"Ġcours":10138,"Ġsat":10139,"ĠMart":10140,"AST":10141,"alloc":10142,"Ġsoft":10143,"Ġgratis":10144,"ellig":10145,"Ġmort":10146,"Ġshown":10147,"ĠTask":10148,"nÃ©":10149,"æ¸¸æĪı":10150,"éª":10151,"rote":10152,"Pat":10153,"åĽŀ":10154,"Ġons":10155,"à°¾à°¨":10156,"Like":10157,"-time":10158,"atalog":10159,"ç©":10160,"estroy":10161,"Åŀ":10162,"Ġpesso":10163,"×Ļ×ķ×ª":10164,"140":10165,".junit":10166,"Parameters":10167,"Ġ{Ċ//":10168,"Õ¬":10169,"æŃ£":10170,"ech":10171,"LS":10172,"Initial":10173,"Ġhund":10174,"Ġgave":10175,"Ġsample":10176,"å½ķ":10177,"à´Ļàµįà´Ļ":10178,"amiento":10179,"allow":10180,".start":10181,"à±Ĥà°":10182,"ĠEdit":10183,"Ġguarante":10184,"Ġspecified":10185,"lands":10186,"esis":10187,"áĥĶáĥĵ":10188,"Ġgeen":10189,"ĠĠĠĊ":10190,"tu":10191,"Ġattack":10192,"ĠRequest":10193,"Ã©rie":10194,"());čĊ":10195,"ted":10196,"xis":10197,"ĠJapan":10198,"Ġreve":10199,"ĠÑģÐ¼":10200,"wy":10201,"ae":10202,"à±ģà°²":10203,"æĢ»":10204,"çĦ¡":10205,"ĠFebruary":10206,"Ġprod":10207,"Ð°Ñĩ":10208,"abet":10209,".__":10210,"ĠTable":10211,"ieved":10212,"Ġ]Ċ":10213,"erap":10214,"shot":10215,"ÙĢ":10216,"Ġvs":10217,"(void":10218,"ë¯":10219,"Ġdevices":10220,"\"čĊ":10221,"Ġëª":10222,"áĥĿáĥĵ":10223,"Ġassess":10224,"Ġmundo":10225,"Ãĩ":10226,"TA":10227,"Ġà°°":10228,"\\t":10229,"Ġstraight":10230,"SC":10231,"Ġcontain":10232,"ĠàªĹ":10233,"ĠÕ¾":10234,"à¥įà¤®":10235,"àª¶":10236,"ĠEu":10237,"Cons":10238,"à´¿à´°":10239,"rooms":10240,"Ġbez":10241,"ĠHash":10242,"ĠÐ°Ð·":10243,"Ident":10244,"Play":10245,"yi":10246,"Ġà¸Ħ":10247,"Ġà¦ī":10248,"Ġplanning":10249,"Ġhtml":10250,"Ġpin":10251,"ĸáĥĶ":10252,"Ġrestr":10253,"equals":10254,"PP":10255,"à¹Īà¸Ļ":10256,"ÑĢÐ°Ð¼":10257,"Ġprev":10258,"Ġtijd":10259,"ĠMedia":10260,"Ġlayer":10261,"Ġtwe":10262,"Ġletter":10263,"EE":10264,"à®¿à®ķ":10265,"Ġadjust":10266,"å¤ľ":10267,"ļĮ":10268,"common":10269,"å¦Ĥ":10270,"ĠCO":10271,"oca":10272,"áĥĿáĥķ":10273,"Ġri":10274,"Ġotherwise":10275,"Ġ\"\";Ċ":10276,"ativa":10277,"Ġtou":10278,"áĢķ":10279,"Area":10280,"ĠÙħØ³":10281,"ĠMil":10282,"icture":10283,"Ġhop":10284,"arÃ¡":10285,"àª¾àªµ":10286,"ayo":10287,"Ġbecame":10288,".end":10289,"eln":10290,"Ġdent":10291,"Ġpassed":10292,"ĠArch":10293,"ãģĤ":10294,"ĠThank":10295,"Ġpolice":10296,"Ġhelpful":10297,"ouver":10298,"à¤¿à¤°":10299,"Ġexpos":10300,"Ġdeux":10301,"Ġrank":10302,"Îķ":10303,"QUE":10304,"Ð°ÑĤÐ¸":10305,"door":10306,"uke":10307,"Ġcampaign":10308,"IME":10309,"omic":10310,"áĥĲáĥĹ":10311,"github":10312,"front":10313,"Ġcourt":10314,"/v":10315,"-P":10316,"Ġgift":10317,"ì¶":10318,"usa":10319,".Location":10320,"ÙĦÙģ":10321,"atos":10322,"Ġpatient":10323,"è®º":10324,"Ġsports":10325,"Ġsaying":10326,"Ġbrowser":10327,"ĠAPI":10328,"Ġanti":10329,"obe":10330,"Ġsteps":10331,"Ġsud":10332,"Ġmodify":10333,"Ð¤":10334,"Ġunderstanding":10335,"idence":10336,"inas":10337,"Ġadmin":10338,"ĠÐ±ÐµÑĢ":10339,"Ġia":10340,"Ġusername":10341,"isp":10342,"ĠYear":10343,"ĠSil":10344,"itary":10345,"token":10346,".split":10347,"å¼ı":10348,"ÑĥÐ»ÑĮ":10349,"ĠProdu":10350,"ĠCanada":10351,"Dao":10352,"hn":10353,"Ġcontra":10354,"Ġà¦°":10355,"---":10356,"ĠIO":10357,"Ġrich":10358,"Day":10359,"áĥ¨áĥĺ":10360,"DR":10361,"awn":10362,"Ġlabor":10363,"Ġdamage":10364,"à´¦":10365,"Ġsau":10366,"Ã¦r":10367,"Ġìĥ":10368,"_status":10369,"Ġactions":10370,"ILITY":10371,"ãĥ»ãĥ»":10372,"las":10373,"Ġquer":10374,"Ġcual":10375,"365":10376,"Ġbegan":10377,"Comment":10378,"áº·":10379,"stant":10380,"ÐµÐµ":10381,"ĠStand":10382,"Ġargument":10383,"ologies":10384,"Ġeer":10385,"orrow":10386,"×¢×Ł":10387,"Ġsmo":10388,"Ġreduce":10389,"×Ļ×¢":10390,"mitted":10391,"å£":10392,"Ġ(*":10393,"è¯·":10394,"criptor":10395,"ÙĪØ¹":10396,"à°Ĥà°¦":10397,"ãĤ¢":10398,"ĠÑģÐ²Ð¾":10399,"Ġtx":10400,"Ġcoach":10401,"Ġbusinesses":10402,"ĠjÃ¡":10403,"imos":10404,"ĠGreat":10405,"ĠĠĠĠĠĠĠĠĠĠĠĠĠĠĠĠĠĠĠĠĠĠĠĠ":10406,"/w":10407,"Ġpanel":10408,"ĠtambiÃ©n":10409,"è£":10410,"EO":10411,"Ġsed":10412,"ensed":10413,"Ġfurn":10414,"types":10415,"Matrix":10416,"à®¤à¯įà®¤":10417,"(response":10418,"Ġgenerate":10419,"Ġjobs":10420,"ĠSO":10421,"Ġnation":10422,"ÑĸÐ´":10423,"={{":10424,"Ġ}}":10425,"eral":10426,"obil":10427,"kar":10428,"âĢĻh":10429,"SQL":10430,"ĠChristmas":10431,"Holder":10432,"à¥ĥ":10433,"ĠCOM":10434,"Pane":10435,"azione":10436,"Ġincor":10437,"ĠÐ¼Ñĥ":10438,"ulti":10439,"ronic":10440,"çĽ®":10441,"Ġnag":10442,"'a":10443,"ĠCalifornia":10444,"Ġpictures":10445,"pite":10446,"WS":10447,"Õ¡Õ£":10448,"Ġmicro":10449,"cp":10450,"ÙħÙĬ":10451,"ë§Į":10452,"Ð¾Ð±Ñĭ":10453,"Ġarm":10454,"(java":10455,"iÃ°":10456,"overn":10457,"Ġvos":10458,"ãģı":10459,"Track":10460,"æ£":10461,"ĠTwitter":10462,"];ĊĊ":10463,"Ġpresident":10464,"legal":10465,"route":10466,"ĠOs":10467,"rew":10468,"Ġwonderful":10469,"Ġmanager":10470,"Ġtried":10471,"fast":10472,"ĠOther":10473,"Ġdivers":10474,"Ġàª¹àª¤":10475,"ĠÙħØª":10476,"');":10477,"ogen":10478,"Ġíķ":10479,"Ġpolitical":10480,"ACE":10481,"Ġcorpor":10482,"Ġble":10483,".Label":10484,"æīĭæľº":10485,"àµģà´ķ":10486,"éĢī":10487,"Ġcomun":10488,"command":10489,"Role":10490,"ĠprÃ³":10491,"áĥĲáĥ¢":10492,"à¥įà¤²":10493,"Ġ{\"":10494,"Ġcurr":10495,"ĠpÅĻ":10496,"ĠSearch":10497,"Ġsupply":10498,"Ġthous":10499,"acle":10500,"Draw":10501,"ÒĵÑĭ":10502,"ĠWord":10503,"Ġcout":10504,"Ġserve":10505,"ÙĪØª":10506,"(\".":10507,"Ġreturned":10508,"Ġhealthy":10509,"Parent":10510,"Ġtip":10511,"Ġhus":10512,"qar":10513,"usion":10514,"Ð½ÑĥÑİ":10515,"Ġnav":10516,"grad":10517,"Ġplayed":10518,"Ġadvice":10519,"à¤¾à¤¥":10520,"Amount":10521,"mut":10522,"ĠConfig":10523,"ĠÙħØ´":10524,"Ġbere":10525,"Ġbeginning":10526,"Ð°ÐµÑĤ":10527,"imin":10528,"ĠWash":10529,"Ġdol":10530,"itan":10531,"Ġces":10532,"iano":10533,"Ð¸Ð»Ð°":10534,".Component":10535,"ĠÙĪØª":10536,"ĠJesus":10537,"à¦¯à¦¼":10538,"Ġregarding":10539,"Ġbem":10540,"Ġcards":10541,"Ġheard":10542,"Õ¹":10543,"å®¢":10544,"94":10545,"Btn":10546,"ĠAre":10547,"¡°":10548,"Ġdress":10549,"esto":10550,"IAL":10551,"Ġtrade":10552,"ĠDavid":10553,"Users":10554,"ä»Ģä¹Ī":10555,"Gu":10556,"Ġlayout":10557,"ĠWhite":10558,"ĠBet":10559,"ĠSunday":10560,"Ġeigen":10561,"Ġmaximum":10562,"Ġvec":10563,"(N":10564,"Ġpand":10565,"LC":10566,"è§£":10567,"Ð¾ÑĤÑĢ":10568,"Ä±nÄ±":10569,"kg":10570,"à¯Ĭ":10571,"à¦¾à¦¬":10572,"93":10573,"Ġlargest":10574,"à²Ĺà²³":10575,"Ġsaved":10576,"ĠRep":10577,"×Ļ×ĳ":10578,"Ġà¤²à¥ĩ":10579,"asion":10580,"arily":10581,"ITE":10582,"Ø¨ÙĦ":10583,"é¡µ":10584,"Ġneces":10585,"Ġgrid":10586,"Î½Î¿":10587,"Õ¸ÖĤÕ©ÕµÕ¡Õ¶":10588,"Ġprincipal":10589,".for":10590,"Ġspeak":10591,"anging":10592,"Ġvend":10593,"Full":10594,"shop":10595,"Ang":10596,"ĠÐ¿Ð¾Ð¼":10597,"éĻ¢":10598,"Ġê·¸":10599,"ĠÐŃ":10600,"isten":10601,"_class":10602,"æ¸¯":10603,"Ġarticles":10604,"porary":10605,"Ġgrowing":10606,"_image":10607,"ĠIns":10608,"Ġheat":10609,"Ġpair":10610,"Ġáĥĳ":10611,"'h":10612,"Ġquel":10613,"ĠTex":10614,"oka":10615,"DTO":10616,"Ge":10617,"should":10618,"Õ¡Õ¬":10619,"Now":10620,"Ġiter":10621,"allery":10622,"Ġlui":10623,"×Ļ×Ĳ":10624,"Ġ})":10625,"_res":10626,"à´¿à´²àµį":10627,"ĉĉčĊ":10628,"Bytes":10629,"Â»,":10630,"osen":10631,"Ġdann":10632,"ĠÑĤÑĢ":10633,"Ġtraditional":10634,"Ġproduce":10635,"Ġbalance":10636,"CON":10637,"ÎµÎ¯":10638,"Ġbat":10639,"Pop":10640,"Ġchem":10641,"Ġdecor":10642,"Step":10643,"Dto":10644,"Ġwriter":10645,"ÑİÑī":10646,"Ġtiene":10647,"Ġwants":10648,"ĠÏĦÎ·ÏĤ":10649,"à¦¾à¦¦":10650,"Only":10651,"Ġrule":10652,"Ġappreci":10653,"Ġexit":10654,"ĠOper":10655,"Ġfeeling":10656,"cio":10657,"ÑįÐ½":10658,"username":10659,"Ġmonitor":10660,"idh":10661,"Ġale":10662,"Ġtam":10663,"Ġerrors":10664,"project":10665,"ĉĉĉĉĉĉĉĉĉ":10666,"ä¸Ńæĸĩ":10667,"Ġweekend":10668,"ĠEven":10669,"à¤ķà¥įà¤·":10670,"Operation":10671,"Ġsac":10672,"________________":10673,"Ġcomponents":10674,"erial":10675,"125":10676,".View":10677,"sites":10678,"èĢģ":10679,"Ġìľ":10680,"ÓĻÐ¼":10681,"ĠĠĠĠĠĠĠĠĠĠĠĠĠĠĠĠĠĠĠĠĠĠ":10682,"SA":10683,"Ġfue":10684,"vin":10685,"ĠÐ¿Ð¾Ðº":10686,"Ġmerc":10687,"Ġtous":10688,"ĠÐ±Ð¾Ð»ÑĮ":10689,"ientes":10690,"Ġhash":10691,"pol":10692,"Ġà´ªàµįà´°":10693,"ĠHa":10694,"Custom":10695,"ĠAssert":10696,"Ġviv":10697,"onto":10698,"Ġmechan":10699,"à¨¿à¨":10700,"ously":10701,"Ġfu":10702,"amount":10703,"Byte":10704,"Ġoverall":10705,"(A":10706,"inha":10707,"ä¹ĭ":10708,"Ä±m":10709,"ools":10710,"ĠClub":10711,"ahan":10712,"Ð°ÑĤÑĭ":10713,"ields":10714,"ĠMonday":10715,"Ġtel":10716,"seg":10717,"inline":10718,"vor":10719,"Î£":10720,"Ġcomfortable":10721,"ĠSaturday":10722,"å©":10723,"à²¬":10724,"unden":10725,"dag":10726,"å¤ĸ":10727,"ĠnÃ¤":10728,"hos":10729,"?>":10730,"Ġimmediately":10731,"cos":10732,"bd":10733,"Ġà¤¨à¤¹à¥Ģà¤Ĥ":10734,"ĠOrder":10735,"ĠâĢĿ":10736,"à¸Łà¸£à¸µ":10737,"ĠFlor":10738,"ÑĸÑĢ":10739,"Ġgreater":10740,"iling":10741,"Ġtests":10742,".be":10743,"Ð¾Ð½Ð¸":10744,"neh":10745,"ĠSign":10746,"annels":10747,"ĠåĪ":10748,"Ġsand":10749,"RT":10750,"à´¿àµ½":10751,".has":10752,"Ġmiles":10753,"Å¥":10754,"Ġsql":10755,"ĠaÃ±os":10756,"áĢĻ":10757,"Ġagree":10758,"éĹ¨":10759,"typedef":10760,"ĠÐ²ÑģÐµ":10761,"Ã¼t":10762,"emon":10763,"ĠAuthor":10764,"Ġfabric":10765,"impl":10766,"Ġspirit":10767,"Support":10768,"lee":10769,"à¸ļà¸Ńà¸¥":10770,"ÙĤÙĬ":10771,"Ġstrategy":10772,"Ġcel":10773,"ĠTeam":10774,"ĠlÃŃ":10775,"áĥ£áĥļ":10776,"Ġikke":10777,"ì°":10778,"è¿ĩ":10779,"ernel":10780,"eri":10781,"PM":10782,"Ġinstr":10783,"ĠÐĽ":10784,"Scroll":10785,"Õ¡Õ°":10786,"èĬ":10787,"Ġfir":10788,"Ġemployees":10789,"ĠØªÙĩ":10790,"Ġexpand":10791,"Ġdemonstr":10792,"------------":10793,"pliance":10794,"ÑĸÐ·":10795,"ĠEduc":10796,"Ġà¤ĺ":10797,"ĠÎ±ÏĢ":10798,";Ċ//":10799,"íĦ":10800,"ĠÐºÐ¾Ð¼Ð¿":10801,"Ġlooked":10802,"Ġcolors":10803,"Ġ$('#":10804,"Ġturned":10805,"Ġkap":10806,"Strip":10807,"Ġrev":10808,"ĠEast":10809,"ĠÐ´Ð¾Ð»":10810,"Mapper":10811,"cn":10812,"alu":10813,"Ġbatter":10814,"ÑıÐ²":10815,"Ġcer":10816,"Save":10817,"alance":10818,"osing":10819,"boot":10820,"ê±":10821,"\")ĊĊ":10822,"Õ¶Õ¥ÖĢÕ«":10823,"Ġhospital":10824,"Ġstack":10825,"ĠBa":10826,"ļáŀ":10827,"_com":10828,"Ó©Ð½":10829,"à¥įà¤ķ":10830,"Db":10831,"Ø§Ø´":10832,"scribe":10833,"Root":10834,"ĉtry":10835,"Ġlots":10836,"ĠBoard":10837,"plan":10838,"ĠØ¦":10839,"ÙĩÙĨ":10840,"ĠMen":10841,"Ġàª®àª¾àª":10842,"Weight":10843,"hell":10844,"æ¶":10845,"Ġclin":10846,"indi":10847,"{\"":10848,"Ð¸ÐºÐ°":10849,"Ġconn":10850,"Ġdetail":10851,"_a":10852,"_i":10853,"Ġmessages":10854,"Ġ'\\":10855,"Ġreli":10856,"target":10857,"arlier":10858,"Ġcasa":10859,"Ġrequires":10860,"ĠÐ¥":10861,"âĶ":10862,"Person":10863,"yond":10864,"Ġjou":10865,"Õº":10866,"ĠPlan":10867,"omas":10868,"Ġloved":10869,"avas":10870,"íĶ":10871,"}ĊĊ/":10872,"ĠMas":10873,"ĠJack":10874,"áĥĲáĥłáĥĹ":10875,"Ġserial":10876,"Ġoffered":10877,"ÙĪØ§ÙĨ":10878,"Ġctx":10879,"!!!":10880,"Ġshipping":10881,"ĠNode":10882,"ĉwhile":10883,"Ä±nda":10884,"ĠBuild":10885,"çīĮ":10886,"icing":10887,"ï¼ĳ":10888,"egen":10889,"Ġty":10890,"join":10891,"Ġáĥ®":10892,"à¥ĩà¤¶":10893,"<string":10894,"ĠTur":10895,"rum":10896,"-k":10897,"Ġinsert":10898,"Ġpsych":10899,"Ġscen":10900,"Ġtopic":10901,"ĠSH":10902,"áĥĺáĥª":10903,"aran":10904,"Æ°á»£":10905,"Ġsor":10906,"à¤·":10907,"Ġresponsible":10908,"utils":10909,"Ġmask":10910,"Ġuw":10911,"ecution":10912,"Ġlogger":10913,".co":10914,"Ġmeaning":10915,"Ġtrabal":10916,"ĠButton":10917,"ĠSex":10918,"Ġgez":10919,"ĠNE":10920,"âĢĿ.ĊĊ":10921,"à§ģà¦":10922,"ertain":10923,"\";":10924,"´Ģ":10925,"Ð¥":10926,"elcome":10927,"_model":10928,"Îł":10929,"Write":10930,"){čĊ":10931,"Ġhacer":10932,"à§ĩà¦ķ":10933,"cles":10934,".from":10935,"cell":10936,"ÑİÑĤÑģÑı":10937,"_per":10938,"umi":10939,"×ł×Ļ":10940,"ä»Ĭ":10941,"Ġps":10942,"à®¿à®°":10943,"Ã¤hr":10944,"Ġvolume":10945,"è¿Ľ":10946,"ĠÙħØ¬":10947,"Double":10948,"_start":10949,"Pe":10950,"ĠÐ¸ÑģÐ¿":10951,"Ġeye":10952,"Ġ\"+":10953,"Ġthat's":10954,"ĠØ§ÙĦØ·":10955,"ĠÐµÐ³Ð¾":10956,"ÑģÑĤÐ°Ð²":10957,"Ġreader":10958,"OVID":10959,"category":10960,"children":10961,"ĠGreen":10962,"window":10963,"ĠÏĦÎ·Î½":10964,"ĉpro":10965,"Ġå®":10966,"ĠSocial":10967,"entication":10968,"Ġnke":10969,"Ġtruly":10970,"inden":10971,"ĠLas":10972,"Bit":10973,"Ġjs":10974,"Ð¸ÐºÐ¸":10975,"Ġdiet":10976,"Ġpil":10977,"xture":10978,"ĠWHERE":10979,"Ĺà°¾":10980,"oti":10981,"################################":10982,"Ġtv":10983,"ÙħØ¯":10984,"ĠëĮĢ":10985,"ircle":10986,"ĠAuto":10987,"Ġreports":10988,"atically":10989,"\"))Ċ":10990,"æīĢ":10991,"ĠiÃ§":10992,"(path":10993,"OUR":10994,"yled":10995,"ĠComponent":10996,"êµ¬":10997,"Ġgut":10998,"anje":10999,"icien":11000,"åıĸ":11001,"Ġmetal":11002,"108":11003,".join":11004,"merce":11005,"Âº":11006,"à¸Ńà¸ķ":11007,"Ð³ÓĻ":11008,"Ã³g":11009,"unto":11010,"Ġrecon":11011,"iers":11012,"ĠCoun":11013,".component":11014,"ÑģÑĤÑĢ":11015,"jon":11016,"apat":11017,"ÑĤÐ¸Ð²":11018,"Ġoperator":11019,"áĥĻ":11020,"IVE":11021,"Ġglass":11022,"ÃŃst":11023,"ĠÐ±ÐµÐ·":11024,"ÛĮØª":11025,"á»«":11026,"wen":11027,"ĠLat":11028,"åįķ":11029,"Ġtipo":11030,"lements":11031,"ĠEngine":11032,".client":11033,"ALUE":11034,"ĠFunction":11035,"ĠKom":11036,"bling":11037,".width":11038,"Ġestim":11039,"à°¾à°°à±ģ":11040,"âĢĻÃ©":11041,"Ġë¶":11042,")*":11043,".http":11044,"Ġgy":11045,"Video":11046,"Ġparameter":11047,"ĠMany":11048,"íĻĶ":11049,"ĠAuf":11050,"Ġcaso":11051,"Ġeller":11052,"à²¿à²ķ":11053,"ichael":11054,"Year":11055,"Ġinvestment":11056,"Ġ×ĲÖ·":11057,"FC":11058,"Ġfeet":11059,"Ã´t":11060,"Ġê¸°":11061,"'d":11062,"raag":11063,"Ġsetup":11064,"Ġaudio":11065,"ĠÐ±ÑĭÐ»":11066,"×ķ×§":11067,"BS":11068,"Ġextremely":11069,"ĠprÃ©s":11070,"æĺİ":11071,"Ð½Ð¸Ðº":11072,"íĮ":11073,"à®¿à®©":11074,"(L":11075,"Ġvariable":11076,"Ġsett":11077,"Ġguid":11078,"Ġà¤ı":11079,"ĠVideo":11080,"Ġappropriate":11081,"Ġcentral":11082,"azz":11083,"ĠÙĦÙĩ":11084,"Ġminimum":11085,"ĠResearch":11086,"Ġeasier":11087,"Ø¯Ùħ":11088,"Ġdisease":11089,".target":11090,"Ġgal":11091,"Ġisn":11092,"under":11093,"ÐµÑĤÐµ":11094,"Ġcorrespond":11095,"Å©":11096,"ÏĦÎ¹Îº":11097,"ÑģÑĤÑĮ":11098,"=\"/":11099,"atever":11100,".dart":11101,"',čĊ":11102,"ĠØ¨ÙĨ":11103,"Ġker":11104,"onym":11105,"ĠpaÃŃs":11106,"FL":11107,"Ġretr":11108,"ĠMethod":11109,"Ġepis":11110,"cor":11111,"ĠÙĨÛĴ":11112,"itas":11113,"argo":11114,"Ġplaceholder":11115,"selected":11116,"ĠàªĨàªµ":11117,"TS":11118,"_un":11119,"Ġdella":11120,"Ġcompleted":11121,"Ġweather":11122,"ØµÙĦ":11123,"/Ċ":11124,"isher":11125,"Ġgrup":11126,"Ã«r":11127,"%%%%":11128,"Ø°Ùĩ":11129,"Ġhous":11130,"ç¾¤":11131,"interface":11132,"Ġprovider":11133,".lang":11134,"keit":11135,"aats":11136,"Ġprotection":11137,"áĥĵáĥĲ":11138,"eling":11139,"tee":11140,"boolean":11141,"ECT":11142,"@\"":11143,"formed":11144,"ĠMit":11145,"'m":11146,"wide":11147,".String":11148,"Ġalbum":11149,"Ġencontr":11150,"Events":11151,".ui":11152,"×Ĳ×¨":11153,"meta":11154,"Ġadapt":11155,"Ġwarrant":11156,"ĠÐ²Ð¾":11157,"Ø¹ÙĦ":11158,"Doc":11159,"Ġtemps":11160,"/core":11161,"ĠÐ¿ÑĢÐ°Ð²":11162,"Scale":11163,"ÙĭØ§":11164,"Ġedge":11165,"Ġhimself":11166,"çŃī":11167,"Iter":11168,"iku":11169,"Ãĥ":11170,"Ġkor":11171,"Ġthank":11172,"Err":11173,"park":11174,"rench":11175,"Ġà¦²":11176,"Ġdurante":11177,"ĠÐ²ÑĢÐµÐ¼":11178,"Ġschools":11179,"Ġscene":11180,"Ġbonus":11181,"Ã¡m":11182,"ĠWhe":11183,"à¥ĩà¤²":11184,"ÃŃcul":11185,"isen":11186,"modal":11187,"uminate":11188,"Ð»Ñĥ":11189,"Schema":11190,"asil":11191,"Ġä¸":11192,"à²¿à²¯":11193,"Ġelectric":11194,"à²¿à²Ĺ":11195,".Ex":11196,"ĠåĲ":11197,"ĠÊ»":11198,"Ġknew":11199,"Close":11200,"Ġole":11201,"Ġincreased":11202,"Ð¸ÑĤÐµÐ»":11203,"áĥķáĥĶáĥļ":11204,"draw":11205,"Ġopportunities":11206,"Ġsector":11207,"\")čĊ":11208,"_cl":11209,"Don":11210,"Ġnak":11211,"Ġingred":11212,"Ġdialog":11213,"ĠÑĢÐ°Ñģ":11214,"Ġwind":11215,"')->":11216,"Ġvid":11217,"ĠFranc":11218,"Ú»":11219,"ĠNetwork":11220,"Ac":11221,"Ġscience":11222,"Ġcompared":11223,"uir":11224,"à¥ģà¤¨":11225,"ìĨĮ":11226,"Ġstudies":11227,"Ġspent":11228,"ĠÐ¸Ñħ":11229,"earn":11230,"Ġfarm":11231,"rian":11232,"ĠCamp":11233,"oid":11234,"Ġea":11235,"arde":11236,"Ġeat":11237,"Ġalone":11238,"á»Ľi":11239,"#Ċ":11240,"Ġ/>":11241,"Ġcells":11242,"ĠÐ¿Ð¾Ð²":11243,"unning":11244,"Ġbroad":11245,"Ġscient":11246,"ĠSon":11247,"Ø³Ùħ":11248,"ĠManagement":11249,"Constants":11250,"inct":11251,"wd":11252,"tegr":11253,"ulture":11254,".prototype":11255,"Ġvisual":11256,"Ġbot":11257,"verter":11258,"Ġoffering":11259,"Ġà¤¡":11260,"áĥ¬":11261,"oven":11262,"Ø§Ø±ÛĮ":11263,"-T":11264,".common":11265,"ÑıÐ·":11266,"Ġmejor":11267,"×Ļ×Ł":11268,"HP":11269,"Ġcro":11270,"ĠRest":11271,"Mar":11272,"Ġteams":11273,"ĠLocal":11274,"ãģĿ":11275,"ĠFore":11276,"Ġfans":11277,"ĠAtt":11278,"Job":11279,"Ġpad":11280,"Ġwo":11281,"Ġlibrary":11282,"help":11283,"Ġ'#":11284,"Î¤":11285,"Ġrace":11286,"Ġ:ĊĊ":11287,"Timeout":11288,"primary":11289,"ania":11290,"ĠmÃ©":11291,"upload":11292,"Ġincreasing":11293,"æ¼":11294,"_dict":11295,"Ġzich":11296,"Ġannounced":11297,"Ġmand":11298,"à´Łàµįà´Ł":11299,"aming":11300,"Ġå¤©å¤©çĪ±å½©ç¥¨":11301,"Je":11302,"ĠBE":11303,"Ġgradu":11304,"AIL":11305,"ĠCustom":11306,"ĠStar":11307,".[":11308,"Ġmac":11309,"Ġfigure":11310,"Ġbrought":11311,"à®¨à¯įà®¤":11312,"Cre":11313,"imestamp":11314,"ĠIM":11315,"Ġsul":11316,"ĠKr":11317,"ÙģÙĬ":11318,"Logger":11319,"æį®":11320,"Ġtxt":11321,".Se":11322,"adora":11323,"Ġeconomic":11324,"è®°":11325,"ĠÃºlt":11326,"ä»ĸ":11327,"/g":11328,"éķ¿":11329,"amen":11330,"Ġcuando":11331,"Ġvast":11332,"Ġattract":11333,"Ġbeach":11334,"asket":11335,"à«įàªŁ":11336,"ç¼":11337,"izi":11338,"ĠOK":11339,"Ġwet":11340,"ayload":11341,"ĠLine":11342,"åĬĽ":11343,".example":11344,"isset":11345,"Ð½ÑĭÒ£":11346,"ĠÎºÎ±":11347,"Ġrooms":11348,"ĠCam":11349,"Ġ(_":11350,"Ġ\"#":11351,"isis":11352,"itet":11353,"Ġile":11354,"care":11355,"Progress":11356,"instance":11357,"à§įà¦·":11358,"Ġà²¤":11359,"ĠOffice":11360,"ÙĤØª":11361,"ĠPaul":11362,"à´¾à´£àµį":11363,"à¦¿à¦°":11364,"åħŃ":11365,"Ġgoals":11366,"ÏĦÎ¹":11367,"Ġincl":11368,".button":11369,"send":11370,"Ġà¦ıà¦ķ":11371,"ä¸ŃåĽ½":11372,"Les":11373,"Member":11374,"áĢĶ":11375,"structions":11376,"ĠYes":11377,"enas":11378,"Ġapi":11379,"endant":11380,"Ġpull":11381,"chor":11382,".post":11383,"Ġpolic":11384,"ÙģØ±":11385,"lished":11386,"Ġbh":11387,"ØŁ":11388,"å°ĳ":11389,"_node":11390,"ÐµÐ¸":11391,"ahi":11392,"Õ¥ÖĢÕ¨":11393,"Ġwire":11394,"Ġlok":11395,"áĥĺáĥł":11396,"ë¬¸":11397,"Na":11398,"888":11399,"áŀĢ":11400,"âĢĻa":11401,"Ġspread":11402,"Ġoffic":11403,"ĠConsole":11404,"inta":11405,"ĠWell":11406,"iliar":11407,"!=":11408,"ÐµÑģÐ¿":11409,"Ġidentify":11410,"ĠÔ±":11411,"à¸¥à¹ĩ":11412,"ians":11413,"ĠØ¬ÙĪ":11414,"åĮĸ":11415,"Ġoccur":11416,"Ġà¸ģ":11417,"-center":11418,"Ġcoff":11419,"ega":11420,"Ġ{}Ċ":11421,"à¦¶":11422,"ìĹ¬":11423,"Ġrelax":11424,"Ġlisten":11425,"Ġmur":11426,"×ķ×¤":11427,"Ġraw":11428,"Ġresp":11429,"yk":11430,"ĠÐ²Ð¸Ð´":11431,"Parse":11432,"Ġdetermine":11433,"Ġenable":11434,".fr":11435,"ĠJah":11436,"Find":11437,"Ġfel":11438,"licit":11439,"ìĹĲìĦľ":11440,"Ã¼nd":11441,"105":11442,"..ĊĊ":11443,"Ġgirls":11444,"æ¬¡":11445,"Related":11446,".As":11447,"ĠPR":11448,"Ġshoot":11449,"áº¥t":11450,"Ġelle":11451,"ĠQual":11452,"Ġloop":11453,"Ġharm":11454,"åĽĽ":11455,"oded":11456,"ersistence":11457,"Ġà¸£":11458,"ĠGlobal":11459,"olve":11460,"enance":11461,"Î¯Î½":11462,"Ø¯Ùĩ":11463,"];":11464,"Enc":11465,"Æ°á»Ŀ":11466,"Ġ)ĊĊ":11467,"ĠÚ©ÛĲ":11468,"Ġestr":11469,"Inst":11470,"ĠLin":11471,"roke":11472,"à¤¥":11473,"ĠÕ¡Õ¶":11474,"Ġll":11475,"Host":11476,"Ð¾ÑĢÑĤ":11477,"Perm":11478,"handle":11479,"Free":11480,"SET":11481,"à®ļ":11482,"à²¿à²¦à³įà²¦":11483,"Ġnamed":11484,"Ġwax":11485,".time":11486,"omin":11487,"ugg":11488,"nya":11489,"Ø¯ÙĬ":11490,"Ġihr":11491,"DO":11492,"Ġtesting":11493,"Ġmist":11494,"conds":11495,"Seg":11496,"ej":11497,"kit":11498,"Ġà²Ĩ":11499,"_config":11500,"Ġ$(\"#":11501,"/f":11502,"ĠAT":11503,"Ġster":11504,"aughter":11505,"ĠDownload":11506,"Ġsurv":11507,".un":11508,"uture":11509,"Ãºs":11510,"Ġsar":11511,"Ġfamilies":11512,"à¥įà¤ª":11513,"_length":11514,"iciÃ³n":11515,"ython":11516,"à¦¤à§ĩ":11517,"apon":11518,"ĠDB":11519,"Ġå¤§":11520,"ĠIk":11521,"Ġdiscount":11522,"Ġbenefit":11523,"anten":11524,"Ġsources":11525,"Ġforms":11526,"Ġwife":11527,"ilename":11528,"Ġsehr":11529,"Ġconcentr":11530,"Ġcup":11531,"Ġafford":11532,"jection":11533,"Cor":11534,"burg":11535,"(event":11536,"oes":11537,"Ġstation":11538,"MD":11539,"Ġpopulation":11540,"æĹ¶éĹ´":11541,"Ġlaunch":11542,"Ġmp":11543,".title":11544,"à¸²à¸ģ":11545,"åĻ":11546,"frame":11547,"àµ»":11548,"à¤¿à¤Ĥ":11549,"tor":11550,"ÒĽÓĻÐ°":11551,"STR":11552,"à¤¤à¥įà¤°":11553,"Ġmont":11554,"ĠEach":11555,"çĥŃ":11556,"document":11557,"ĠJan":11558,"olar":11559,".Model":11560,"Ð¾Ð²Ð°ÑĤÑĮ":11561,"Ġdont":11562,"àª¾àª¯":11563,"Ġtempo":11564,"ĠØ¶":11565,"¤ĳ":11566,"ĠTrump":11567,"Ġanc":11568,"empo":11569,"Ġaward":11570,"æıĲçİ°":11571,"_sub":11572,"otor":11573,"antic":11574,"Ġimplied":11575,"ĉself":11576,"à¸±à¸ļ":11577,"ÙĩØ±":11578,"ĠWITHOUT":11579,"erse":11580,"é«ĺæ¸ħ":11581,"(type":11582,"Ġincome":11583,"à¤¾à¤ª":11584,"ijo":11585,"Ð§":11586,")]Ċ":11587,"Ġ[];Ċ":11588,"ĠRoom":11589,"Ġub":11590,",$":11591,"Ġbuilder":11592,"áĥĿáĥļ":11593,"atively":11594,"ÑĥÐ°":11595,"-line":11596,"Ð¾ÑģÑĤÐ°Ð²":11597,"_EX":11598,"Ġwear":11599,"Ġunser":11600,"plus":11601,"Sort":11602,"ÃŃm":11603,"inese":11604,"aller":11605,"Ġshopping":11606,"ashboard":11607,"Ġbound":11608,"Ġfather":11609,"igital":11610,"gin":11611,"ĠatÃ©":11612,"Rate":11613,"çĶ·":11614,"Ġbeyond":11615,"oyal":11616,"Ġà°ªà±įà°°":11617,"Ġà¤¯à¤¹":11618,"Ġult":11619,"ogy":11620,"Ġgain":11621,"Ġthr":11622,"_result":11623,"Ð°Ð½Ð¸Ðµ":11624,"Ġcollabor":11625,"à³Ĩà²¯":11626,"_ERROR":11627,"ĠSun":11628,"Ġpowerful":11629,"ë§Ī":11630,"àª¬":11631,"menu":11632,"iform":11633,"produ":11634,"ĠGal":11635,"Loading":11636,"_k":11637,"Ġburn":11638,"Ġhighest":11639,"Ġà¸Ń":11640,"Ġ'../../":11641,"ĠGovern":11642,"Ġbytes":11643,"created":11644,"Ġtent":11645,"ĠDouble":11646,"ĠÐ°Ð½":11647,"Ġloan":11648,"ictions":11649,"errors":11650,".serv":11651,"Ġfactors":11652,"Ġwurde":11653,"iques":11654,"Ġguys":11655,"à¦ļ":11656,"ĠØ¹ÙĦÙĬ":11657,"×ķ×©":11658,"Ġmanage":11659,".draw":11660,"×¢×ľ":11661,"Ġee":11662,"Ú¾ÛĮ":11663,"ĠDescription":11664,"Ġej":11665,"Ġcalls":11666,"Ġbesch":11667,"win":11668,"tmp":11669,"ĠáĥĲáĥĽ":11670,"ĠØªØ±":11671,"Ġgebruik":11672,"Ġmere":11673,"ĠDev":11674,"à®Ļ":11675,"éļ":11676,"itÃł":11677,"_O":11678,">{":11679,"Ġanos":11680,"ç¦ı":11681,".height":11682,"enerated":11683,"Ġfinished":11684,"Ġnearly":11685,"Ġcommunication":11686,"Ġáĥ©":11687,"atr":11688,"ĠFull":11689,"Õ¢":11690,"ĠĠĊĊ":11691,"Ġmemb":11692,"_PRO":11693,"ĉr":11694,"Ġtalking":11695,"reh":11696,"Ġà°Ĩ":11697,"à´¤àµį":11698,"Ġtraff":11699,"ĠÕ©":11700,"æĽ´":11701,"Î¼Îµ":11702,"ĠÐ½Ð¾Ð²":11703,"Ġcmd":11704,"reme":11705,"Ġimmer":11706,"Ġthanks":11707,"ickets":11708,"à¸£à¸°":11709,"Ø³ÛĮ":11710,"à¯Īà®¯":11711,"æ°ĳ":11712,"Ġscript":11713,"ĠLife":11714,"Ġreasons":11715,"Ġevidence":11716,"Ø®Ø±":11717,"Ø§Ùĭ":11718,"Ġà¤ķà¤¾à¤°":11719,"LIC":11720,"_table":11721,"Ġrecords":11722,"Ġvoice":11723,"ÃŁen":11724,"Background":11725,"Ġfav":11726,"350":11727,"Ġlack":11728,"aal":11729,"Ġ\".":11730,"ificate":11731,"heit":11732,"_number":11733,"ìĦ¸":11734,"Ġquando":11735,"Ġobjects":11736,"ÙĥÙĦ":11737,"css":11738,"åĬ¡":11739,"ÑģÐ¸":11740,"non":11741,"icul":11742,"Ġmijn":11743,"ĠgÃ¶":11744,"Ã¤ng":11745,"ĠÐ¼Ð¾Ð¶Ð½Ð¾":11746,"Ġfear":11747,"Ġvil":11748,"ndef":11749,"terior":11750,"Ó¯":11751,"igi":11752,"ìĭł":11753,"à¤ĩ":11754,"ä¸İ":11755,"Ap":11756,"Gen":11757,"è¢":11758,"áĥĶáĥĳáĥ¡":11759,"Õ¥Õ²":11760,"å½ĵ":11761,"Ġdispon":11762,"Layer":11763,".message":11764,"redit":11765,"Ġexport":11766,"å±±":11767,"anned":11768,"Ġbá»¥":11769,"Ġspect":11770,"Ġverw":11771,"ĠPrice":11772,"Ġaim":11773,"Ġguard":11774,"'])":11775,"Ġ\"$":11776,"Ġnor":11777,"åĵª":11778,"Ġhundred":11779,"ĠÐºÐ¾ÑĢ":11780,"itat":11781,"(__":11782,"Ġhasta":11783,"arp":11784,"OU":11785,"ategor":11786,"æ·":11787,"leted":11788,"å¾Ĺ":11789,"Ġexperienced":11790,"Ġtrial":11791,"ãģł":11792,"Ġagent":11793,"Ġrealiz":11794,"à¦¾à¦¸":11795,"Ġpark":11796,"ØªÙĬ":11797,"Ġpermet":11798,"Ġendl":11799,"æİ¨":11800,"ĠØ¨Ø¹Ø¯":11801,"uler":11802,"ëıĻ":11803,"à¶±à·Ĭ":11804,"Ġrepe":11805,"Ġiniti":11806,"Ġged":11807,"âĢĻune":11808,"Ġwieder":11809,"Ġkil":11810,"ĠGar":11811,"Ġmaken":11812,"à²¿à²¨":11813,"Ġtechnical":11814,"[index":11815,"auc":11816,"Enum":11817,"Ãĵ":11818,"Ġdomain":11819,"ĠGen":11820,"Ġvalor":11821,"003":11822,"uent":11823,"_map":11824,"Vol":11825,"æ¯Ķ":11826,"Ġhaar":11827,"Ġradio":11828,"Ġå¾":11829,"abilities":11830,"×ķ×Ļ":11831,"à¸¥à¹ĩà¸Ńà¸ķ":11832,"ĠØ³Ø±":11833,"íĦ°":11834,"AF":11835,"ĠEuropean":11836,"ÐºÐ¾Ð¹":11837,"ĠTom":11838,"Ġdetect":11839,"ABILITY":11840,"utos":11841,"phere":11842,"Ġweer":11843,"íļĮ":11844,"Rule":11845,"Ġsecure":11846,"ĠEner":11847,"Ð½Ð¸Ð¼":11848,"global":11849,"Ð¾Ð´Ñĥ":11850,"ometry":11851,"ãģį":11852,"fix":11853,"session":11854,"à¸ģà¸²à¸£":11855,".Com":11856,"commod":11857,"Ġlif":11858,"props":11859,"itud":11860,"ĠMill":11861,"_cast":11862,"ĠÐºÐ¾Ð»":11863,"apes":11864,"Any":11865,"Ġàªķà«ĩ":11866,"à³ģà²µ":11867,"ç¥ŀ":11868,"-sh":11869,"Cond":11870,"pective":11871,"ETH":11872,"Ġcancer":11873,".On":11874,"à¯ģà®¤":11875,")/":11876,"é©¬":11877,"Ġdict":11878,"Editor":11879,"Ġprops":11880,"Ġ{'":11881,"ĠBox":11882,".max":11883,"Ġparticularly":11884,"ĠTexas":11885,"ĠWashington":11886,"success":11887,"Ġfriendly":11888,"ĠLook":11889,"ìļ°":11890,"Ġinclus":11891,"ÐµÑĨ":11892,"bin":11893,"voice":11894,"ÙĦØ¨":11895,"activity":11896,"));":11897,"Sk":11898,"ĠPlus":11899,"=\"{{":11900,"alf":11901,"uwe":11902,"_for":11903,"visor":11904,"Ġà²ĩ":11905,"Ġremoved":11906,"ĠĠĠĠčĊ":11907,"Ġesper":11908,"èĲ":11909,"ÑĥÑħ":11910,"enen":11911,"ĠUnivers":11912,"Ġà¦¥":11913,"103":11914,"Ġguess":11915,"Ø§Ø±ÙĬ":11916,"Ġarguments":11917,"ÎŁ":11918,"á»ī":11919,"ĠAccount":11920,"ÙħØ§ÙĨ":11921,"Ġisso":11922,"Ġpom":11923,"Ġsurround":11924,"ÓĻÐ»":11925,"ĠÙĩÙĪ":11926,"istrict":11927,"ç±»":11928,"Ġapro":11929,"ĠAustralia":11930,"Ġrestaurant":11931,"Ġjog":11932,"Ġzelf":11933,"ĠÐ§":11934,"___":11935,"ĠCasino":11936,"Ġaren":11937,"Ġêµ":11938,"idente":11939,"à¥įà¤¸":11940,"èµ°":11941,"ĠBlue":11942,"Ġalthough":11943,"ĠIsra":11944,"clip":11945,"ê·¸":11946,"àªµàª¾":11947,"Ġthreat":11948,"çĽ¸":11949,"002":11950,".delete":11951,"faces":11952,"ĠSpiel":11953,"à«ĩàª²":11954,"Ġwrote":11955,"Ġcache":11956,"tab":11957,"ÙĨÛĴ":11958,"æ¡":11959,"iration":11960,"ĠPay":11961,"âĹ":11962,"dk":11963,"Ġimpress":11964,"Ġearlier":11965,"Ġagr":11966,"Ġchurch":11967,"ä¿Ŀ":11968,"à¦Ń":11969,"éĿĴ":11970,"ĠåĽ½":11971,"à§įà§°":11972,"chedule":11973,"Ġonze":11974,"ĠÏĮ":11975,"Go":11976,"Where":11977,"contact":11978,"aÃ§Ãµes":11979,"Ġlit":11980,"ÙĦØ³":11981,"Ġsets":11982,"vc":11983,"Ø³ØªØ§ÙĨ":11984,"isto":11985,"Â¿":11986,"æĦı":11987,"zh":11988,"-D":11989,"rat":11990,"LA":11991,"ĠMont":11992,"een":11993,"ĠvÃµ":11994,"ĠDat":11995,"Ġdy":11996,"à²ķà³įà²":11997,"Ġà¸Ĺ":11998,"115":11999,"escription":12000,"Enumer":12001,"prite":12002,"Î¿Ïį":12003,"Ġast":12004,"Ġvu":12005,"ĠControl":12006,"anted":12007,"Ġabsolut":12008,"à¥ģà¤²":12009,"Ġà¤¹à¥Ģ":12010,"Ġfetch":12011,"Ð°ÑĢÐ¸":12012,"endl":12013,"aÃ°":12014,"essor":12015,"ãĥ¬":12016,"å®ĺæĸ¹":12017,"êµŃ":12018,"]['":12019,"ìĬµëĭĪëĭ¤":12020,"_j":12021,"Î»Î»":12022,"Ġnaj":12023,"ĠUnity":12024,"áŀĵ":12025,"aq":12026,"raints":12027,"Ġwaiting":12028,"Ã¼h":12029,"ĠpÃºblic":12030,"Ġbod":12031,"Ġdistr":12032,"Ġfon":12033,"ĠPara":12034,"Ġstrict":12035,"Ġbra":12036,"áŀĦ":12037,"Note":12038,"ĠÙħØ¯":12039,"Ġá¹£":12040,"à¸²à¸ĩ":12041,"ÑĥÐ²":12042,"ĠÐ¾Ñĩ":12043,"(F":12044,"ĠArg":12045,"xml":12046,"Ò¯Ò¯":12047,"ols":12048,"arse":12049,"serve":12050,"ders":12051,"à¤¯à¤¾":12052,"Ġupload":12053,"ograf":12054,"Ġuno":12055,"ë£":12056,"èģĶ":12057,"Cho":12058,"_object":12059,"ĉset":12060,"×¨×Ĳ":12061,"Ð¾Ð»Ð¾Ð³":12062,"Ġhyd":12063,"(View":12064,"áº¡i":12065,"Ġpassion":12066,"à´Ĺ":12067,"Ġseconds":12068,"anne":12069,"_item":12070,"cores":12071,"rior":12072,"Ġlisted":12073,"Ġremov":12074,"IGN":12075,"à¤¿à¤µ":12076,"ENSE":12077,"Ġcá»§":12078,"Ġconnected":12079,"orithm":12080,"plex":12081,"ÐºÐ¾Ð¼":12082,"{}":12083,"Ġoperations":12084,"ĠOrgan":12085,"road":12086,"âĺħ":12087,"Ġtemperature":12088,"nam":12089,"Ġà¦ĵ":12090,"ĠCOVID":12091,"Ġnotre":12092,"Ġmission":12093,"Ġacadem":12094,"Ġcloud":12095,"EB":12096,"Ġschon":12097,")),":12098,"ket":12099,"Ġpartir":12100,"uren":12101,"Ġmomento":12102,"ç¢":12103,"ambda":12104,"ĠÚĨÛĲ":12105,"Ġestate":12106,"Ġjag":12107,"à¶½":12108,"à®ªà¯įà®ª":12109,"Ġboost":12110,"ĠCare":12111,"Ġaplic":12112,"nis":12113,"Ġlev":12114,"à§Ī":12115,"ĠSom":12116,"Ġmesmo":12117,"à²£":12118,"Ġwhose":12119,"atches":12120,"lla":12121,"Ð¾Ð³Ð´Ð°":12122,"Fin":12123,"ÑĭÑģ":12124,"(k":12125,"ĠElect":12126,"ienen":12127,"ÎµÏĤ":12128,"Ġfinding":12129,"Ġimpos":12130,"æĻĤ":12131,"antity":12132,"æŃ¤":12133,"àª³":12134,"ä»£çĲĨ":12135,"àµĨà´¯":12136,"Ġhelping":12137,"standing":12138,"useum":12139,"Ġreflect":12140,"Connect":12141,"Ġcv":12142,"igu":12143,"à¸Ĺà¸µà¹Ī":12144,"ìŀħ":12145,"Ġcold":12146,"etzt":12147,"=False":12148,"ĠÑģÐµ":12149,"catch":12150,"Ġmulti":12151,"Ġov":12152,"Ġcá»§a":12153,"åį¡":12154,"essions":12155,"Ġvai":12156,"(error":12157,"à¹Ģ":12158,"Ġguy":12159,"Ġchallenge":12160,"Ð»ÐµÐº":12161,"Ġwebsites":12162,"ookie":12163,"stat":12164,"åľ°åĿĢ":12165,"Ġdirector":12166,"ĠTerm":12167,"Cap":12168,"Ġwij":12169,"Ġsb":12170,"_out":12171,"chi":12172,"mu":12173,"icted":12174,"Ġëĵ":12175,".use":12176,"ÑĥÑĢÐ°":12177,"ĠCD":12178,"\\Ċ":12179,"Ġà¤ħà¤¨":12180,".object":12181,".User":12182,"Ġmoved":12183,"Öĩ":12184,"iele":12185,"ĠCreat":12186,"à®Łà¯įà®Ł":12187,"ÙħØ§ÙĦ":12188,"Loader":12189,"Ġgenerally":12190,"à¸£à¹Į":12191,"(req":12192,"Intent":12193,"Hi":12194,"ensity":12195,"lijk":12196,"Ġsurpr":12197,"Ġdoub":12198,"ĠØ«":12199,"Transform":12200,"ĠcrÃ©":12201,"Ġíķĺ":12202,"Ð»ÑİÑĩ":12203,"104":12204,"Ġà¹Ĥ":12205,"ĠReview":12206,"Ġahead":12207,"ĠReport":12208,"Ġiyo":12209,"Ġscre":12210,"Look":12211,"icons":12212,"Ġfal":12213,"chron":12214,"Pool":12215,"Ġgaan":12216,"************************************************************************":12217,"Ġopening":12218,"Ã¶s":12219,"Ġcontroller":12220,"Ġcompare":12221,"lets":12222,"áĥĿáĥł":12223,"Wrapper":12224,"ĠNote":12225,"ĉassert":12226,"ĠÑįÐº":12227,"Ġsys":12228,"Ġexternal":12229,"Ġgibt":12230,"åħĪ":12231,"éĥ½":12232,"Ġati":12233,"ibles":12234,"NT":12235,"];čĊ":12236,"/t":12237,"submit":12238,"Ġatr":12239,"ĠEnter":12240,"Ġcapacity":12241,"ç¤º":12242,"izable":12243,"OUN":12244,"profile":12245,"ĠLast":12246,"unte":12247,"Ġmatrix":12248,"-K":12249,"ĉlog":12250,"ĠRock":12251,"crete":12252,"Here":12253,"ĠÙĩØ°Ø§":12254,"eks":12255,"ĠEss":12256,"Ġ×ĳ×ŀ":12257,"Ã¡g":12258,"Ġapart":12259,"à°¿à°Ĥà°ļ":12260,"Ġà¤¤à¥ĭ":12261,"Ġschedule":12262,"\".ĊĊ":12263,"ĠAL":12264,"ĠSince":12265,"ĠĠĠĠĠĠĠĠĠĠĠĠĠĠĠĠĠĠĠĠĠĠĠĠĠĠĠĠĠĠĠĠĠĠĠĠĠĠĠĠĠĠĠĠĠĠĠĠĠĠĠ":12266,"Ġjeg":12267,"ĠÐºÐ°ÑĢ":12268,"áĤ":12269,"ĠContact":12270,"Ġmenos":12271,"Ġdispatch":12272,"Ġ\"Ċ":12273,"Ġàª¥":12274,"Ġborn":12275,"umin":12276,".format":12277,"Invalid":12278,"eless":12279,"They":12280,"Fields":12281,"Ġconfiguration":12282,"ucht":12283,"Ġå¤§åıĳæĹ¶æĹ¶å½©":12284,"_int":12285,"à¸µà¸¢":12286,"ĠThanks":12287,"ãĤ¿":12288,"ÑĢÐ¾Ñģ":12289,"Ġjournal":12290,"åĢ¼":12291,"Õ©":12292,"Axis":12293,"Ġ\"../":12294,"ĠSimple":12295,"lj":12296,"¥¿":12297,"sum":12298,"Ġgone":12299,"ÑĤÐ°ÑĢ":12300,"Ġnar":12301,"ĠDiv":12302,"ĠWater":12303,"ĠUr":12304,"Ġ×Ĳ×ķ×Ł":12305,"ĠÐ°Ð±":12306,"112":12307,"Ġud":12308,"-mail":12309,"ataset":12310,"Section":12311,"ÐºÐ¸Ñħ":12312,"arga":12313,"Ġposted":12314,"Ø¯ÙĬØ¯":12315,"ë¹Ħ":12316,"àªļ":12317,"Ġsexual":12318,"ĠÐºÐ¸":12319,"IONS":12320,"ÙĩØ§ÛĮ":12321,"Ó¡":12322,"Ġprocessing":12323,"-old":12324,"Ġalloc":12325,"Sm":12326,"Ġappoint":12327,"ĠMor":12328,"\"].":12329,"ç¤¾":12330,"Ġrelevant":12331,"Ġfactor":12332,"Ġwild":12333,"Ġrac":12334,"elijke":12335,"Ġáĥľ":12336,"Ġartist":12337,"Ġseus":12338,"rees":12339,"å»º":12340,"reshold":12341,"Ġdoctor":12342,"èµ¢":12343,"à©ĭ":12344,"ĠDa":12345,"Ġrub":12346,"ĠÕ°Õ¡Õ´":12347,"Ġcopyright":12348,"Ò³Ð¾Ð¸":12349,"Ġtodas":12350,"à§ĩà¦²":12351,"ĠBay":12352,"fen":12353,"ìĺ¤":12354,"Ġannual":12355,"Ð»ÐµÐ¼":12356,"Score":12357,"Ġà¤¸à¤ķ":12358,"Ø®Øµ":12359,"cycl":12360,".Error":12361,"olic":12362,"Ġment":12363,"allel":12364,"MM":12365,"ĠFrank":12366,"Õ¡Õ¶Õ«":12367,"Keys":12368,"Ġgrad":12369,"ä½ł":12370,"gang":12371,"unes":12372,"ÑģÐºÐ°":12373,"ugins":12374,"alis":12375,"ĠÐ±Ð°Ð¹":12376,"erta":12377,"ÃĹ":12378,"Ġrapid":12379,"Ids":12380,"Ġpermit":12381,"ĠÑģÐº":12382,"Ġcritical":12383,"Ġlarger":12384,"Ġà²İ":12385,"ÑģÐµ":12386,"ÙĦØ§ÙĦ":12387,"Ġtruth":12388,"éĽĨ":12389,"èĥ":12390,"Ġmental":12391,"Ġdus":12392,"ĠTra":12393,"conn":12394,"Global":12395,"Ġorganis":12396,"ĠĠĠĠĠĠĠĠĠĠĠĠĠĠĠĠĠĠĠĠĠĠĠĠĠĠ":12397,"Ġbuying":12398,"Ġincred":12399,"éĻħ":12400,"-R":12401,"Ġuz":12402,"alah":12403,"device":12404,"Ġtanto":12405,"ĠÛģÛĮÚº":12406,"Ġship":12407,"oso":12408,"osi":12409,"Texture":12410,"ĠÙĦÙħ":12411,"Ġclosed":12412,"fill":12413,"Ġproces":12414,"Ġlugar":12415,"Join":12416,"quir":12417,"Ġsweet":12418,"owl":12419,"ĠÐ´ÑĢÑĥÐ³":12420,"Ġzero":12421,"àµįà´²":12422,"))čĊ":12423,"Ġcheap":12424,"à¥įà¤¨":12425,"æµ·":12426,"ioni":12427,"ÑĭÐ»Ð°":12428,"Por":12429,"Ġefficient":12430,"ĠOl":12431,"ingu":12432,"]:":12433,"Ġminute":12434,"ĠÙĥØ§ÙĨ":12435,"ĠRich":12436,"Si":12437,"Ġjam":12438,"||":12439,"USER":12440,"ĠTor":12441,"edy":12442,"){":12443,"ĠsÃŃ":12444,"Ã¡rios":12445,"ĠSP":12446,"TC":12447,"à±ģà°¨":12448,"(G":12449,"agma":12450,"à¤ķà¤°":12451,"iÃ¨re":12452,"ĠThursday":12453,"Ġfederal":12454,"Ġshot":12455,"Ġreadonly":12456,"Ù½":12457,"ĠOh":12458,"Ġinterview":12459,".en":12460,"Ġhoe":12461,"à³įà²Ł":12462,"Ð´ÐµÑĢ":12463,"(obj":12464,"ĠØ§ÙĦÙĦÙĩ":12465,"ĠOnce":12466,"Ġaffili":12467,"Ġìĭľ":12468,"Ġtransaction":12469,"itness":12470,"Ġisn't":12471,"ÐµÐ¸ÑĤ":12472,"Alignment":12473,"Ġemot":12474,".Re":12475,"bst":12476,"ateur":12477,"à¨¤":12478,"itÃ©s":12479,"'ai":12480,"esa":12481,"ĠProcess":12482,"_en":12483,"ĠMiss":12484,"ĠMass":12485,"Ġmissing":12486,"ĠPlayer":12487,"Many":12488,"Ġtherap":12489,"dt":12490,"ç±³":12491,"à¦¾à¦ľ":12492,"ĠApplication":12493,"ĠPop":12494,"Ġalles":12495,"ĠÐºÓ©":12496,"ĠRoad":12497,"Ġtalent":12498,"aws":12499,"×ķ×¡":12500,"ĠJo":12501,"ĠmÃ¥":12502,"etail":12503,"ãĤ³":12504,"à±Ĭ":12505,"à´ªàµįà´ª":12506,"_input":12507,"Ġflat":12508,"ĠVir":12509,"VAL":12510,"Ġmale":12511,"ĠBi":12512,"ä¹Ł":12513,"->_":12514,"RC":12515,"/lic":12516,"):čĊ":12517,"ĠIde":12518,"Ð¼ÐµÑĢ":12519,"wei":12520,"Ġ{{":12521,"Ġzw":12522,"à¤ģ":12523,"()));Ċ":12524,"Ġcoffee":12525,"_from":12526,"Ġexperiment":12527,"Ġorders":12528,"-item":12529,"Ġpoor":12530,"Ġà¦¸à¦®":12531,"Did":12532,"Ġáĥ¤":12533,"fon":12534,"indo":12535,"170":12536,"ĠJul":12537,"Ġcant":12538,"à²¹":12539,"pret":12540,"ĠÐ¤":12541,"à¤¾à¤¨à¥ĩ":12542,"ĠÐ¸Ð³":12543,"Ġê²ĥ":12544,"Ġdistribution":12545,"owa":12546,"uje":12547,"ÃŃvel":12548,"à§§":12549,"ĠBed":12550,"ancing":12551,"Ġdirectory":12552,"Ð»Ð¾":12553,"Ġleader":12554,"Ġäºļæ´²":12555,"Ġgj":12556,"áĢŃáĢ¯":12557,"uras":12558,"inet":12559,"istan":12560,"Pass":12561,")))Ċ":12562,"Ġgesch":12563,"ĠÐ·Ð°Ðº":12564,"ĠCong":12565,"Ġrid":12566,"Ġcrusher":12567,"áĥĿáĥĴ":12568,"anh":12569,"Ġhappened":12570,"ĠGL":12571,"ĠTuesday":12572,"Ġà¹Ħ":12573,"Ð¿ÑĢÐ°Ð²":12574,"expected":12575,"Ġels":12576,"Ġlose":12577,"ĠHead":12578,"Ġadvantage":12579,"SM":12580,"Customer":12581,"å¹ķ":12582,"Ġ-=":12583,"ÙĨØ©":12584,"Ġpeace":12585,"ĠSpecial":12586,"ĠWhy":12587,"ĠExper":12588,"ibi":12589,"Ð¸Ð²Ð°":12590,"Ġwelcome":12591,"cion":12592,"osta":12593,"Ġàªªà«įàª°":12594,"cias":12595,"Ġbeste":12596,"Ġmad":12597,"ĠPeople":12598,"ĠĠĠĠĠĠĠĠĠĠĠĠĠĠĠĠĠĠĠĠĠĠĠĠĠĠĠĠĠĠĠĠĠ":12599,"ĠStore":12600,"osh":12601,"Å¼e":12602,"Ð¹Ð½":12603,"Ġunless":12604,"Ġàªªàª°":12605,"comment":12606,"ĠChristian":12607,"article":12608,"à·Ļ":12609,"Ġanaly":12610,"validate":12611,"Õ¡ÕŃ":12612,"ĠvÉĻ":12613,"Ã¨res":12614,"ĠMA":12615,"Ġdoen":12616,"ï¼ļĊĊ":12617,"ĠÎ³Î¹Î±":12618,"avascript":12619,"Ġ\");Ċ":12620,"åĸ":12621,"ëħĦ":12622,"Ġdari":12623,"ĠÐ¶Ðµ":12624,"ĠFinal":12625,"Ġnegative":12626,"PUT":12627,"Ġhelped":12628,"Ġequal":12629,"åı£":12630,".check":12631,"lf":12632,"Expression":12633,"Ġfees":12634,"osis":12635,"Ġeuro":12636,"Ġjest":12637,"shared":12638,"cludes":12639,"Func":12640,"aram":12641,"Ġattr":12642,"Ġà¤ªà¤¹":12643,"Ġslight":12644,"Ġscope":12645,"Ġ...Ċ":12646,"Ġjourney":12647,"Ġsplit":12648,"à§ĩà¦¶":12649,"ĠParis":12650,"-x":12651,"ĠìķĦ":12652,"Selection":12653,"è®¯":12654,"insi":12655,"ipt":12656,"èĻ":12657,"ĠBon":12658,"ÙĬØª":12659,"Struct":12660,"Ġfollowed":12661,"Ġ'.":12662,"Ġupdates":12663,"High":12664,"Ġtri":12665,"Ġinstanceof":12666,"×ķ×Ĺ":12667,"Ġhomes":12668,"à²¨à³įà²¨à³ģ":12669,"Elements":12670,"rÃ¡":12671,"Ä±l":12672,"Ġadding":12673,"ENG":12674,"(url":12675,"Ġintr":12676,"Ð°Ð½Ð¸":12677,"ĠÐ°Ñħ":12678,"Ġgrat":12679,"Radius":12680,"à®¾à®ķ":12681,"icious":12682,"ï¿£":12683,"ĠviÃ°":12684,"Ġwerk":12685,"HA":12686,"Lat":12687,"Ġì§Ģ":12688,"ĠJames":12689,"arten":12690,"íı":12691,"ĠPo":12692,"ĠCommunity":12693,"Ġinner":12694,"Variable":12695,"Ġrout":12696,"enger":12697,"Ġnone":12698,"Ġà²°":12699,"lot":12700,"................":12701,"à²¿à²¤":12702,"amples":12703,"wt":12704,"×Ļ×Ļ×Ł":12705,"ĉe":12706,"Move":12707,"BB":12708,"Ġà¸ķ":12709,"Has":12710,"Ġfee":12711,"ĠnÃº":12712,"ĠØªÙħ":12713,"ĠvÃ¦":12714,"Ã½ch":12715,"cular":12716,"Õ¥Öģ":12717,"á»Ń":12718,"Ġali":12719,"ktop":12720,"Ġcivil":12721,"Ġdonde":12722,"Room":12723,"News":12724,"Ð¸Ð¹Ð½":12725,"à§±":12726,"activ":12727,"'Ã©":12728,"-content":12729,"cale":12730,"Ġvom":12731,"Boolean":12732,"ĠTele":12733,"ĠAlex":12734,"erk":12735,"ocity":12736,"ukan":12737,"à¨¨":12738,"Ġnap":12739,"drop":12740,"Ġbehavior":12741,"Ġtail":12742,"ĠAnal":12743,".filter":12744,"azine":12745,"Ġ\"-":12746,">'":12747,"Õ¡Õ¼":12748,"Ġdei":12749,"IOException":12750,"Ġluck":12751,"à¤ħ":12752,"ìĻĢ":12753,"ãĢĢãĢĢãĢĢãĢĢ":12754,"ĠCourt":12755,"PU":12756,"ê¹":12757,"Ġade":12758,"ĠBoolean":12759,"Ġremain":12760,"Ġtrail":12761,"Ġpieces":12762,"Ñļ":12763,"Ġyou'll":12764,"à§ĥ":12765,"np":12766,"Ġsistema":12767,"ĠChild":12768,"Ġtraffic":12769,"oods":12770,"ĠØ§Ùħ":12771,"Ġmovement":12772,"Ø§ÙĦÙħ":12773,"Ð¸ÑĤÑģÑı":12774,"ĠUnter":12775,"Ġprest":12776,"Ġnat":12777,"iece":12778,"å°±":12779,"ê°Ħ":12780,"Ġapplicable":12781,"_var":12782,"=None":12783,"è¿Ĳ":12784,".style":12785,"Nav":12786,"Ġolder":12787,"bind":12788,".android":12789,"Ġproduced":12790,"Ġestablish":12791,"entr":12792,"letter":12793,".exports":12794,"ĠáĥĵáĥĲáĥ":12795,"Ġring":12796,"Ġsurg":12797,"Ġndi":12798,".list":12799,"à´¸àµį":12800,"Ġhaven":12801,"ĠPrem":12802,"Ġnod":12803,".replace":12804,"Ġdiese":12805,"220":12806,"127":12807,"Ġfashion":12808,"ê³µ":12809,"Ð¼Ñĥ":12810,"uno":12811,"Ġestablished":12812,"VENT":12813,"Ġ=>Ċ":12814,"æģ¯":12815,"èĤ²":12816,"ĠOnly":12817,"throw":12818,"Ð·Ð°":12819,"Ġreset":12820,"ÑĢÐ°Ñģ":12821,"ÑĪÐ°":12822,"Ġinstant":12823,"ĠPet":12824,"ĠStat":12825,"ıà¤ķà¥ĭ":12826,"ĠAnn":12827,"ĠPromise":12828,"Ġrare":12829,"Ġainda":12830,"ÙĨÚ¯":12831,"Ð»Ð°Ñģ":12832,"Ġdá»ĭ":12833,"Ġperman":12834,"ÉĻt":12835,"Ġsuccessfully":12836,"Ġsupported":12837,"ĠAuth":12838,"Ġorigin":12839,"******":12840,"Ġtiempo":12841,"Ġbillion":12842,"Ø¹Øª":12843,"tk":12844,"Let":12845,"arta":12846,"Ġshift":12847,"ened":12848,"Ġstyles":12849,"Ġà¸§":12850,"none":12851,"ĠKon":12852,"Ú«":12853,"Ġpoll":12854,"Ġspecif":12855,"Ġ\"%":12856,"Ġplot":12857,"Ġ&&Ċ":12858,"Ġlux":12859,"Ġspring":12860,"ARD":12861,"ĠÐ´ÐµÐ»":12862,"Ġagreed":12863,"jem":12864,".layout":12865,"Ġlogo":12866,"Ð´Ð°ÑĢ":12867,"Ġ\"'":12868,"swer":12869,"Ġnotes":12870,"Ġconstruct":12871,"jango":12872,"ĠÂ¿":12873,"Ġpri":12874,".Pr":12875,"fx":12876,"Ġhusband":12877,"ĠMusic":12878,"Ġcreative":12879,"Ġtherefore":12880,"Ġapps":12881,"pk":12882,"Ġmotiv":12883,"Ġsignal":12884,"rog":12885,"Ġdescribe":12886,"ÙĥÙĪÙĨ":12887,"irth":12888,"Ġdecre":12889,"Ġeleg":12890,"Ġbrain":12891,"à§įà¦¥":12892,"Build":12893,"Ġoblig":12894,"iciency":12895,"itate":12896,"urb":12897,"àª¾àª®àª¾àªĤ":12898,"Ġstick":12899,"áĥ¨":12900,"Ġstreet":12901,"ãĢĤâĢĿ":12902,"ijs":12903,"ĠÐ¼Ð°":12904,"Ġtechniques":12905,"oir":12906,"Ð»Ð°Ð´":12907,"åħ¬åı¸":12908,"Ġtap":12909,"ĉw":12910,"ĠFrench":12911,"Ġmg":12912,"ĠWednesday":12913,"Ġheavy":12914,"Å½":12915,"Ø£ÙĨ":12916,"ÙģØª":12917,"opped":12918,"required":12919,"ĠÕ¹":12920,"ÃĦ":12921,"Ø³ÙĬ":12922,"æľĢæĸ°":12923,"inh":12924,"foreach":12925,"Some":12926,"åĪ¶":12927,"Results":12928,"Word":12929,"Ġmaintain":12930,"Ġà¦ªà¦°":12931,"ea":12932,"ĠVan":12933,"IRE":12934,"run":12935,"ĠLight":12936,"ORE":12937,"Ġseven":12938,"Ġveg":12939,"Lock":12940,"asis":12941,"Ġpromot":12942,"Ġë¬":12943,"andi":12944,"Ġholiday":12945,"ĠìłĦ":12946,"ĠSupport":12947,"umes":12948,"encode":12949,"Ġà¨¦":12950,"Ġperhaps":12951,"Ð¸ÑĨ":12952,"ĠAssociation":12953,"ĠIndian":12954,"ĠáĥĴáĥĲáĥĽ":12955,"áĥĿáĥłáĥ":12956,"SSION":12957,"ĠAbout":12958,".Web":12959,"Ġug":12960,"Term":12961,"ĠÎ¸":12962,"ushing":12963,"ĠserÃ¡":12964,"Ġquarter":12965,"Identifier":12966,"eps":12967,"Files":12968,"Ġmoder":12969,"VO":12970,"ĠÙħÙĪ":12971,"throws":12972,"Ġexpression":12973,"Ġà¤ķà¤¹":12974,"Ġpra":12975,"owired":12976,"à±ģà°Ĥà°":12977,"ĠProp":12978,"Ð½Ð¸Ð¹":12979,"_KEY":12980,"lia":12981,"ÑĭÐ¿":12982,"ategy":12983,"ĠPass":12984,"Ġwedding":12985,".Color":12986,"Ġdriving":12987,"uge":12988,"Ġplaced":12989,"Ġadvanced":12990,"Month":12991,"Ġkunt":12992,"ĠAccess":12993,"Ġkeys":12994,"à·ļ":12995,"java":12996,"à¹Īà¸²":12997,"Ġachieve":12998,"Ġeta":12999,"_new":13000,"Ġdecide":13001,"çµ":13002,"company":13003,"Ġabstract":13004,"%Ċ":13005,"ĠKn":13006,"ĠLove":13007,"Ġprofessionals":13008,"isco":13009,"Ġretail":13010,"Ø±Ø¶":13011,"_query":13012,"Ġcamb":13013,"ĠBre":13014,"Ġlaws":13015,"Ġëı":13016,"Ġmess":13017,"àª¾àª¤":13018,"++){Ċ":13019,"ĠtÃ¤":13020,"ĠIOException":13021,"Yes":13022,"_AD":13023,"ĠÎ±ÏĢÏĮ":13024,"ĠIntent":13025,"pped":13026,"gers":13027,"åħ¶":13028,"uti":13029,"Ø§Ø·":13030,"Ġexists":13031,"zone":13032,"ĠSQL":13033,"Ġneighbor":13034,"fras":13035,"Before":13036,"-the":13037,"ìĤ":13038,"inin":13039,"Compat":13040,"Ġexchange":13041,"ĠÏĢÎ¿Ïħ":13042,"Ġsang":13043,"ĠRepublic":13044,"ĠÃ©l":13045,"World":13046,"Ġposit":13047,"à·ĥ":13048,"ĠMaster":13049,")){Ċ":13050,"åĬ¿":13051,"Send":13052,"Ġpropr":13053,"allback":13054,"abo":13055,"ĠIr":13056,"Ġupper":13057,"ÑįÐ³":13058,"]čĊ":13059,"è±":13060,"à©°":13061,"Ġà¤¸à¤¾à¤¥":13062,"ĠBlock":13063,"ĠÙħØ·":13064,"ĠLive":13065,"Ġà¸Ļ":13066,"âĢ¬":13067,"ĠBlog":13068,"Ġchi":13069,"íķł":13070,"Ġexperts":13071,"well":13072,"fd":13073,"ĠMaterial":13074,"Ġå¹":13075,"While":13076,"uar":13077,">&":13078,"Inv":13079,"inq":13080,"Package":13081,"Ġcapac":13082,"Ġcovered":13083,"Ġzal":13084,"fach":13085,"Feature":13086,"ĉecho":13087,"_TR":13088,"Ð»ÐµÐ½Ð¸Ñı":13089,"SL":13090,"-H":13091,"Ġ}}Ċ":13092,"Ġham":13093,"ãĤ°":13094,"Ð²Ð¾Ð´":13095,"188":13096,"×Ļ×ŀ":13097,"Ġblo":13098,"Notification":13099,"ussen":13100,"Ġpon":13101,"ĠCollection":13102,"ĠPrint":13103,"Ġpy":13104,"ieb":13105,"ĠÐ¿ÑĢÐ¾Ð²":13106,"Ġrect":13107,"-of":13108,"ĠSpe":13109,"Ġsharing":13110,"ĠÃľ":13111,"-G":13112,"ĠÐ´Ðµ":13113,"ĠJava":13114,"ĠÎ·":13115,"(list":13116,"#ifndef":13117,"Ġattribute":13118,"buf":13119,"ĠLA":13120,"Ġà¤¹à¥ģà¤":13121,"ONG":13122,"models":13123,"oster":13124,"Ħà¸£":13125,"íĨ":13126,"Ġsuitable":13127,"Ġprepared":13128,"Ġseeing":13129,".position":13130,"ĠâĢĭ":13131,"ÑĢÐ°Ð¶":13132,"Required":13133,"ĠBuy":13134,"Ú¯Ø±":13135,"Å¡e":13136,".at":13137,"Ġæī":13138,"blem":13139,"lad":13140,"baar":13141,"icion":13142,"Ġcontribut":13143,"ĠÖĦ":13144,"These":13145,"áŀĺ":13146,"à¦§":13147,"ĠHD":13148,"ummy":13149,"à¤²à¥Ģ":13150,"Tube":13151,"Ð¨":13152,"ÃŁe":13153,"Ãªs":13154,"Ġdelay":13155,"FIG":13156,"parator":13157,"save":13158,"Ġà®ī":13159,"agi":13160,"ĠÐ±Ð¸ÑĢ":13161,"Ġved":13162,"(((":13163,"ÄŁÄ±":13164,"ĠAP":13165,"Styles":13166,"áĥłáĥĹ":13167,"Ġnad":13168,"ĠRobert":13169,"hidden":13170,"Ġáĥ¥":13171,"à°°à±įà°":13172,"Ġwaste":13173,"Ġdefine":13174,"_label":13175,"(array":13176,"abi":13177,"CCESS":13178,"MT":13179,"ĠCA":13180,"after":13181,"arty":13182,"Ġbek":13183,"×¤×¨":13184,"Ġkept":13185,"uran":13186,"real":13187,"Ġfond":13188,"Ġexperiences":13189,"Ġefforts":13190,"Ġsow":13191,"Ġ.=":13192,"ĠLou":13193,"ĠBritish":13194,"VD":13195,"idx":13196,"footer":13197,"Ġorient":13198,"ëĦ":13199,"Ġredirect":13200,"Ġàªµàª¿":13201,"Ġtrading":13202,"mak":13203,"ĠEU":13204,"Ġgarant":13205,"Er":13206,"ĠFort":13207,"²à±ĭ":13208,"à¤Ľ":13209,"oche":13210,".New":13211,"ččĊ":13212,"Ġfixed":13213,"Ġano":13214,"ĠÕ·":13215,"pan":13216,"Ġstarts":13217,"Sql":13218,"Ġvr":13219,"Ã¼k":13220,"à¸²à¸¡":13221,".insert":13222,"Ġmilitary":13223,".Column":13224,"Hello":13225,"aciÃ³":13226,"QUEST":13227,"ĠToday":13228,"Ġà¤¹à¤®":13229,"ĠÐ»ÑİÐ±":13230,"ãĥŃ":13231,"ĠAk":13232,"amba":13233,".U":13234,"æĭĽ":13235,"ĠMi":13236,"-on":13237,"quent":13238,"Ġthoughts":13239,"Ġprimer":13240,"Ġsmooth":13241,".execute":13242,"orders":13243,"iteit":13244,"Ð½ÑĭÐ¼Ð¸":13245,"orizontal":13246,"ĠAD":13247,"going":13248,"Ġwil":13249,"ĠÕŃ":13250,"argument":13251,"ÉĻl":13252,"Ġmayor":13253,"-al":13254,"Ġporn":13255,"Ġhabe":13256,"plugin":13257,"Ġlleg":13258,"Ġfazer":13259,"Ġhabit":13260,"ĠServer":13261,"ativo":13262,"_page":13263,"iera":13264,"ĠTag":13265,"ĠMichael":13266,"Flag":13267,"Ġcentre":13268,"å¢":13269,"Ġweiter":13270,"ÑĤÐ¾Ð¼":13271,"apse":13272,"Ġï¼ļ":13273,"hat":13274,"_title":13275,"Ġà´°":13276,"Ð³Ðµ":13277,"äººäºº":13278,"àµģà´¤":13279,"Sim":13280,"cement":13281,"ĠrÃ©s":13282,"Ġkad":13283,"Ġreplace":13284,"ÏİÎ½":13285,"ĠBu":13286,"Ġdess":13287,"pragma":13288,"chain":13289,"Ġantes":13290,"Ġonto":13291,"Ġà¤īà¤¨":13292,"Ġdispos":13293,"Ø«Ø±":13294,"ÕĿ":13295,"ÐµÑĢÐ¸":13296,"parser":13297,"ÐºÐ¸Ðµ":13298,"idential":13299,"ÑĤÐ¾Ð±Ñĭ":13300,"Single":13301,"Print":13302,"Ø¬Ùĩ":13303,"ĉend":13304,"_all":13305,"Ġunits":13306,"ugs":13307,"Ġsempre":13308,"Ġmater":13309,"Ġhandler":13310,"ĠTwo":13311,"240":13312,"Ġindependent":13313,"ulated":13314,"Ġaccommod":13315,"Ġsteel":13316,"ycle":13317,"blog":13318,"Ġalternative":13319,"you":13320,"ĠàªŃ":13321,"Ġmock":13322,"éĩı":13323,"Ġmath":13324,"ifer":13325,"$_":13326,"Rest":13327,"æł·":13328,"/licenses":13329,"Ġdestination":13330,"Space":13331,"Ġfootball":13332,"ĠAfrica":13333,"Ġpent":13334,"Ġapplied":13335,"Ġmine":13336,"'une":13337,"#ifdef":13338,"Ġavant":13339,"à¸µà¹ī":13340,"Ġchamp":13341,"ĠLike":13342,"(message":13343,"qa":13344,"Ins":13345,"à¤ķà¥Ģ":13346,"what":13347,"ayan":13348,"ULAR":13349,"Ġcourses":13350,"Ġkit":13351,"ĠPART":13352,"utf":13353,"ĠRo":13354,"-fe":13355,"(node":13356,"åıĮ":13357,"ancer":13358,"chte":13359,"Ġnuest":13360,"Ġà¸Ł":13361,"lica":13362,"ĠTim":13363,"ĠÃ³":13364,"106":13365,"ä»»":13366,"Ġhappens":13367,"à¯Ģ":13368,"Ġthousands":13369,"=[":13370,"Ã«n":13371,"Ġtok":13372,"sort":13373,"ĠÙħØµ":13374,"Ø¹Ø¨":13375,"'>":13376,"ĠÑĤÐ¾Ð»ÑĮÐºÐ¾":13377,"ĠUnd":13378,"NULL":13379,"agr":13380,"çī©":13381,"Ġgef":13382,"ĠZeit":13383,"Ġattend":13384,"Ġbiggest":13385,"leri":13386,"ĠmÃ©d":13387,"×ł×ķ":13388,"à§ģà¦²":13389,"Ġcompliance":13390,"ĠEsp":13391,"Ġpresented":13392,"Õ¡Õº":13393,"Ġdescribed":13394,"racht":13395,"ikes":13396,"ĠBeach":13397,"Ġ×Ĵ×¢":13398,"ĠCentral":13399,"icios":13400,"Ġmeg":13401,"Ã§as":13402,"irl":13403,"Ð¾ÑģÑĤÐ¸":13404,"íķ©":13405,"poses":13406,".\");Ċ":13407,"ĠhÃ¡":13408,"rei":13409,"Ġ.Ċ":13410,"iminal":13411,"ĠRa":13412,"ĠMel":13413,"(text":13414,"ĠManager":13415,"Ġà¤²à¤Ĺ":13416,"ĠAz":13417,"Het":13418,"Ġgek":13419,"icken":13420,"Ġdalam":13421,"Ġcoverage":13422,"plier":13423,"Ġextract":13424,"Ġproperly":13425,"ì¹ĺ":13426,"Ġdocuments":13427,"à§¨":13428,"plement":13429,"Ìģ":13430,"Ġimportante":13431,"Ġautor":13432,"uls":13433,"ĠLord":13434,"Ġsympt":13435,"riage":13436,"àª¥à«Ģ":13437,"Ø¯Ø±":13438,"Ġbought":13439,"Ġearth":13440,"Ø´Ø±":13441,"Ġestar":13442,".Array":13443,"APP":13444,"itr":13445,"Å¾e":13446,"ÑĥÑĥ":13447,"virt":13448,"Ġà¨ķ":13449,"Ð¯":13450,"æŁ¥":13451,"');čĊ":13452,"addr":13453,"oku":13454,"arks":13455,".group":13456,"edge":13457,"à²°à³įà²":13458,"Ġliqu":13459,"ĠDO":13460,"ĠÐ¿Ð¾Ð»ÑĥÑĩ":13461,"Just":13462,"ĠPress":13463,"Ġchain":13464,"å·ŀ":13465,"ĠĠĠĠĠĠĠĠĠĠĠĠĠĠĠĠĊ":13466,"ACT":13467,"Îļ":13468,"zeit":13469,"Plugin":13470,"ĠLoad":13471,"Ġà°ļà±ĩà°":13472,"Ø¨Ø§Ø±":13473,"åĨĨ":13474,"à°¨à°¿":13475,"ailability":13476,"ĠWir":13477,"cb":13478,"ĠPDF":13479,"Ġdanger":13480,"ĠPan":13481,"ĠSelect":13482,"Ġheaders":13483,"Ġknows":13484,"Ġwhatever":13485,"114":13486,"ALSE":13487,"à¤¾à¤ı":13488,"à¸²à¸Ĺ":13489,"ï¼ļâĢľ":13490,"Ġcancel":13491,"åĮĹäº¬èµĽè½¦":13492,"åŀ":13493,"entials":13494,"isl":13495,"ĠÑĩÐ°ÑģÑĤ":13496,"_EN":13497,"ĠDefault":13498,"Ã©ri":13499,"¾Ļ":13500,"Ġsociety":13501,".Id":13502,"chat":13503,"Submit":13504,"avigate":13505,"ĠRegister":13506,"kel":13507,"History":13508,"Ġplenty":13509,"Share":13510,"æł¼":13511,"×Ļ×¡":13512,"ĠÏĩ":13513,"Õ¡Õ²":13514,"illi":13515,"ĠSecurity":13516,"(index":13517,"Der":13518,"larÄ±":13519,"ĠCG":13520,"Div":13521,"010":13522,"Stop":13523,"Ġ*čĊ":13524,"Ġchallenges":13525,"Ġexercise":13526,"_VALUE":13527,"issa":13528,"PIO":13529,"Ġbah":13530,"Ġparties":13531,"appy":13532,"ÛĮØ´":13533,"aler":13534,"_token":13535,"ÐµÐ½Ð°":13536,"Ġadm":13537,"abb":13538,"éħ":13539,"à¦¿à¦¬":13540,"ĠĠĠĠĠĠĠĠĠĠĠĠĠĠĠĠĠĠĠĠĠĠĠĠĠĠĠĠ":13541,"']);Ċ":13542,"ĠFest":13543,"Ġ},ĊĊ":13544,"ĩà¸´à¸Ļ":13545,"Ġowners":13546,"Ġ!ĊĊ":13547,"ãĥķ":13548,"Ø§ÙĨÙĬ":13549,"Center":13550,"Ġprojet":13551,"owner":13552,"å²":13553,"Ø§Ú©":13554,"×Ĺ×¨":13555,"Ġwarranty":13556,"à¤ł":13557,"æ¥":13558,"Ġreality":13559,"-term":13560,"May":13561,".clear":13562,"ĠChurch":13563,"ĠUtil":13564,"element":13565,"à¶¯":13566,"168":13567,"ĠSize":13568,"ME":13569,"Ġ?ĊĊ":13570,"Ġremote":13571,"Ġadvent":13572,"ĠLE":13573,"Ġseparate":13574,"_no":13575,"Ġcompreh":13576,"clar":13577,"odi":13578,"ëĤ´":13579,"amps":13580,"ĠÒ¡":13581,"ĉĉĠĠĠ":13582,"à¦¥":13583,"Ġprz":13584,"Ġrows":13585,"Ġweak":13586,"Program":13587,"atura":13588,"189":13589,"ĠÃ§a":13590,"áĥĶáĥĴ":13591,"ĠGes":13592,"ERV":13593,"SG":13594,"Ã¼l":13595,"Ġempresa":13596,"Ġdeposit":13597,"è¶ħ":13598,"Ġduration":13599,"Ð´Ð¸Ð½":13600,"Łà«ĩ":13601,"ĠBecause":13602,"à¶§":13603,"ĠEen":13604,"pute":13605,"ĠSup":13606,"à§ĩà¦ĩ":13607,"Ġtoe":13608,"ĠíĻ":13609,"aug":13610,"Ġë³´":13611,"åģļ":13612,"Ġrh":13613,"unately":13614,"Ã¨t":13615,"ĠSeg":13616,"icher":13617,"ÑĭÒĽ":13618,"ä¸Ńå¥ĸ":13619,"cout":13620,"anie":13621,"vm":13622,"ĠÄ°":13623,"àµ¾":13624,"olution":13625,"ĠEducation":13626,"split":13627,"×ķ×¦":13628,"Ġpremi":13629,"uur":13630,"Ãħ":13631,"Ġrating":13632,"Ġnumerous":13633,"orer":13634,"*/ĊĊ":13635,"Ġdepth":13636,")[":13637,"Ġtasks":13638,"bes":13639,"ĠÏĥÏħ":13640,"tip":13641,"Desc":13642,"Ġappar":13643,"Ð±Ð°":13644,"áĥŀ":13645,"à¤²à¤¾":13646,"achment":13647,"ĠJun":13648,"ĠÐ½Ð°Ñĩ":13649,"Ġarchitect":13650,"ÙĤÙĦ":13651,"acher":13652,"Ġcars":13653,"ĠØ¢ÙĨ":13654,"Ġwinter":13655,"ocial":13656,"áģĭ":13657,"è²":13658,"Thank":13659,"Ġgather":13660,"Ġqueue":13661,"ĠEurop":13662,"HECK":13663,"Ġpartial":13664,"107":13665,"Ġà¤ķà¤¿à¤¯à¤¾":13666,"ĠKar":13667,"ãĤ·":13668,"bot":13669,"Cart":13670,"ĠTa":13671,"à±ģà°ķ":13672,"uku":13673,"Ġutiliz":13674,"Ġìĸ":13675,"rez":13676,"Ġ{čĊčĊ":13677,".contains":13678,"Ġsmaller":13679,"Ġdepartment":13680,"×ľ×Ĳ":13681,"fn":13682,"_len":13683,"She":13684,"iences":13685,"Ġclassic":13686,"force":13687,"ĠSing":13688,"ëŁ¬":13689,"Ġell":13690,"amma":13691,"hd":13692,"ivel":13693,"_val":13694,"Ġobvious":13695,".Value":13696,"ÙĦÙĪ":13697,"Ġìļ":13698,".image":13699,"ifying":13700,"Ġstars":13701,"Ð´ÓĻ":13702,"ĠExt":13703,"Directory":13704,"Ġguests":13705,"ç¨ĭ":13706,"_end":13707,"Ġprepare":13708,"Ġcraft":13709,"-size":13710,"sec":13711,"Ġbright":13712,"ĠInstagram":13713,"emand":13714,"rar":13715,"akh":13716,"Ġlearned":13717,"Make":13718,"Ġruns":13719,"Ø¬Ø±":13720,"à¹īà¸Ļ":13721,"à¸¡à¹Ī":13722,"ĠÑģÐ¾Ð±":13723,"ĠDevelopment":13724,"Ġfundament":13725,"Ġkol":13726,"Ġgarden":13727,"ĠRiver":13728,"Ġtypically":13729,"Ä±z":13730,"_max":13731,"-label":13732,"ÑĨÐ¸Ð¾Ð½":13733,"Ġhonest":13734,"Ġ×¤×ķ×Ł":13735,".Read":13736,"çĿ":13737,"bal":13738,"ĠiÅŁ":13739,"Ġà¨¸":13740,"ĠAff":13741,"Ġdf":13742,"Argument":13743,"async":13744,"Ġtub":13745,"Ġalla":13746,"icians":13747,"Import":13748,"Ġsquare":13749,"oa":13750,"Ġæ±":13751,"ĠÕĢ":13752,"bij":13753,"Ġbatch":13754,"ÐŃ":13755,"'));Ċ":13756,"Õ«Öģ":13757,"æ¬§ç¾İ":13758,"Î±Î½":13759,"Ġporno":13760,"ĠMinister":13761,"Ġzou":13762,"ĠNon":13763,"ror":13764,"Ġaid":13765,"outube":13766,"ĠDies":13767,"Ġgenerated":13768,"ĠØ§ÙĦÙħØª":13769,"Ġforeign":13770,"ĠÐ¼Ð°ÑĤ":13771,":@\"":13772,"Ġsusp":13773,"ì§Ħ":13774,"COM":13775,"clipse":13776,"ĠbaÅŁ":13777,"à§Ĥ":13778,"Animation":13779,"Duration":13780,"è¥¿":13781,"Ġrequests":13782,"Ġtse":13783,"Ġchanging":13784,"ATUS":13785,"Definition":13786,"Ġmud":13787,"aby":13788,"ĠpolÃŃt":13789,"Ġtruck":13790,"×Ľ×ľ":13791,"Ġorganizations":13792,"Ġking":13793,"ĠDirector":13794,"à¦¨à§įà¦":13795,"à®¿à®±":13796,"Mock":13797,"âĦ¢":13798,"áĥĶáĥļáĥĺ":13799,"Ġsuite":13800,"è®¾":13801,"nov":13802,"ĠCouncil":13803,"imas":13804,"ÈĻi":13805,"DEBUG":13806,".entity":13807,"Ġmentioned":13808,"ĉprotected":13809,"áĥĺáĥķ":13810,"ä½ķ":13811,"Ġdil":13812,"Ġopinion":13813,"Ġforget":13814,"ØŃØª":13815,"Ġworkers":13816,"åİ»":13817,"beit":13818,"ĠkÃ¶":13819,"×Ļ×Ļ×Ŀ":13820,"Ġverm":13821,"ĠMount":13822,"anim":13823,"ĠGrand":13824,"rollers":13825,"ĠĠĠĠĠĠĊ":13826,"alan":13827,"igan":13828,"ĠAf":13829,"íĸĪ":13830,"à¦Łà¦¿":13831,"settings":13832,"-N":13833,"inds":13834,"azo":13835,"XML":13836,"åĻ¨":13837,"udad":13838,"Ġobjet":13839,"Ġescort":13840,"media":13841,"Ġsek":13842,"Ġjump":13843,"Ġà°ĩ":13844,"agers":13845,")),Ċ":13846,"Ġimplementation":13847,"Â²":13848,"sz":13849,"alm":13850,"ĠÙĪØ±":13851,"Åº":13852,"Ġstandards":13853,"ĠDit":13854,"áĥĺáĥ¢":13855,"_U":13856,"Ġdaughter":13857,".str":13858,"Ð»Ð¸Ñĩ":13859,".Create":13860,"Ġà¤®à¤¹":13861,"itur":13862,"Other":13863,"çģ":13864,"ðŁĺ":13865,"Two":13866,"Ø¨Ø¯":13867,"=new":13868,"æĤ":13869,"ifts":13870,"Ġandroidx":13871,"ĠÐ¼Ð¾Ð¶ÐµÑĤ":13872,"Ġrain":13873,"MB":13874,"Ġhang":13875,"Public":13876,"Ġ?></":13877,"Ġinterior":13878,".Button":13879,"ĠMais":13880,"à¯įà®³":13881,".gl":13882,"Ġrecommended":13883,"uego":13884,"ĠContent":13885,"ĠNext":13886,"gun":13887,"ĠValid":13888,"Ġaudience":13889,"Ġdestroy":13890,"Ġemployee":13891,"ï¼Ĵ":13892,"Ġ×Ĳ×Ļ×Ł":13893,"_CH":13894,"dec":13895,"Ġgaat":13896,"Ġfish":13897,"Ġserved":13898,"Timer":13899,"_SH":13900,"second":13901,"game":13902,"Why":13903,"Î¹Ïĥ":13904,"GR":13905,"Ġopened":13906,"Ġabsolutely":13907,"ä¸ĵ":13908,"_init":13909,"à¤ķà¤¾à¤°":13910,"ĠUnder":13911,"à«įàª¤":13912,"ĠSecret":13913,"ÙĩØ¯":13914,"ê°ľ":13915,"aye":13916,"Ð»ÐµÐ´":13917,"Ġconoc":13918,"ĠdÃŃa":13919,"è¯Ŀ":13920,"inho":13921,"áĥĺáĥĽ":13922,"109":13923,"Ġaos":13924,"Ã¬nh":13925,"Fail":13926,"ĠOk":13927,".url":13928,"Fi":13929,"Ġtidak":13930,"ĠPour":13931,"ä»¬":13932,"eff":13933,"ĠFlorida":13934,"à¸·à¸Ń":13935,"Ġrepair":13936,"à¸Ļà¹Į":13937,"Are":13938,"Ġdhe":13939,"Ġplants":13940,"olver":13941,"vet":13942,"vg":13943,"à¨¸":13944,"é¢ĺ":13945,"å±ķ":13946,"Interval":13947,".back":13948,"uestra":13949,"ĠasÃŃ":13950,"Driver":13951,"à²¿à²°":13952,"Ġconserv":13953,"asp":13954,"Ġvariables":13955,"Ġfacilities":13956,"ĠSem":13957,"Ġkeeping":13958,"×ł×Ķ":13959,"Ã¤Ã¤n":13960,"Ġà¤§":13961,"ĠgÃ¶r":13962,"Ġfaith":13963,"dc":13964,"Ġhele":13965,"ÅĽci":13966,"Ġalgo":13967,"_message":13968,"ento":13969,"Úĺ":13970,"ĠBill":13971,"Ġthus":13972,"Mut":13973,"ĠIts":13974,"Ġ'',Ċ":13975,"Ġbuf":13976,"Ġmee":13977,"Ð¼ÐµÑĤ":13978,"ÐµÑī":13979,"which":13980,"¦à°¿":13981,"Æ°á»£c":13982,"Ġanimal":13983,"VC":13984,"ØŃØ©":13985,"Ġgeneration":13986,"iba":13987,"ÐµÐ»Ð¸":13988,"404":13989,"agra":13990,"Ġloaded":13991,"áº¿t":13992,"ĠScience":13993,"àµĬ":13994,"Ġmovies":13995,"?>Ċ":13996,"íģ":13997,"Ġleaders":13998,"ĠChinese":13999,"Ġregistered":14000,"ĠSand":14001,"ĠĠĠĠĉ":14002,"ĠMex":14003,"uite":14004,"=\"../":14005,"Meta":14006,".context":14007,"Ġdt":14008,"å¸ĥ":14009,"Ġsido":14010,"points":14011,"Ġdynamic":14012,"agg":14013,"OWN":14014,"Ġcentury":14015,"Ġidx":14016,"iante":14017,"Ġwid":14018,".count":14019,"into":14020,"æĺŁ":14021,"Network":14022,"-user":14023,"Ġdedicated":14024,"Ġcorre":14025,"Ġjur":14026,"ĠPath":14027,"210":14028,"Ġteaching":14029,"Ġnovel":14030,"ĠTre":14031,"ĠCast":14032,"ÏĦÎ¬":14033,"íĴ":14034,"team":14035,"ĠAlthough":14036,"cohol":14037,"witter":14038,"ĠÐ¼ÓĻ":14039,"DATE":14040,"Ġradi":14041,"Ġath":14042,"Ġencore":14043,"Ġteacher":14044,".all":14045,"Most":14046,"Ġpersonas":14047,"Ġvote":14048,"ĠÐ´Ð²":14049,".persistence":14050,"Ġhidden":14051,"à´£àµįà´Ł":14052,"ï¼Ĳ":14053,"Ġà¤ķà¤°à¤¨à¥ĩ":14054,"istant":14055,"ÕŃ":14056,"×Ļ×ķ":14057,"Ġfeedback":14058,"Ġkid":14059,"ÙħØ¹":14060,"Õ¸Õ¶":14061,"Ġresolve":14062,"ĠÐ¿ÑĢÐ¾ÑģÑĤ":14063,"ieg":14064,"Chat":14065,"Ġaccounts":14066,"ĠÑģÑĥ":14067,"Dim":14068,"ĠProperty":14069,"Ġaria":14070,"Ġ×Ķ×©":14071,"Ġflash":14072,"Cancel":14073,"iÃ§Ã£o":14074,"113":14075,"Alert":14076,"Ġexhib":14077,"Ġwest":14078,"à§ģà¦°":14079,")-":14080,"Ġbecomes":14081,"Ġmich":14082,"Ġcombination":14083,"Direction":14084,"åİŁ":14085,"áĥ¦":14086,"âĢĻn":14087,"esser":14088,"Ġ',":14089,"Ġfailure":14090,"_reg":14091,"Ġ___":14092,"Ġmedium":14093,"Bundle":14094,"istro":14095,"ĠnÃ«":14096,"à¸²à¸Ħ":14097,"ĠFamily":14098,"Img":14099,"ÙĥØ±":14100,"orden":14101,"ìĹħ":14102,"Ġæ¬":14103,"got":14104,"wick":14105,"éŁ©":14106,"(struct":14107,"íķĺëĬĶ":14108,"Ã¤ll":14109,"ï¼īĊĊ":14110,"(final":14111,"Ġnieuwe":14112,"(['":14113,"Ġsubmit":14114,"Ġeconomy":14115,"that":14116,"Points":14117,"person":14118,"ifs":14119,"loader":14120,".-":14121,"Ġvision":14122,"iais":14123,"Ġpac":14124,"Ġà²ªà³įà²°":14125,"Ð¾Ñī":14126,"ĠÐ¾ÑĢÐ³Ð°Ð½":14127,".db":14128,"ĠÐ°Ð¹":14129,"zn":14130,"serial":14131,"ĠRef":14132,"Ġpert":14133,"Ġvul":14134,"axis":14135,"Ð¾ÑģÑģ":14136,"Med":14137,"ìŀĪ":14138,"Resources":14139,"Ġdeveloping":14140,"ãĥ¡":14141,"ĠÐ¯":14142,"ĠLeb":14143,"Ġindustrial":14144,"Ġà°¦":14145,"ÙĬØ±Ø©":14146,"Ġpure":14147,"ÙĨÛĮ":14148,"Ð½Ð¸ÐºÐ°":14149,"Ġelev":14150,"Ġdeals":14151,"_,":14152,"à®¾à®©":14153,".Linq":14154,"ested":14155,"Ġ),":14156,"ĠMens":14157,"Ġpermission":14158,"ORY":14159,"iterator":14160,"_with":14161,"ĠPen":14162,"ĠÐ½Ð°ÑĪ":14163,"brief":14164,"Services":14165,"ĠTake":14166,"áŁĭ":14167,"irs":14168,"ployment":14169,"CM":14170,"unde":14171,"make":14172,"_field":14173,"/h":14174,"Îľ":14175,"Ġà²¦":14176,"Ó©Ð»":14177,"à§ľ":14178,"FS":14179,"ipeline":14180,"?âĢĿ":14181,"Ġdepart":14182,"Ġalter":14183,"Router":14184,"Ġà´µà´¿à´":14185,"ĠLic":14186,"Hot":14187,"Ġautomatically":14188,"Ġpurposes":14189,"Ġvy":14190,"Ġtf":14191,"Debug":14192,"à¨ķ":14193,"Ġcorner":14194,"ÐµÑĤÑĮ":14195,"Vertex":14196,"ĠÐ·Ð°Ð¿":14197,"ÑĸÐ²":14198,"ĠInvest":14199,"ĠÕ«ÖĢ":14200,"ston":14201,"dam":14202,"Ø§ÙħÙĦ":14203,"Ġcrypt":14204,"ĠáĥĿ":14205,"Ġdonc":14206,"ĠCho":14207,"ĠMarket":14208,"ĠDetails":14209,"Ġodd":14210,"ÙĴ":14211,"Ġeight":14212,"Ø¦ÛĴ":14213,"ãĤ«":14214,"ĠØ§ÙĦØ§":14215,"Ġparser":14216,"Ġà²®à²¾à²":14217,"Ġconstru":14218,"Ġwon't":14219,"ï¼ŁĊĊ":14220,"Contract":14221,"ÐµÐ½Ð¸Ð¸":14222,"Ġdip":14223,"ĠTree":14224,"Cr":14225,"ĠIsland":14226,"Ġconstit":14227,"ĠCe":14228,"fall":14229,"Ð»Ð°ÑĤ":14230,"ĠWARRANTIES":14231,"Condition":14232,"ĠGer":14233,"ĠKa":14234,"ooks":14235,"aban":14236,"Ġintellig":14237,"áĢ¼":14238,"ĠÐ¼Ñĭ":14239,"à¸´à¸ķ":14240,"Ġtrib":14241,"Socket":14242,"ÑĥÐµÑĤ":14243,"Ġvalu":14244,"Ġlocations":14245,"ĠLib":14246,"ĠÙĪØ§":14247,"Ġplt":14248,"ĠØ§ÛĮ":14249,"Ð°Ð´Ð°":14250,"river":14251,".utils":14252,"Ġshowing":14253,"Ġelection":14254,"Ġfilled":14255,"Ġmanaged":14256,"ÏĦÎ±Î¹":14257,"obby":14258,"Õ´Õ¡Õ¶":14259,"alen":14260,"ĠNach":14261,"ĠCert":14262,".i":14263,"è´Ń":14264,"ĠÑģÐ¾Ð²":14265,"Ġdiscussion":14266,"Ġlub":14267,"Ġ×ĳ×Ĳ":14268,"adt":14269,"Ġredis":14270,"ÙĩÙĪ":14271,".first":14272,"Ġcaused":14273,"çĦ¡ãģĹ":14274,"Mouse":14275,"çŁ¥":14276,"ĠÙĪÙĬ":14277,"Ġ\"@":14278,"Ġselling":14279,"folio":14280,"Ġaware":14281,"Download":14282,"à¯Ĥ":14283,"Ġà¤ľà¥ĭ":14284,"ĠTimes":14285,"bur":14286,"bour":14287,"licht":14288,"Ġkum":14289,"Ġæĸ°":14290,"_read":14291,"ĠEmail":14292,"éĢŁ":14293,"loop":14294,".os":14295,"Ġìłķ":14296,"assign":14297,"[k":14298,"ĠÙĩØ°Ùĩ":14299,"Ġ×ľ×ŀ":14300,"oses":14301,"Ð»Ð¸ÒĽ":14302,"Ġdut":14303,"ÑĭÑĤ":14304,"LY":14305,"Ġsad":14306,"ìķĪ":14307,"ĠÙħÙĤ":14308,"Ġdistrict":14309,"à¯įà®ķà®³à¯į":14310,"à©ģ":14311,"UST":14312,"LI":14313,"Ã¼m":14314,"Ġdiam":14315,"enced":14316,"Attributes":14317,"ĠEngland":14318,"anco":14319,"ĠÐ¿Ð¾Ð·":14320,"Ġrelationships":14321,"ĠMary":14322,"Photo":14323,"Ġpresence":14324,"CI":14325,"Ġexplore":14326,"ichen":14327,"áŀ·":14328,".Test":14329,"orgen":14330,"iat":14331,"äº¿":14332,"ĠÑĤÐµÐ¼":14333,"åįģ":14334,"Ġkes":14335,"Ġfamous":14336,"ĠIch":14337,"Ġbranch":14338,"iem":14339,"Ġprocesses":14340,"veis":14341,"Ġincorpor":14342,"ĠTer":14343,".File":14344,"Ð¾Ð²Ð°Ð½Ð¸Ñı":14345,"ĠHall":14346,"Ġenf":14347,"Ġtl":14348,"ĠTour":14349,"ï¸":14350,"ä¸ľ":14351,"Ġstone":14352,"Ä±k":14353,"Ġpak":14354,"zoek":14355,"Delegate":14356,"ĠÐ±Ð¸Ð»":14357,"ĠLeague":14358,"Ġoperating":14359,"Ġfly":14360,"Ġtek":14361,"Flags":14362,"(tr":14363,"background":14364,"Ġfunds":14365,"ferred":14366,"Ġëĭ¤":14367,"elines":14368,"åĳĺ":14369,"Ġadvertising":14370,"Ġtegen":14371,"yaa":14372,"-out":14373,"irus":14374,"OLD":14375,"Ġyield":14376,"Ġìłľ":14377,"napshot":14378,"ÑĺÐµ":14379,"Ġpreviously":14380,"_LO":14381,"ĉĠĠĠĠĠĠĠ":14382,"ãĥī":14383,"Policy":14384,"è·¯":14385,"dl":14386,"Ġwindows":14387,"ĠÛģÙĪ":14388,"Ã¡p":14389,"_UN":14390,"Ġà²Ĺ":14391,"à¤Ĥà¤Ĺ":14392,"ĠØ¯ÛĮ":14393,"ìľĦ":14394,"scape":14395,".\"Ċ":14396,"204":14397,"Ġdomin":14398,"Ã¶glich":14399,"ĠEqu":14400,"!!!!":14401,"à©±":14402,"+'":14403,"Ġdeclar":14404,"agt":14405,"_COM":14406,"ĠStatus":14407,"kat":14408,"ups":14409,"ĠÎµÏĢ":14410,"Media":14411,"Ġveget":14412,".Http":14413,"Ġshowed":14414,"Ġpic":14415,"Ġdatas":14416,"à¤Ĩ":14417,"_line":14418,"à§ĩà¦Ľà§ĩ":14419,"Ġrecipe":14420,"ctors":14421,"ĠSD":14422,"ĠÚ©Ø§Ø±":14423,"Ġestas":14424,"æĴŃæĶ¾":14425,"Ð³Ð¸":14426,"åŃĹå¹ķ":14427,"ĠCond":14428,"ãģ¾ãģĻ":14429,"å¾ĭ":14430,"ĠHy":14431,"Ġlin":14432,"Ò¿":14433,".debug":14434,"stances":14435,"_address":14436,"(Q":14437,"();čĊčĊ":14438,"-W":14439,".random":14440,"frastruct":14441,"Ġ//Ċ":14442,"Math":14443,"Ġpartners":14444,"áĥ£":14445,"UCCESS":14446,"áĥĺáĥĻ":14447,"ĠØ§ÙĦØ«":14448,"anka":14449,"-free":14450,"Ġelectr":14451,"è©":14452,"Ġvak":14453,".begin":14454,"izo":14455,"Ġevening":14456,"anas":14457,"_msg":14458,"Ġmouse":14459,"edom":14460,"ĠmÃ¶":14461,"ĠAdministr":14462,"Ġtransition":14463,"assa":14464,"ĠHave":14465,"Ġpill":14466,"ĠrÃ©g":14467,"ÏģÎ¬":14468,"Ġperformed":14469,"Help":14470,"Ġcalling":14471,"Ġparking":14472,"ĉC":14473,".Count":14474,".K":14475,"oba":14476,"Sur":14477,"Ġakan":14478,"Ġworry":14479,"å®Ŀ":14480,"ications":14481,"Ġà¨¹":14482,"engine":14483,"ĠÐ½Ð°Ñģ":14484,"ÙħÙĪ":14485,"ych":14486,"Ġsous":14487,"Ġfamiliar":14488,"Ġbott":14489,"ĠÂ»ĊĊ":14490,"æ¨":14491,"ĠCommand":14492,"erde":14493,"Ġchoices":14494,"é»Ħ":14495,".support":14496,"yer":14497,"ATED":14498,"Ġà¦¹à§Ł":14499,"amu":14500,"umbers":14501,"186":14502,"121":14503,"àª¿àª¯":14504,"Ġbeauty":14505,"Ġmeant":14506,"ÙĬØ§Øª":14507,"Ġhin":14508,"Material":14509,"\"]Ċ":14510,"ĠÑģÐ°Ð¹":14511,"ĠWas":14512,"PN":14513,"_trans":14514,"ãĥĹ":14515,"Ġpurs":14516,"ĠÙĥÙĦ":14517,"Ġappears":14518,"à¯įà®ļ":14519,"Ġfuncion":14520,"Ġà¤¥à¤¾":14521,"ffff":14522,"ĠBud":14523,"Ġâĸ":14524,"Ġprocedure":14525,"oves":14526,"à²¿à²¦à³Ĩ":14527,"à¯ģà®ķà¯įà®ķ":14528,"Ġáĥ§":14529,"SESSION":14530,"Ġyes":14531,"ĠÚ©ÙĨ":14532,"nih":14533,"âĢĿï¼Į":14534,"ĠAls":14535,"ĠCurrent":14536,"Ġdepending":14537,"atural":14538,"áĥĺáĥĲáĥľ":14539,"-day":14540,"Prop":14541,"Ġnada":14542,"áĢĽ":14543,"ĠInstitute":14544,"ĉprintf":14545,"chten":14546,"Extra":14547,"ĠLake":14548,"Õ¡Õ½Õ¿":14549,"Ġproc":14550,"Ð¾ÑĤÐ¾Ð²":14551,"ç§ĳ":14552,"ĠLocation":14553,"cipe":14554,"Speed":14555,"à¤¾à¤ģ":14556,".array":14557,"Board":14558,"normal":14559,"Ġfactory":14560,"ë¯¸":14561,"Ãªm":14562,"ossa":14563,"Ġheel":14564,"dan":14565,"eti":14566,"Ġbrief":14567,"zel":14568,"Ġmensen":14569,"ongs":14570,"ulations":14571,"ĠBY":14572,"FFFF":14573,"ĠRecord":14574,"ĠØ£ÙĬ":14575,"ĠBO":14576,"à²¿à²Ĥ":14577,"Ġthi":14578,"ĠÐ¨":14579,"ĠIndex":14580,"ĠRun":14581,"à§¦":14582,"ĠOld":14583,".ed":14584,"Ġjoint":14585,"ordinate":14586,"AK":14587,"éĵ¾":14588,"ĠFederal":14589,"Õ¡Õ¦":14590,"Best":14591,"Ġ×Ķ×ª":14592,"Ġĉ":14593,"Ġàªĸ":14594,"ummer":14595,"files":14596,".display":14597,"èĦ":14598,"ĠBes":14599,"Ġpoly":14600,"Ġà´ľ":14601,"zek":14602,"rey":14603,"Ġstores":14604,"ĠÐ¸ÑģÐ¿Ð¾Ð»ÑĮÐ·":14605,"ĠWall":14606,"Ġjak":14607,"Ġsenior":14608,"åįĹ":14609,"ÑįÑį":14610,"Ð¾Ð»Ð½":14611,"æ²¡":14612,"_param":14613,"ĠThread":14614,".Assert":14615,"controller":14616,"cas":14617,"Ġpayload":14618,"ĠWi":14619,"Ġnutr":14620,"ĠCommission":14621,"ocks":14622,"ĉstatic":14623,"atre":14624,"ĠØ§ÙĦØ°ÙĬ":14625,"ĠÐ¼ÐµÑĤ":14626,"Ġadvis":14627,"\"},Ċ":14628,"Ð¸ÑĢÐ°":14629,"ĠToast":14630,"ĠDim":14631,"Ô¥Ñģ":14632,"Ġdetailed":14633,"à¦ĸ":14634,"Ġcompos":14635,"Ġà¸¥":14636,"×Ļ×Ľ":14637,"Ġtorch":14638,"Ġàªī":14639,"ĠFund":14640,"ÐµÑģÑĮ":14641,"118":14642,"ĠÕ¡Õ¼":14643,"ulle":14644,"à¤¾à¤ī":14645,".Auto":14646,"Ġassistance":14647,"Character":14648,".request":14649,"à¸Ķà¹ī":14650,"Ġplate":14651,"ãģķãĤĵ":14652,"Lower":14653,"FILE":14654,"Ġwen":14655,"Ġmachines":14656,"Ġàª«":14657,"&&":14658,"Ġscan":14659,"(ctx":14660,"ĠWil":14661,"à¤Ĥà¤¦":14662,"ĠvÃŃ":14663,"ĠÐ±Ð¾":14664,"Ġpessoas":14665,"àª¿àªķ":14666,"Ġfantastic":14667,"Ò³ÓĻ":14668,"ç¶":14669,"icar":14670,"appro":14671,"Vo":14672,"Ġtaste":14673,"Pad":14674,"(čĊ":14675,"ĠåĽ½äº§":14676,"sign":14677,"Ġdecisions":14678,"ĠÐ¿Ð¾ÑĤ":14679,"Ġíķľ":14680,"à¤¸à¥įà¤¤":14681,"otic":14682,"'il":14683,"(y":14684,"Ġsqu":14685,"txt":14686,"Ġui":14687,"esti":14688,"005":14689,"Ġlect":14690,".Image":14691,"_pos":14692,"ikel":14693,"Ġà°¬":14694,"NO":14695,"ĠÙģØ±":14696,"Ġfois":14697,"Ã¤tt":14698,"Ġtrigger":14699,"áĥĲáĥ¨áĥĺ":14700,"ĠSaf":14701,"Ġbisa":14702,"trl":14703,"RESS":14704,"Ġwatching":14705,"ĠÕ¬":14706,"estic":14707,"à¤¾à¤ļ":14708,"ivi":14709,"bag":14710,"Mult":14711,"á»ħ":14712,"Ġcomplic":14713,"osto":14714,".Object":14715,"Ġanswers":14716,"ĠWeek":14717,"ĠClient":14718,"à®ķà¯įà®ķ":14719,"ĠTry":14720,"Scene":14721,"×£":14722,"æ´»":14723,"<>();Ċ":14724,"Ġtempor":14725,"ĠÙĩØ§ÛĮ":14726,"Ġkrij":14727,"Ġana":14728,"ĠLED":14729,"copy":14730,"è¢«":14731,"Ġmeta":14732,"á»ĩn":14733,"Ġå½©ç¥¨":14734,"orde":14735,"Ġprofes":14736,"Â´":14737,"]->":14738,"low":14739,"Ġà¦Ĩà¦®":14740,"185":14741,"Ġloading":14742,"Ġef":14743,"Ġgun":14744,"èķ":14745,"ĠUnion":14746,"hab":14747,"Ð»Ð°Ð²":14748,"POSE":14749,"Review":14750,"Ġnun":14751,"<!--":14752,"ĠRec":14753,"203":14754,"Comments":14755,"à¦Ľ":14756,"çĻ¾":14757,"asting":14758,"Ġsigned":14759,"itors":14760,"quality":14761,"ĠØ¨Ø¯":14762,"ĠMad":14763,"ancia":14764,"Ġtrop":14765,"ajax":14766,"ĠÐ¿Ð¾ÑĢ":14767,"ĠDeuts":14768,"Ġdied":14769,"aze":14770,"arroll":14771,"checked":14772,"Ġà¸ŀ":14773,"_post":14774,"å¼Ģåı·":14775,"ÑĸÐ¼":14776,"Ġremains":14777,"Ġmaintenance":14778,"Ġcad":14779,"187":14780,"asyon":14781,"ĠCommon":14782,"nÄĽ":14783,"ç»ĵæŀľ":14784,"122":14785,"Ġforum":14786,"ARG":14787,"ĠField":14788,"Ġ\"\",":14789,"Ġran":14790,"à°¿à°¤":14791,"Ġaug":14792,"*(":14793,"fc":14794,".run":14795,"ĠParam":14796,"argv":14797,"helper":14798,"116":14799,"\"];Ċ":14800,"Ø³Ø§ÙĨ":14801,"Generator":14802,"Ġtum":14803,"logo":14804,"Ġadvance":14805,"Ġsegment":14806,"ULE":14807,"à¸ĸ":14808,"Ġdumpster":14809,"-right":14810,"Ġà¦ĸ":14811,"ë¬´":14812,"insert":14813,"à®´":14814,"Ġoccup":14815,"ĠÐ³Ð¾ÑĢ":14816,"Ġbecoming":14817,"Ġexpensive":14818,"-lg":14819,"ilos":14820,"Ġice":14821,"ëªħ":14822,"(char":14823,"Ð¸ÑĤÐ¸":14824,"Ġåľ":14825,"Ġkg":14826,"Ġfuel":14827,"âĢĻil":14828,"ĠØ¨ÙĬÙĨ":14829,"çĶµå½±":14830,"~~~~":14831,"ĠnÃ©":14832,".shape":14833,"ĠER":14834,",p":14835,"Ġpossibly":14836,"Ġswe":14837,"cean":14838,"ĉstruct":14839,"àª°à«Ģ":14840,"Ġreject":14841,"NC":14842,"Ġcharges":14843,"ì¡°":14844,"compl":14845,"Ġclaims":14846,"(std":14847,"bootstrap":14848,"Ġvolt":14849,"plates":14850,"ouv":14851,"/css":14852,"Descriptor":14853,"Ġgoods":14854,"#import":14855,"ĠUnit":14856,"ĠMP":14857,"Ġkt":14858,"erto":14859,"ichtig":14860,"×Ĳ×ľ":14861,"ìĿĮ":14862,"àµĪ":14863,"Ġfoto":14864,"Û±":14865,"Ġverify":14866,"stra":14867,"Ġ).":14868,"450":14869,"Ġsj":14870,"Ġ×¦×ķ":14871,"à´³àµį":14872,"ĠVor":14873,"ĠRom":14874,"ĠLI":14875,"|Ċ":14876,"³Î¹Î±":14877,"ingo":14878,"puter":14879,"EP":14880,"Ġà´¬":14881,"Common":14882,"Ġjustify":14883,"_event":14884,"(args":14885,"ĠJew":14886,"ÉĽ":14887,"×ķ×Ĵ":14888,"åĽ½éĻħ":14889,"à®©à¯įà®±":14890,"\\Http":14891,"ĠÑģÑĢÐµÐ´":14892,"match":14893,"qli":14894,"ÑıÐ´":14895,"Ġkul":14896,"Thanks":14897,"à¨¹":14898,"Ġvary":14899,"ĠLogin":14900,"Å¡t":14901,"ĠNeder":14902,"à¸Ńà¸Ļà¹Ħ":14903,"Ġ×Ķ×Ĺ":14904,"eros":14905,"%,":14906,"ĠKind":14907,"ennis":14908,"Ġblij":14909,"ï¼ı":14910,"Publ":14911,"ĠÙĪØ£":14912,"Bottom":14913,"west":14914,"weg":14915,"Ġà²ľ":14916,"ĠÐŁÑĢ":14917,"Ã¤m":14918,"éĺ³":14919,"asje":14920,"question":14921,"ĠØ§ÙĦÙĬ":14922,"ĠáĥĽáĥĲáĥ":14923,"JECT":14924,"Proxy":14925,"NESS":14926,"Ġ\\\"":14927,"-th":14928,"å·§":14929,".init":14930,"aine":14931,"ĠSeries":14932,"áĥĶáĥ¢":14933,"Ð¾Ð²Ð¾ÑĢ":14934,"ĠFont":14935,"Ġwaren":14936,"ĠaÃ±o":14937,"umps":14938,"àµģà´ŁàµĨ":14939,"Ã¤s":14940,"Ġcleaning":14941,"Ġdelivered":14942,"ĠÙĨÛģ":14943,"Ġcursor":14944,"Ġmajority":14945,"erca":14946,"cruit":14947,"Sch":14948,"ilen":14949,"aret":14950,"åŀĭ":14951,"ĠPS":14952,"135":14953,"wana":14954,"à¤ķà¥įà¤¤":14955,"_params":14956,"Sync":14957,"ëĲĺ":14958,"ĠWhether":14959,".Date":14960,"rá»¥":14961,"Ġwy":14962,"Ġmarch":14963,"ĠCR":14964,"icago":14965,"Ġstim":14966,"Ġwine":14967,"Ġà¤Ĺà¤°à¥įà¤":14968,"Ġinstrument":14969,"nections":14970,"ĠPUR":14971,"Ġisang":14972,"ĉĉĉĉĉĉĉĉĉĉ":14973,"ãĤ¸":14974,"Ġassign":14975,"Ġkub":14976,"_view":14977,"ximately":14978,"bert":14979,"Ġcs":14980,"ĠiÃ§in":14981,"ĠÏĥÏĦÎ¿":14982,"Border":14983,"Ġà¶ļ":14984,"onda":14985,"Ġvalidate":14986,"Ġlav":14987,"esi":14988,"enti":14989,"(len":14990,"Ġtoda":14991,")čĊčĊ":14992,"Ġà¦Ľ":14993,"clear":14994,"Failed":14995,"bro":14996,".select":14997,"ĠPL":14998,"Ok":14999,"ĠLOG":15000,"Ġrelative":15001,"Ġà°ī":15002,"istor":15003,"ĠExp":15004,"Ġà¤ħà¤§":15005,"áĢ·":15006,"`,":15007,"Ġcontinued":15008,"Memory":15009,"à¤¸à¥Ģ":15010,"Auto":15011,"iji":15012,"áº¿n":15013,".hpp":15014,"Ġwalking":15015,"Ġrend":15016,"atio":15017,"_dis":15018,"Ġsouth":15019,"Ġà·Ģ":15020,"Ġleaving":15021,"Ġanimals":15022,"(current":15023,"ĠSource":15024,"ĠÚ©Ø±Ø¯":15025,"mg":15026,"Ġnative":15027,"Ġà¤°à¤¹à¥ĩ":15028,"Owner":15029,"Ġconflic":15030,"ĠFood":15031,"anja":15032,"onymous":15033,"ĠKl":15034,"ĠJson":15035,"Ġescol":15036,"Ġflo":15037,"å°Ĩ":15038,"ĠÃ¢":15039,"Ġpractices":15040,"Kit":15041,"pop":15042,".\\":15043,"æķĻ":15044,"ĠÐ´Ð°Ð½":15045,"Ġàª®àª¾àªŁà«ĩ":15046,"ĠÐ¼Ð¾Ð³":15047,"Ġreliable":15048,"ĠGerm":15049,"hin":15050,"anye":15051,"ĠÐ±ÑĥÐ´ÐµÑĤ":15052,"angen":15053,"Ġminor":15054,"Ġfocused":15055,"ê²½":15056,";&":15057,"Ġsuis":15058,"ĠÃ©gal":15059,"ĠOS":15060,"Ġcommunities":15061,"Ð¼Ð¾Ð¶":15062,"à¤¾à¤¬":15063,"ĉnew":15064,"Ġmini":15065,"Ġkot":15066,"ÑģÑĤÐ°":15067,"hetic":15068,".Al":15069,"Ġzone":15070,"ĠDistrict":15071,"Ġagreement":15072,"ĠÐ¿Ð¾ÑģÑĤ":15073,"åģ·":15074,"ĠØ§Ùģ":15075,"FE":15076,"ĉl":15077,"Ġillustr":15078,"#pragma":15079,"ĠÙĨØ¸":15080,"ĠáĥĴáĥĲáĥľ":15081,"éŁ³":15082,"Ġtopics":15083,"ĠÑĤÐµÐ»":15084,"ĠFar":15085,"kte":15086,"Ġàªļ":15087,"iendo":15088,"Pointer":15089,"ientos":15090,"Ġkuk":15091,"Ġended":15092,"Ġcontinues":15093,"/ĊĊ":15094,"Ġquiet":15095,"Ġcrow":15096,"Os":15097,"ĠÏĢÏģÎ¿":15098,"cripts":15099,"Ġfle":15100,"ĠTechnology":15101,"ĉĉĉĉĊ":15102,"Ġ×ŀ×Ķ":15103,"Ġride":15104,"Ġhace":15105,"Ġnullptr":15106,"ynt":15107,"Ġtotally":15108,"áĥķáĥĺáĥ¡":15109,"ĠIsrael":15110,"ÑģÐºÐ¾Ð¹":15111,".render":15112,"ĠoÃ¹":15113,"Ġsocket":15114,"Para":15115,"Ġreaders":15116,"BE":15117,"Ġpolicies":15118,"Ð±Ð¾ÑĢ":15119,"ä¸ŃæĸĩåŃĹå¹ķ":15120,"ãģ§ãģĻ":15121,"ĠLtd":15122,"uilt":15123,"DIT":15124,"Ġà´ī":15125,"Ø§Ø¯Ø©":15126,"Ġvin":15127,"ĠÈĻi":15128,"éł":15129,"Ġfoll":15130,"Ġbedroom":15131,"ĠÑģÐµÑĢ":15132,"ÑıÐ¼":15133,"anal":15134,"Ġbond":15135,"ĠAcadem":15136,"lers":15137,"Ġjun":15138,"Ġsole":15139,"ÎĹ":15140,"ĽĦ":15141,"Ġstrategies":15142,"Question":15143,"Ġáĥĺáĥ¡":15144,"stack":15145,"jour":15146,"sÃ¥":15147,"ï¸ı":15148,"ĭçīĮ":15149,"omo":15150,"à®©à¯į":15151,"ĠÕ¨":15152,"ÎŃÏĤ":15153,"Ġå¾®ä¿¡":15154,"ĠâĨĴ":15155,"Ġkaj":15156,"Ġfif":15157,"Î»Î¿":15158,"ä½¿":15159,"Ġequip":15160,"ãĤĪ":15161,"ØªÙī":15162,"ØªÛĮ":15163,"Ġproud":15164,"Ġ);čĊ":15165,"å±ŀ":15166,"ĠChamp":15167,"Ġmogelijk":15168,"Ã±a":15169,"Ġsuit":15170,"Prom":15171,"rg":15172,"Ġfot":15173,"Ġdiverse":15174,"Ġcompetition":15175,"Ġaccident":15176,"à¹Īà¸ĩ":15177,"uld":15178,"ĠWho":15179,"Mat":15180,"Ġrs":15181,"(msg":15182,"rowse":15183,"operator":15184,"ĠØªÙĨ":15185,"Ġcultural":15186,"Ġattributes":15187,"afa":15188,"ĠNg":15189,"MC":15190,"Ġrou":15191,"(size":15192,"ĠCustomer":15193,"×Ļ×¤":15194,"Ġ×Ĳ×Ļ×ĸ":15195,"Ġsister":15196,"Ġ'\"":15197,"esterday":15198,"Ġdebug":15199,"ĠÐµÑģÐ»Ð¸":15200,"riting":15201,"ASK":15202,"Ġmanual":15203,"empre":15204,"Ġinstalled":15205,"à¥įà¤°à¥Ģ":15206,"bas":15207,"replace":15208,"Ġexcited":15209,"ression":15210,"hou":15211,"Ġwinning":15212,"Ġvacc":15213,"Ġsnow":15214,"PECT":15215,"TV":15216,"Ġms":15217,".Event":15218,"Ġ\"\",Ċ":15219,"inecraft":15220,"Ġdok":15221,"Ġphase":15222,"odos":15223,"_is":15224,"Internal":15225,"Ġprompt":15226,".ĊĊĊĊ":15227,"Ã©lÃ©":15228,"ÐºÑĢÐ°":15229,"Ġproviders":15230,"cmp":15231,"Ġpromote":15232,"ĠMER":15233,"ÑıÐ½":15234,"imon":15235,"Ġpays":15236,"Ġreached":15237,"Ġenum":15238,"ERSION":15239,"ĠÐ·Ð°Ð¼":15240,"ĠAdv":15241,"ĠÑĤÐµÑħ":15242,"Ġflight":15243,"Ø§Ø«":15244,"'n":15245,"ĠReviews":15246,">\";Ċ":15247,"Ġmatches":15248,"Anim":15249,"stylesheet":15250,"Ġá»ĭ":15251,"ĠcÃ¡c":15252,".servlet":15253,"Sw":15254,"Ġconj":15255,"Ġtoward":15256,"_idx":15257,"alg":15258,"atile":15259,"Ġdav":15260,"Performed":15261,"Ġmelhor":15262,"Ġvisible":15263,"Ġasset":15264,"pth":15265,"Drop":15266,"_MAX":15267,"Ġdou":15268,"ĉprint":15269,"Copy":15270,"Information":15271,"ĠUSB":15272,"ĠTheir":15273,"Plan":15274,"Ġtus":15275,"âĢĻin":15276,"'))Ċ":15277,"ĠBrasil":15278,"(model":15279,"Ġly":15280,"ĠØ±ÙĪ":15281,"ĠPolicy":15282,"Ġpermissions":15283,"km":15284,"ovo":15285,"Ġleads":15286,"è¿ĳ":15287,"Ġrouter":15288,"Ġsle":15289,"';":15290,"Ġmic":15291,"Ġchart":15292,"Ġaliment":15293,"ĠFIT":15294,"Children":15295,"GEN":15296,"Ġdieser":15297,"fection":15298,"WORD":15299,"Ø§Ø±Ø§Øª":15300,"sible":15301,"Ġwilling":15302,"hot":15303,"áĥĺáĥĿ":15304,"isme":15305,"éĻĲ":15306,"ĠCorpor":15307,"Úĳ":15308,"Ġenjoyed":15309,"Ġfruit":15310,"chant":15311,"related":15312,"Ġà´Ĵ":15313,"ĠCarol":15314,"Ġupp":15315,"'].":15316,"à¨¦":15317,"Ġconsumer":15318,"åĪĨåĪĨå½©":15319,"ĠvÃ¤":15320,"íĴĪ":15321,"Ġplastic":15322,"ĠBad":15323,"anguages":15324,"_mod":15325,".this":15326,"à²ļ":15327,"Ġcul":15328,"obre":15329,"ĠgÃ©n":15330,"ĠExpl":15331,"ego":15332,"Ġthere's":15333,"Have":15334,"Åĵ":15335,"Ġeinfach":15336,"_URL":15337,"Ġsugar":15338,"Ġawesome":15339,"Ġslots":15340,"Ġáĥª":15341,"Ä¡":15342,"ordinates":15343,"]+":15344,"crit":15345,"æĶ¹":15346,"Ġseeking":15347,"×ķ×Ľ":15348,"Ġgrade":15349,"aju":15350,"Ø§ÙĦÙĬ":15351,"Ġà´İà´¨àµįà´¨":15352,"ãĤµ":15353,"break":15354,"é¢Ĩ":15355,"ĠÑģÑĤÑĢÐ°":15356,"FR":15357,"ĠÐ°ÑĤ":15358,"à¥Īà¤Ĥ":15359,"à´¨àµįà´¤":15360,"Ġspecies":15361,"ĠShort":15362,"144":15363,"duled":15364,"Ġassum":15365,"ushed":15366,"Ġ×ŀ×©":15367,"Ġesse":15368,"Ġextension":15369,"oq":15370,"Folder":15371,"formance":15372,"water":15373,"Ġsongs":15374,"Xml":15375,"ãģ¡":15376,"Ġchemical":15377,"Ġarrang":15378,"vt":15379,"vÃŃ":15380,"ĠÛ¾":15381,"Õ¡ÕµÕ«Õ¶":15382,".of":15383,"Ġmant":15384,"ĠÑıÐ²":15385,"uciÃ³n":15386,"Ġils":15387,".left":15388,"Ġcontem":15389,"I'm":15390,"Ġå°":15391,"URI":15392,"full":15393,"Student":15394,"ĠìĨ":15395,"ĠSin":15396,"operation":15397,"ÓĻÐ¹":15398,"miss":15399,"_or":15400,"Ġpok":15401,"yect":15402,"SH":15403,"iance":15404,"Ġtradition":15405,"ĠComment":15406,"Ġcompat":15407,"ĠÄĳÆ°á»£c":15408,"DU":15409,"Ġmagn":15410,"ÐµÐ½Ð¸Ð¹":15411,"Ġíĺ":15412,"Ð¸ÑĤÑĮÑģÑı":15413,"æ±Ł":15414,"320":15415,"ĠÏĦÎ±":15416,"Õ¶Õ¥ÖĢÕ¨":15417,"Ġcloth":15418,"ĠÑĩÑĤÐ¾Ð±Ñĭ":15419,"ARAM":15420,"á»Ļt":15421,"Ġpoker":15422,"erved":15423,"Ġdates":15424,"é¦ĸ":15425,"áŁĨ":15426,"à¤¿à¤®":15427,"ĠØ¨Ø±Ø§ÛĮ":15428,".sql":15429,"ĠSanta":15430,"ĠMult":15431,"à«įàªµ":15432,"[n":15433,"Ġàªªàª£":15434,"ìļ´":15435,"obo":15436,"_OP":15437,"Rows":15438,"ĠåĮĹäº¬":15439,"à¸±à¸ĩ":15440,"ellt":15441,"--Ċ":15442,"Ġimpl":15443,"irk":15444,"Ġàªıàªķ":15445,"Scope":15446,"_offset":15447,"Ġremaining":15448,"Ġpandem":15449,"ê³Ħ":15450,"àªŃ":15451,"ĠÃĸ":15452,"alpha":15453,"emplo":15454,"ĠIlluminate":15455,"Ġlors":15456,"Ġexciting":15457,"Ġtrait":15458,"àŃ":15459,"ÃŃan":15460,"-tr":15461,"emÃ¡s":15462,"pis":15463,"à¸¥à¸Ļà¹Į":15464,"Ġconference":15465,"_point":15466,"ì¦":15467,")}":15468,".xml":15469,"MI":15470,"ĠÐ±Ð°ÑĪ":15471,"Î¿ÏħÎ½":15472,"Ġpada":15473,"ĠÛ½":15474,"áĥļáĥĺáĥ¡":15475,"Ġbrings":15476,"Ġrum":15477,"Ġraised":15478,"èĢĮ":15479,"utz":15480,"enerate":15481,"clusion":15482,"ìľł":15483,"æµģ":15484,"æĶ¿":15485,"æĬĢå·§":15486,"Ġacademic":15487,"ĠÃ©galement":15488,"Ġguest":15489,"ĠAnda":15490,"isha":15491,"ëĶ":15492,"('./":15493,"ìķ¼":15494,"Ġtat":15495,"Ġagency":15496,"pun":15497,"Ġgust":15498,"ÑıÑĤÑĮ":15499,"Ġtough":15500,"Ø¦ÛĮ":15501,"ÑĩÐµÑģ":15502,"à´¨àµį":15503,"Ø®ÙĦ":15504,"Ġchose":15505,"Ġpremier":15506,"ĠGi":15507,"ĠìŀĲ":15508,"Ġà¦ħà¦¨":15509,"services":15510,"Ġsera":15511,"Ġseat":15512,"PRO":15513,"à²¾à²¨":15514,"okens":15515,"rig":15516,"333":15517,"ancial":15518,"Final":15519,"Ġbg":15520,
[...]
